<pad>	0
<unk>	0
<s>	0
</s>	0
▁t	-0
in	-1
▁a	-2
he	-3
re	-4
on	-5
▁the	-6
er	-7
at	-8
en	-9
▁s	-10
▁c	-11
▁o	-12
it	-13
an	-14
es	-15
is	-16
▁w	-17
al	-18
▁p	-19
or	-20
▁b	-21
▁in	-22
▁f	-23
ed	-24
nd	-25
ing	-26
▁to	-27
ic	-28
ar	-29
▁m	-30
▁of	-31
ion	-32
ro	-33
▁d	-34
▁and	-35
ou	-36
▁th	-37
ent	-38
le	-39
▁e	-40
st	-41
▁h	-42
▁re	-43
om	-44
▁n	-45
il	-46
as	-47
ly	-48
ve	-49
▁l	-50
▁be	-51
ct	-52
▁g	-53
ut	-54
▁is	-55
▁T	-56
ol	-57
ation	-58
▁that	-59
im	-60
ce	-61
se	-62
ra	-63
▁I	-64
ot	-65
▁A	-66
ver	-67
▁de	-68
ur	-69
id	-70
▁for	-71
ment	-72
ld	-73
ig	-74
ow	-75
▁on	-76
et	-77
▁it	-78
▁st	-79
ies	-80
ch	-81
ad	-82
nt	-83
▁u	-84
▁pro	-85
ir	-86
ul	-87
ill	-88
▁C	-89
▁con	-90
ate	-91
▁S	-92
▁B	-93
▁as	-94
ore	-95
▁–	-96
▁The	-97
ers	-98
ith	-99
▁wh	-100
est	-101
▁E	-102
pe	-103
▁al	-104
ity	-105
▁su	-106
▁r	-107
her	-108
▁cou	-109
ist	-110
▁with	-111
ge	-112
ort	-113
▁ex	-114
ay	-115
▁are	-116
lo	-117
▁an	-118
us	-119
ess	-120
▁U	-121
▁ne	-122
ab	-123
ial	-124
con	-125
res	-126
ive	-127
am	-128
ain	-129
ter	-130
if	-131
▁ha	-132
▁not	-133
th	-134
▁we	-135
iv	-136
▁com	-137
▁M	-138
ke	-139
▁by	-140
▁has	-141
em	-142
▁have	-143
▁P	-144
pp	-145
ac	-146
ould	-147
▁se	-148
▁W	-149
conom	-150
um	-151
▁le	-152
▁pol	-153
and	-154
qu	-155
▁sh	-156
oc	-157
▁will	-158
▁wor	-159
▁v	-160
▁econom	-161
ust	-162
igh	-163
rom	-164
▁count	-165
ia	-166
▁F	-167
over	-168
▁en	-169
▁G	-170
op	-171
ap	-172
ost	-173
ical	-174
▁or	-175
ant	-176
os	-177
▁at	-178
▁from	-179
▁im	-180
▁countr	-181
▁he	-182
ions	-183
art	-184
od	-185
iz	-186
uro	-187
▁“	-188
▁its	-189
▁Ch	-190
▁more	-191
▁their	-192
▁ch	-193
ome	-194
ong	-195
ast	-196
▁R	-197
▁y	-198
ure	-199
el	-200
ib	-201
un	-202
ans	-203
▁inc	-204
▁N	-205
▁2	-206
▁int	-207
ther	-208
▁But	-209
▁un	-210
ff	-211
▁res	-212
red	-213
ak	-214
▁imp	-215
▁In	-216
ich	-217
▁would	-218
▁was	-219
▁US	-220
ect	-221
▁Chin	-222
mer	-223
end	-224
ru	-225
ary	-226
▁ad	-227
▁ab	-228
all	-229
▁can	-230
ear	-231
gh	-232
▁Euro	-233
▁ag	-234
overn	-235
pt	-236
▁this	-237
ight	-238
ance	-239
row	-240
▁Europe	-241
anc	-242
▁1	-243
▁they	-244
ud	-245
ous	-246
▁govern	-247
▁O	-248
▁than	-249
▁20	-250
▁cont	-251
▁all	-252
du	-253
able	-254
▁which	-255
ational	-256
cc	-257
out	-258
ard	-259
ip	-260
▁D	-261
rou	-262
▁countries	-263
ations	-264
▁Th	-265
▁comp	-266
ign	-267
ates	-268
ated	-269
▁fin	-270
ie	-271
▁China	-272
▁whe	-273
▁H	-274
ere	-275
▁pr	-276
▁government	-277
▁(	-278
ult	-279
any	-280
lic	-281
ark	-282
▁world	-283
▁j	-284
▁fa	-285
▁rec	-286
ike	-287
ress	-288
ks	-289
▁exp	-290
ide	-291
ven	-292
▁year	-293
▁but	-294
▁do	-295
bal	-296
▁part	-297
ree	-298
▁dis	-299
▁polit	-300
orm	-301
▁grow	-302
ence	-303
▁polic	-304
▁tr	-305
▁economic	-306
reat	-307
one	-308
ag	-309
▁reg	-310
ub	-311
▁J	-312
▁been	-313
▁bec	-314
▁K	-315
ime	-316
▁other	-317
▁L	-318
lobal	-319
ian	-320
de	-321
▁pl	-322
▁out	-323
og	-324
▁pe	-325
▁new	-326
▁so	-327
ine	-328
age	-329
▁inv	-330
ction	-331
▁dec	-332
ile	-333
ors	-334
erm	-335
▁tra	-336
ll	-337
▁me	-338
▁over	-339
▁global	-340
ose	-341
▁cr	-342
are	-343
▁Un	-344
▁one	-345
so	-346
▁lead	-347
ally	-348
▁inter	-349
ition	-350
▁As	-351
ens	-352
form	-353
arket	-354
▁dem	-355
meric	-356
ower	-357
▁und	-358
ident	-359
ern	-360
lop	-361
ue	-362
▁his	-363
velop	-364
▁also	-365
▁Americ	-366
ep	-367
▁should	-368
ack	-369
▁only	-370
▁need	-371
ren	-372
▁like	-373
▁eff	-374
au	-375
▁growth	-376
▁who	-377
▁political	-378
reas	-379
our	-380
▁ris	-381
ire	-382
ake	-383
ities	-384
▁could	-385
cy	-386
ility	-387
▁pre	-388
▁about	-389
ism	-390
▁comm	-391
ople	-392
▁financ	-393
▁most	-394
▁no	-395
▁cons	-396
▁It	-397
fic	-398
▁Ind	-399
▁such	-400
▁market	-401
ited	-402
▁supp	-403
▁str	-404
▁invest	-405
ublic	-406
▁develop	-407
▁bet	-408
▁go	-409
▁long	-410
▁there	-411
▁sp	-412
ord	-413
▁now	-414
▁acc	-415
▁per	-416
▁people	-417
uch	-418
▁even	-419
ative	-420
▁19	-421
ish	-422
ange	-423
ious	-424
low	-425
ments	-426
▁cl	-427
▁ar	-428
▁qu	-429
▁policy	-430
▁ban	-431
▁were	-432
ew	-433
uc	-434
ric	-435
uss	-436
▁country	-437
old	-438
▁many	-439
lect	-440
▁increas	-441
▁some	-442
▁rel	-443
▁if	-444
▁St	-445
▁them	-446
▁up	-447
ution	-448
▁years	-449
ach	-450
▁cap	-451
▁financial	-452
▁under	-453
▁em	-454
int	-455
▁rem	-456
ces	-457
▁sy	-458
▁k	-459
ber	-460
▁inf	-461
ble	-462
▁app	-463
amp	-464
ause	-465
ame	-466
ough	-467
▁This	-468
av	-469
ons	-470
ace	-471
▁work	-472
▁cur	-473
und	-474
▁when	-475
eral	-476
lear	-477
▁ra	-478
▁European	-479
erv	-480
▁And	-481
▁economy	-482
bt	-483
resident	-484
illion	-485
ice	-486
▁must	-487
act	-488
▁power	-489
ass	-490
very	-491
stem	-492
ang	-493
▁these	-494
▁tw	-495
gy	-496
pect	-497
vent	-498
▁lar	-499
▁fir	-500
▁may	-501
▁produ	-502
▁soc	-503
▁Af	-504
ert	-505
▁ro	-506
we	-507
▁into	-508
▁ind	-509
▁what	-510
▁rep	-511
ital	-512
ating	-513
cess	-514
▁201	-515
▁am	-516
ory	-517
▁us	-518
ices	-519
own	-520
lud	-521
▁had	-522
▁te	-523
rough	-524
▁intern	-525
▁how	-526
▁time	-527
erest	-528
▁system	-529
▁Russ	-530
▁po	-531
ms	-532
▁Is	-533
▁much	-534
ise	-535
▁sc	-536
▁att	-537
▁cris	-538
ump	-539
ced	-540
▁200	-541
▁act	-542
alth	-543
▁public	-544
stit	-545
ount	-546
ax	-547
▁any	-548
▁pos	-549
its	-550
ual	-551
▁cent	-552
▁mon	-553
olog	-554
▁again	-555
ible	-556
.”	-557
ful	-558
▁Tr	-559
▁dif	-560
▁ow	-561
ov	-562
ind	-563
▁leaders	-564
arly	-565
▁just	-566
▁interest	-567
king	-568
urn	-569
ific	-570
ite	-571
ild	-572
▁co	-573
get	-574
ists	-575
▁EU	-576
hed	-577
ob	-578
▁United	-579
▁prov	-580
▁high	-581
▁conf	-582
ade	-583
hip	-584
per	-585
ond	-586
inist	-587
iet	-588
▁war	-589
▁international	-590
▁ac	-591
ization	-592
▁import	-593
▁well	-594
▁recent	-595
▁support	-596
ied	-597
▁trans	-598
▁Y	-599
▁crisis	-600
ient	-601
vers	-602
▁real	-603
▁fore	-604
▁because	-605
▁gen	-606
▁ref	-607
▁two	-608
ruct	-609
ics	-610
ase	-611
▁way	-612
hen	-613
oth	-614
▁far	-615
▁man	-616
ween	-617
iss	-618
▁opp	-619
▁those	-620
itt	-621
ene	-622
uring	-623
▁proble	-624
ives	-625
▁Trump	-626
ject	-627
ese	-628
▁between	-629
iven	-630
▁sec	-631
opul	-632
ral	-633
ran	-634
▁For	-635
oll	-636
▁includ	-637
ove	-638
▁right	-639
ict	-640
imate	-641
ward	-642
▁fact	-643
▁des	-644
ize	-645
rent	-646
▁def	-647
▁remain	-648
▁less	-649
▁Wh	-650
ration	-651
▁contin	-652
▁end	-653
aw	-654
▁America	-655
read	-656
pec	-657
▁debt	-658
▁while	-659
▁Germ	-660
sel	-661
ilit	-662
ound	-663
▁effect	-664
▁trade	-665
loy	-666
round	-667
aj	-668
▁too	-669
▁prog	-670
ues	-671
▁tax	-672
00	-673
ploy	-674
ry	-675
▁sur	-676
vel	-677
ings	-678
chn	-679
▁popul	-680
ail	-681
▁own	-682
▁state	-683
▁national	-684
▁ent	-685
ince	-686
apan	-687
term	-688
▁adv	-689
▁our	-690
▁first	-691
▁ass	-692
atic	-693
rit	-694
▁mod	-695
ption	-696
lp	-697
ures	-698
ural	-699
▁af	-700
▁off	-701
▁large	-702
▁Japan	-703
▁resp	-704
▁add	-705
led	-706
▁Russia	-707
▁sub	-708
ajor	-709
▁help	-710
▁result	-711
ential	-712
▁On	-713
▁examp	-714
▁ob	-715
▁against	-716
▁democ	-717
▁sim	-718
ized	-719
▁cost	-720
▁requ	-721
▁reform	-722
▁capital	-723
urity	-724
▁redu	-725
fere	-726
▁region	-727
▁current	-728
▁techn	-729
▁partic	-730
ability	-731
▁major	-732
▁ext	-733
ri	-734
▁last	-735
▁mem	-736
aking	-737
▁both	-738
▁kn	-739
▁seem	-740
▁change	-741
rib	-742
▁Se	-743
▁sign	-744
▁conc	-745
▁fund	-746
▁example	-747
allen	-748
ood	-749
oun	-750
▁after	-751
▁bo	-752
▁good	-753
▁prot	-754
▁infl	-755
▁$	-756
▁appro	-757
▁social	-758
▁investment	-759
orts	-760
cal	-761
les	-762
▁dep	-763
eed	-764
ically	-765
▁euro	-766
gan	-767
▁President	-768
▁ke	-769
▁milit	-770
▁cre	-771
utions	-772
ging	-773
▁If	-774
▁become	-775
▁through	-776
▁great	-777
ians	-778
ays	-779
▁make	-780
ram	-781
▁hum	-782
▁markets	-783
ft	-784
day	-785
▁bene	-786
ather	-787
▁governments	-788
ts	-789
▁cor	-790
▁ret	-791
▁where	-792
▁Iran	-793
▁aut	-794
gest	-795
▁foreign	-796
ense	-797
ex	-798
▁important	-799
▁banks	-800
▁health	-801
▁bu	-802
▁est	-803
▁policies	-804
▁West	-805
ract	-806
other	-807
▁fail	-808
▁does	-809
iness	-810
▁lo	-811
uclear	-812
ending	-813
▁demand	-814
ortun	-815
▁instit	-816
▁emer	-817
▁rest	-818
ok	-819
▁fut	-820
ron	-821
▁States	-822
▁back	-823
ath	-824
als	-825
ting	-826
ater	-827
▁challen	-828
rael	-829
orth	-830
▁Chinese	-831
▁V	-832
▁every	-833
▁Afric	-834
▁iss	-835
▁prom	-836
less	-837
▁sa	-838
,”	-839
▁rates	-840
▁main	-841
ank	-842
fore	-843
▁That	-844
▁economies	-845
▁leg	-846
▁More	-847
▁prop	-848
ergy	-849
▁future	-850
ually	-851
▁offic	-852
▁risk	-853
DP	-854
▁India	-855
▁technolog	-856
ision	-857
olution	-858
▁still	-859
▁same	-860
▁benef	-861
▁development	-862
▁military	-863
▁today	-864
▁Israel	-865
▁dom	-866
▁strate	-867
ined	-868
iew	-869
▁ins	-870
outh	-871
▁cour	-872
▁differe	-873
▁elect	-874
ning	-875
▁serv	-876
ready	-877
ily	-878
▁bas	-879
▁being	-880
ccess	-881
▁including	-882
ty	-883
▁use	-884
▁val	-885
ality	-886
der	-887
pl	-888
usiness	-889
▁since	-890
eration	-891
ially	-892
▁el	-893
▁nuclear	-894
ingly	-895
eg	-896
▁disc	-897
▁agree	-898
hing	-899
▁level	-900
▁ed	-901
▁strong	-902
▁Kore	-903
▁human	-904
▁sm	-905
▁American	-906
▁Germany	-907
▁neg	-908
ants	-909
▁br	-910
▁cred	-911
pr	-912
▁rate	-913
ness	-914
▁commun	-915
▁pur	-916
ten	-917
omm	-918
ared	-919
▁set	-920
ior	-921
▁likely	-922
▁priv	-923
etary	-924
▁might	-925
ably	-926
▁bel	-927
▁op	-928
▁already	-929
▁low	-930
▁Indeed	-931
ell	-932
▁vot	-933
▁equ	-934
ployment	-935
idd	-936
inc	-937
).	-938
iscal	-939
▁see	-940
▁threat	-941
▁billion	-942
imes	-943
),	-944
ctor	-945
▁call	-946
▁success	-947
▁term	-948
▁3	-949
▁take	-950
▁clear	-951
ieve	-952
li	-953
▁particul	-954
▁med	-955
bers	-956
▁did	-957
▁business	-958
▁es	-959
ved	-960
▁problem	-961
▁pers	-962
▁made	-963
▁GDP	-964
▁reas	-965
▁compet	-966
▁point	-967
ever	-968
▁ann	-969
▁energy	-970
not	-971
ency	-972
rast	-973
ged	-974
abor	-975
▁short	-976
▁product	-977
arch	-978
▁ide	-979
ving	-980
ss	-981
cept	-982
▁hist	-983
▁without	-984
▁indust	-985
▁ter	-986
▁De	-987
ges	-988
ertain	-989
ider	-990
oss	-991
0%	-992
▁stand	-993
▁hig	-994
cond	-995
▁inde	-996
▁job	-997
▁educ	-998
rem	-999
▁To	-1000
▁security	-1001
▁poss	-1002
▁prices	-1003
▁better	-1004
▁ser	-1005
▁know	-1006
▁protect	-1007
▁quest	-1008
▁fiscal	-1009
abl	-1010
▁contro	-1011
ger	-1012
tern	-1013
▁East	-1014
▁central	-1015
▁Wor	-1016
rab	-1017
▁decl	-1018
ury	-1019
▁Brit	-1020
ars	-1021
▁president	-1022
▁Int	-1023
▁often	-1024
▁consum	-1025
ents	-1026
racy	-1027
▁regul	-1028
ck	-1029
▁down	-1030
▁We	-1031
ivers	-1032
zone	-1033
▁then	-1034
▁pres	-1035
▁dist	-1036
▁adm	-1037
iddle	-1038
▁dire	-1039
ollow	-1040
▁With	-1041
uel	-1042
▁aff	-1043
hor	-1044
ouse	-1045
osed	-1046
▁ele	-1047
▁ap	-1048
▁imm	-1049
ines	-1050
▁At	-1051
▁expect	-1052
aly	-1053
▁arg	-1054
xt	-1055
▁Re	-1056
▁cannot	-1057
iron	-1058
▁So	-1059
▁rev	-1060
mental	-1061
ink	-1062
▁impro	-1063
here	-1064
▁start	-1065
ered	-1066
land	-1067
▁order	-1068
▁among	-1069
▁Sy	-1070
▁another	-1071
▁law	-1072
▁hard	-1073
▁states	-1074
▁turn	-1075
▁few	-1076
roup	-1077
▁There	-1078
▁Ob	-1079
▁fac	-1080
ama	-1081
▁ev	-1082
istan	-1083
▁process	-1084
▁toward	-1085
omen	-1086
ratic	-1087
▁three	-1088
self	-1089
▁private	-1090
▁course	-1091
▁Fr	-1092
ience	-1093
lam	-1094
▁million	-1095
▁pot	-1096
▁climate	-1097
▁Bank	-1098
ush	-1099
▁tar	-1100
anies	-1101
por	-1102
▁ine	-1103
▁clo	-1104
iving	-1105
▁very	-1106
▁rul	-1107
▁South	-1108
▁view	-1109
▁follow	-1110
▁approach	-1111
▁env	-1112
ructure	-1113
▁before	-1114
cing	-1115
▁move	-1116
▁ant	-1117
itions	-1118
▁They	-1119
inister	-1120
▁av	-1121
▁ful	-1122
stain	-1123
▁Arab	-1124
up	-1125
▁pay	-1126
ivid	-1127
▁ach	-1128
▁around	-1129
▁institutions	-1130
stand	-1131
▁increase	-1132
▁child	-1133
ute	-1134
oney	-1135
ves	-1136
▁least	-1137
ades	-1138
ross	-1139
▁companies	-1140
▁eas	-1141
hold	-1142
▁Moreover	-1143
▁allow	-1144
▁sustain	-1145
▁past	-1146
▁oil	-1147
▁Al	-1148
▁Gree	-1149
▁Union	-1150
ret	-1151
▁trad	-1152
▁An	-1153
▁bank	-1154
ph	-1155
▁Asia	-1156
▁World	-1157
▁weak	-1158
▁lif	-1159
ately	-1160
▁Africa	-1161
▁potential	-1162
▁num	-1163
▁press	-1164
▁put	-1165
▁role	-1166
ead	-1167
uge	-1168
▁rather	-1169
road	-1170
ening	-1171
▁mat	-1172
ances	-1173
aps	-1174
ued	-1175
▁higher	-1176
▁defic	-1177
most	-1178
▁account	-1179
rug	-1180
▁prof	-1181
▁199	-1182
▁lim	-1183
ying	-1184
ages	-1185
▁ens	-1186
▁form	-1187
▁income	-1188
▁meas	-1189
io	-1190
ources	-1191
lement	-1192
▁eurozone	-1193
▁opportun	-1194
▁Obama	-1195
ick	-1196
▁Korea	-1197
ibility	-1198
▁month	-1199
▁beh	-1200
▁though	-1201
▁North	-1202
ittle	-1203
▁monetary	-1204
ocus	-1205
▁labor	-1206
▁money	-1207
ining	-1208
▁play	-1209
ah	-1210
▁peace	-1211
▁group	-1212
▁effective	-1213
urther	-1214
oti	-1215
▁signific	-1216
▁whether	-1217
ished	-1218
▁members	-1219
▁Syr	-1220
▁loc	-1221
estic	-1222
▁author	-1223
▁vi	-1224
▁plan	-1225
▁societ	-1226
ivity	-1227
▁small	-1228
itiz	-1229
▁asse	-1230
▁inst	-1231
▁chang	-1232
pecially	-1233
▁5	-1234
▁Intern	-1235
aim	-1236
▁official	-1237
▁car	-1238
▁needs	-1239
raq	-1240
▁establ	-1241
▁environ	-1242
▁different	-1243
gin	-1244
ering	-1245
▁little	-1246
▁Tur	-1247
▁curren	-1248
▁inflation	-1249
▁focus	-1250
▁He	-1251
▁par	-1252
▁Iraq	-1253
▁exper	-1254
▁next	-1255
▁sol	-1256
▁ph	-1257
akes	-1258
▁gener	-1259
▁case	-1260
▁relations	-1261
ides	-1262
▁address	-1263
▁Rep	-1264
ficult	-1265
▁developing	-1266
▁control	-1267
▁fe	-1268
ash	-1269
▁crit	-1270
▁spec	-1271
▁difficult	-1272
▁education	-1273
ner	-1274
▁reason	-1275
▁concern	-1276
▁gu	-1277
ror	-1278
vere	-1279
▁free	-1280
ened	-1281
▁especially	-1282
▁needed	-1283
▁significant	-1284
acy	-1285
imin	-1286
▁citiz	-1287
air	-1288
▁Comm	-1289
ases	-1290
▁share	-1291
▁credit	-1292
ix	-1293
▁him	-1294
▁domestic	-1295
ogn	-1296
▁administ	-1297
▁run	-1298
▁appe	-1299
▁women	-1300
itive	-1301
▁rise	-1302
▁problems	-1303
▁rese	-1304
▁emerging	-1305
▁conflic	-1306
▁why	-1307
▁Fed	-1308
▁doll	-1309
ted	-1310
▁Islam	-1311
▁negoti	-1312
▁remains	-1313
▁show	-1314
▁non	-1315
▁4	-1316
▁ca	-1317
idence	-1318
▁come	-1319
for	-1320
reed	-1321
▁When	-1322
▁get	-1323
▁during	-1324
ird	-1325
▁means	-1326
▁cond	-1327
▁simp	-1328
▁cut	-1329
ators	-1330
ivil	-1331
▁inn	-1332
▁spending	-1333
change	-1334
▁decades	-1335
▁deep	-1336
▁costs	-1337
▁progress	-1338
anced	-1339
itional	-1340
▁access	-1341
▁pros	-1342
▁France	-1343
▁democracy	-1344
▁big	-1345
ling	-1346
▁question	-1347
sequ	-1348
▁election	-1349
cies	-1350
▁respons	-1351
▁find	-1352
▁return	-1353
▁continue	-1354
▁suff	-1355
▁happ	-1356
ork	-1357
pite	-1358
▁her	-1359
▁gain	-1360
▁fall	-1361
▁further	-1362
▁col	-1363
▁sector	-1364
com	-1365
▁reforms	-1366
▁eng	-1367
▁want	-1368
▁poor	-1369
▁mass	-1370
▁bal	-1371
▁longer	-1372
▁efforts	-1373
vention	-1374
▁build	-1375
rop	-1376
▁almost	-1377
▁key	-1378
vious	-1379
izing	-1380
▁stud	-1381
omet	-1382
▁viol	-1383
▁however	-1384
▁citizens	-1385
▁second	-1386
▁nat	-1387
▁organ	-1388
▁seems	-1389
0,	-1390
ave	-1391
alest	-1392
▁meet	-1393
▁given	-1394
onal	-1395
▁hal	-1396
▁camp	-1397
way	-1398
▁others	-1399
▁claim	-1400
formation	-1401
▁benefits	-1402
▁pat	-1403
▁civil	-1404
▁say	-1405
▁services	-1406
utin	-1407
▁model	-1408
▁requi	-1409
ither	-1410
▁best	-1411
arm	-1412
▁dr	-1413
▁const	-1414
▁One	-1415
▁agreement	-1416
ission	-1417
▁ago	-1418
▁care	-1419
▁within	-1420
▁require	-1421
ned	-1422
▁hold	-1423
▁yet	-1424
▁fam	-1425
▁project	-1426
▁recogn	-1427
pend	-1428
hes	-1429
▁hand	-1430
▁increasingly	-1431
ising	-1432
pid	-1433
cent	-1434
▁er	-1435
▁Yet	-1436
▁found	-1437
▁serious	-1438
lf	-1439
▁price	-1440
▁growing	-1441
▁occ	-1442
ided	-1443
▁my	-1444
▁workers	-1445
▁particularly	-1446
▁tru	-1447
▁While	-1448
▁direct	-1449
iberal	-1450
▁Sh	-1451
▁War	-1452
▁sug	-1453
▁innov	-1454
ateral	-1455
ale	-1456
▁event	-1457
▁population	-1458
wh	-1459
▁deal	-1460
▁mult	-1461
ners	-1462
ope	-1463
reng	-1464
▁Part	-1465
▁target	-1466
te	-1467
ON	-1468
▁coll	-1469
▁you	-1470
rastructure	-1471
▁comple	-1472
the	-1473
key	-1474
▁consider	-1475
ention	-1476
az	-1477
be	-1478
udget	-1479
▁slow	-1480
000	-1481
ock	-1482
▁enough	-1483
ool	-1484
empt	-1485
▁she	-1486
▁recently	-1487
tain	-1488
▁used	-1489
▁understand	-1490
▁itself	-1491
▁administration	-1492
▁After	-1493
▁streng	-1494
▁provide	-1495
icient	-1496
▁post	-1497
ording	-1498
▁prevent	-1499
ences	-1500
▁treat	-1501
▁Pol	-1502
lus	-1503
nce	-1504
▁number	-1505
ata	-1506
▁lower	-1507
▁By	-1508
▁cho	-1509
▁interests	-1510
▁open	-1511
ipl	-1512
▁terms	-1513
▁Republic	-1514
▁regime	-1515
▁currency	-1516
▁left	-1517
▁Palest	-1518
▁shif	-1519
▁gr	-1520
▁report	-1521
▁strateg	-1522
yn	-1523
▁These	-1524
▁Western	-1525
▁Putin	-1526
▁init	-1527
▁rights	-1528
▁greater	-1529
man	-1530
come	-1531
verage	-1532
▁ren	-1533
▁min	-1534
▁resources	-1535
▁Turkey	-1536
▁life	-1537
ased	-1538
▁caus	-1539
▁suggest	-1540
▁former	-1541
▁ur	-1542
▁certain	-1543
▁terror	-1544
selves	-1545
ividual	-1546
▁ear	-1547
▁industr	-1548
ression	-1549
ised	-1550
▁never	-1551
▁regional	-1552
▁infrastructure	-1553
5%	-1554
▁Le	-1555
▁budget	-1556
ik	-1557
iqu	-1558
▁integ	-1559
rate	-1560
▁children	-1561
▁politics	-1562
▁impact	-1563
▁dest	-1564
ilateral	-1565
▁place	-1566
▁Middle	-1567
kra	-1568
▁reduce	-1569
▁local	-1570
▁home	-1571
▁jobs	-1572
▁each	-1573
▁Sec	-1574
▁pred	-1575
lim	-1576
atives	-1577
▁What	-1578
▁reflect	-1579
▁value	-1580
▁thus	-1581
▁contrib	-1582
like	-1583
ived	-1584
▁risks	-1585
ief	-1586
▁coop	-1587
▁Ukra	-1588
▁oppos	-1589
▁Pr	-1590
▁common	-1591
▁face	-1592
▁oper	-1593
▁challenges	-1594
▁influ	-1595
▁simil	-1596
▁possible	-1597
▁tal	-1598
akers	-1599
ises	-1600
▁force	-1601
ug	-1602
ination	-1603
▁relative	-1604
▁individual	-1605
▁broad	-1606
▁history	-1607
ession	-1608
oura	-1609
▁deb	-1610
haps	-1611
urd	-1612
▁bl	-1613
▁unem	-1614
▁Be	-1615
ified	-1616
▁Syria	-1617
ier	-1618
▁Con	-1619
▁enc	-1620
where	-1621
ai	-1622
ends	-1623
▁rapid	-1624
rench	-1625
▁strategy	-1626
aign	-1627
ield	-1628
▁New	-1629
▁sav	-1630
▁spe	-1631
▁Greece	-1632
ban	-1633
▁fl	-1634
▁accept	-1635
▁technology	-1636
▁mean	-1637
0.	-1638
▁6	-1639
▁char	-1640
▁create	-1641
▁campaign	-1642
▁investors	-1643
▁extrem	-1644
▁implement	-1645
ront	-1646
▁che	-1647
▁data	-1648
▁issues	-1649
ats	-1650
▁begin	-1651
iod	-1652
▁Even	-1653
ways	-1654
▁half	-1655
▁rules	-1656
▁dang	-1657
▁Ar	-1658
▁unt	-1659
ceed	-1660
▁conflict	-1661
▁exchange	-1662
▁somet	-1663
acc	-1664
oid	-1665
chool	-1666
overty	-1667
▁purs	-1668
▁leadership	-1669
▁UN	-1670
▁lack	-1671
▁consequ	-1672
▁improve	-1673
aken	-1674
▁ensure	-1675
aged	-1676
▁saf	-1677
abil	-1678
▁2008	-1679
▁research	-1680
cil	-1681
istic	-1682
ards	-1683
▁forces	-1684
ins	-1685
▁funda	-1686
▁ru	-1687
▁ever	-1688
▁net	-1689
▁early	-1690
▁fear	-1691
▁rising	-1692
quality	-1693
▁society	-1694
▁once	-1695
akistan	-1696
▁Russian	-1697
▁step	-1698
0’	-1699
▁repres	-1700
▁cult	-1701
▁Fin	-1702
▁program	-1703
emoc	-1704
▁themselves	-1705
▁house	-1706
▁struct	-1707
▁wealth	-1708
▁anti	-1709
▁necess	-1710
▁head	-1711
▁action	-1712
▁la	-1713
▁keep	-1714
makers	-1715
yond	-1716
▁commit	-1717
▁dev	-1718
▁stability	-1719
arian	-1720
▁emb	-1721
▁youn	-1722
lation	-1723
▁dou	-1724
dom	-1725
▁levels	-1726
ys	-1727
iation	-1728
▁bor	-1729
▁exist	-1730
▁sense	-1731
▁comb	-1732
▁disp	-1733
▁member	-1734
▁Minister	-1735
▁expl	-1736
▁maintain	-1737
▁Cent	-1738
conomic	-1739
▁community	-1740
oint	-1741
▁able	-1742
erve	-1743
▁believe	-1744
▁decision	-1745
▁politic	-1746
▁Pakistan	-1747
▁French	-1748
▁led	-1749
gether	-1750
▁together	-1751
irst	-1752
ctions	-1753
▁bring	-1754
▁fuel	-1755
▁measures	-1756
▁wr	-1757
▁achieve	-1758
▁bond	-1759
▁land	-1760
▁independ	-1761
▁Palestin	-1762
▁systems	-1763
▁fight	-1764
▁across	-1765
▁poverty	-1766
▁met	-1767
▁increased	-1768
oral	-1769
-2	-1770
▁challenge	-1771
▁democratic	-1772
▁stat	-1773
raw	-1774
▁blo	-1775
▁firms	-1776
though	-1777
▁top	-1778
▁dollar	-1779
▁old	-1780
▁food	-1781
▁boost	-1782
side	-1783
omes	-1784
▁gra	-1785
▁finance	-1786
▁unemployment	-1787
to	-1788
▁198	-1789
rodu	-1790
▁corpor	-1791
▁making	-1792
▁similar	-1793
▁bre	-1794
▁pract	-1795
▁simply	-1796
▁International	-1797
▁sure	-1798
▁Ukraine	-1799
▁sit	-1800
▁four	-1801
▁close	-1802
▁always	-1803
▁full	-1804
▁British	-1805
▁weap	-1806
▁period	-1807
▁issue	-1808
▁modern	-1809
▁news	-1810
▁$1	-1811
▁century	-1812
rupt	-1813
▁vict	-1814
▁times	-1815
iplom	-1816
▁bord	-1817
ently	-1818
uslim	-1819
▁ident	-1820
▁balance	-1821
RI	-1822
▁Or	-1823
▁Of	-1824
▁recover	-1825
ively	-1826
▁7	-1827
▁sk	-1828
just	-1829
uation	-1830
gypt	-1831
▁tre	-1832
then	-1833
▁danger	-1834
bon	-1835
cial	-1836
▁establish	-1837
▁German	-1838
onse	-1839
ler	-1840
▁liberal	-1841
isions	-1842
▁decade	-1843
▁true	-1844
▁employment	-1845
▁sl	-1846
▁Egypt	-1847
mm	-1848
▁based	-1849
incip	-1850
acks	-1851
aud	-1852
▁constit	-1853
▁manage	-1854
▁hope	-1855
▁self	-1856
issions	-1857
▁UK	-1858
aster	-1859
▁five	-1860
ival	-1861
▁encoura	-1862
▁En	-1863
▁entire	-1864
▁advanced	-1865
utional	-1866
illions	-1867
▁areas	-1868
▁deficit	-1869
ium	-1870
▁parties	-1871
arent	-1872
▁party	-1873
▁else	-1874
▁position	-1875
▁response	-1876
▁Britain	-1877
▁developed	-1878
▁rule	-1879
veral	-1880
▁regard	-1881
▁information	-1882
ee	-1883
aring	-1884
wise	-1885
▁diplom	-1886
▁Some	-1887
▁despite	-1888
▁aim	-1889
▁Party	-1890
▁amount	-1891
omp	-1892
▁Muslim	-1893
rade	-1894
acity	-1895
▁bar	-1896
▁pressure	-1897
▁strengthen	-1898
,000	-1899
▁loss	-1900
▁young	-1901
▁adop	-1902
▁ty	-1903
▁princip	-1904
▁conditions	-1905
MF	-1906
▁avoid	-1907
▁sing	-1908
▁rece	-1909
by	-1910
▁opportunity	-1911
ming	-1912
▁refuge	-1913
▁school	-1914
TO	-1915
oh	-1916
▁tot	-1917
▁promot	-1918
lia	-1919
▁abs	-1920
▁productivity	-1921
▁called	-1922
uing	-1923
▁histor	-1924
▁Bush	-1925
▁All	-1926
▁sovere	-1927
▁IMF	-1928
▁export	-1929
▁ess	-1930
▁average	-1931
▁unc	-1932
lt	-1933
iting	-1934
rated	-1935
ended	-1936
▁media	-1937
▁mar	-1938
igration	-1939
irc	-1940
▁production	-1941
▁cooperation	-1942
▁dise	-1943
ource	-1944
▁Democ	-1945
cl	-1946
▁said	-1947
▁officials	-1948
ify	-1949
▁initi	-1950
▁Americans	-1951
pped	-1952
▁annual	-1953
ne	-1954
raz	-1955
▁water	-1956
▁done	-1957
▁invol	-1958
▁bad	-1959
rag	-1960
▁dam	-1961
▁kind	-1962
▁supply	-1963
▁creat	-1964
▁effort	-1965
▁leading	-1966
▁Res	-1967
▁working	-1968
▁vis	-1969
▁policymakers	-1970
▁fav	-1971
▁norm	-1972
oming	-1973
▁Italy	-1974
▁think	-1975
ured	-1976
ighb	-1977
▁Cl	-1978
▁until	-1979
▁lear	-1980
▁groups	-1981
▁var	-1982
▁voters	-1983
▁consequences	-1984
▁Cong	-1985
▁created	-1986
▁effects	-1987
▁Sp	-1988
▁assum	-1989
▁changes	-1990
ean	-1991
rams	-1992
▁assets	-1993
▁King	-1994
▁leader	-1995
▁requires	-1996
▁inequality	-1997
▁politicians	-1998
ruption	-1999
▁weapons	-2000
▁Central	-2001
▁industry	-2002
reg	-2003
ented	-2004
iversity	-2005
▁largest	-2006
▁relig	-2007
▁months	-2008
igr	-2009
▁Par	-2010
▁reach	-2011
iveness	-2012
▁Pro	-2013
▁whose	-2014
▁Fund	-2015
▁san	-2016
▁taken	-2017
▁goods	-2018
liament	-2019
▁death	-2020
▁total	-2021
▁single	-2022
▁Q	-2023
▁largely	-2024
med	-2025
mber	-2026
▁consumption	-2027
▁beyond	-2028
▁class	-2029
▁don	-2030
▁several	-2031
▁ways	-2032
cut	-2033
▁Acc	-2034
ensive	-2035
exic	-2036
▁unlike	-2037
▁household	-2038
aging	-2039
▁Coun	-2040
▁ill	-2041
▁Such	-2042
▁demon	-2043
▁8	-2044
▁failed	-2045
▁alone	-2046
▁influence	-2047
▁flow	-2048
▁strategic	-2049
▁look	-2050
▁counter	-2051
▁partners	-2052
fact	-2053
▁Prime	-2054
▁emissions	-2055
rad	-2056
▁scient	-2057
▁Council	-2058
▁massive	-2059
▁respect	-2060
▁coal	-2061
ched	-2062
oday	-2063
▁underm	-2064
▁structural	-2065
fer	-2066
market	-2067
▁Z	-2068
▁Saud	-2069
▁attempt	-2070
down	-2071
imul	-2072
▁prob	-2073
▁capacity	-2074
▁excess	-2075
▁test	-2076
▁programs	-2077
razil	-2078
▁expand	-2079
▁perform	-2080
▁prec	-2081
▁neighb	-2082
▁environment	-2083
atory	-2084
▁Afgh	-2085
▁Many	-2086
iding	-2087
▁Mexic	-2088
▁cause	-2089
sid	-2090
▁agg	-2091
▁opposition	-2092
ds	-2093
▁Nations	-2094
▁day	-2095
▁gre	-2096
▁Today	-2097
▁powerful	-2098
mb	-2099
▁Bar	-2100
▁determ	-2101
▁relationship	-2102
▁essential	-2103
wide	-2104
▁successful	-2105
▁exports	-2106
ored	-2107
istance	-2108
▁opt	-2109
▁particular	-2110
▁makes	-2111
▁affect	-2112
gent	-2113
▁particip	-2114
CB	-2115
ories	-2116
▁Afghan	-2117
▁mov	-2118
▁transp	-2119
▁cy	-2120
▁borrow	-2121
▁popular	-2122
rec	-2123
▁agend	-2124
▁majority	-2125
oviet	-2126
▁behav	-2127
▁shift	-2128
▁NA	-2129
▁having	-2130
▁object	-2131
ortunately	-2132
▁protection	-2133
▁Given	-2134
ruction	-2135
▁debate	-2136
verse	-2137
▁ten	-2138
▁activ	-2139
▁banking	-2140
▁stimul	-2141
▁win	-2142
▁away	-2143
▁drug	-2144
▁began	-2145
▁expected	-2146
inking	-2147
▁decline	-2148
▁demonst	-2149
itted	-2150
thing	-2151
▁Cons	-2152
▁natural	-2153
▁Now	-2154
▁sustainable	-2155
att	-2156
ien	-2157
▁funds	-2158
▁lives	-2159
▁nearly	-2160
▁Asian	-2161
▁fundamental	-2162
▁live	-2163
▁Ge	-2164
ember	-2165
▁Brazil	-2166
▁ability	-2167
▁197	-2168
based	-2169
ously	-2170
ris	-2171
▁perhaps	-2172
ufact	-2173
▁X	-2174
▁pass	-2175
▁innovation	-2176
line	-2177
▁violence	-2178
alled	-2179
▁quick	-2180
▁benefit	-2181
▁idea	-2182
set	-2183
▁Ag	-2184
arily	-2185
oring	-2186
▁kill	-2187
▁soon	-2188
reedom	-2189
lying	-2190
▁clos	-2191
▁lost	-2192
iate	-2193
hood	-2194
▁increasing	-2195
▁mis	-2196
▁depend	-2197
▁wee	-2198
▁propos	-2199
ledge	-2200
▁give	-2201
▁skill	-2202
put	-2203
▁prim	-2204
lev	-2205
▁doing	-2206
▁predict	-2207
▁discuss	-2208
▁Mon	-2209
▁mom	-2210
▁failure	-2211
1,	-2212
▁negotiations	-2213
sw	-2214
▁ult	-2215
▁obs	-2216
▁necessary	-2217
▁Inst	-2218
▁later	-2219
omb	-2220
▁Ab	-2221
andid	-2222
▁subst	-2223
▁Kingdom	-2224
▁surpr	-2225
▁prosper	-2226
▁Develop	-2227
▁altern	-2228
▁del	-2229
onald	-2230
▁design	-2231
▁manufact	-2232
▁ECB	-2233
▁evidence	-2234
▁elections	-2235
▁experience	-2236
▁How	-2237
▁fram	-2238
▁prior	-2239
▁willing	-2240
▁environmental	-2241
ina	-2242
▁trend	-2243
▁respond	-2244
▁unp	-2245
▁taxes	-2246
▁read	-2247
▁opportunities	-2248
▁owing	-2249
▁third	-2250
▁trillion	-2251
nect	-2252
▁circ	-2253
▁break	-2254
▁advant	-2255
head	-2256
▁gas	-2257
▁seen	-2258
ricult	-2259
▁living	-2260
▁incent	-2261
▁Congress	-2262
▁rad	-2263
▁May	-2264
▁occur	-2265
▁candid	-2266
▁recovery	-2267
▁achie	-2268
▁comes	-2269
itarian	-2270
▁Instead	-2271
ape	-2272
▁eth	-2273
▁vol	-2274
▁Like	-2275
▁agenda	-2276
▁governance	-2277
▁either	-2278
▁Pe	-2279
▁perm	-2280
▁wide	-2281
▁reven	-2282
ream	-2283
▁economists	-2284
▁industrial	-2285
▁path	-2286
ya	-2287
iff	-2288
aced	-2289
▁amb	-2290
▁extreme	-2291
▁Soviet	-2292
▁ge	-2293
▁behind	-2294
ctors	-2295
rex	-2296
▁aid	-2297
▁jud	-2298
▁rich	-2299
▁First	-2300
ton	-2301
▁Japanese	-2302
▁solution	-2303
▁Saudi	-2304
▁domin	-2305
▁Commission	-2306
▁middle	-2307
▁globalization	-2308
go	-2309
right	-2310
▁argu	-2311
▁actually	-2312
▁became	-2313
▁9	-2314
▁huge	-2315
▁contrast	-2316
▁employ	-2317
▁exc	-2318
lies	-2319
▁feel	-2320
owers	-2321
▁along	-2322
▁moment	-2323
▁goal	-2324
lin	-2325
▁According	-2326
▁taking	-2327
▁estim	-2328
▁highly	-2329
▁subsid	-2330
▁probably	-2331
▁ground	-2332
▁indic	-2333
plus	-2334
ternal	-2335
▁legal	-2336
▁technologies	-2337
▁Global	-2338
▁something	-2339
▁Islamic	-2340
▁legit	-2341
▁National	-2342
▁den	-2343
▁really	-2344
▁deli	-2345
▁behavior	-2346
▁values	-2347
ring	-2348
▁analy	-2349
uted	-2350
▁nothing	-2351
▁prospect	-2352
chan	-2353
▁vote	-2354
▁wrong	-2355
▁traditional	-2356
▁record	-2357
▁represent	-2358
zer	-2359
▁union	-2360
▁worse	-2361
▁vir	-2362
▁using	-2363
▁investments	-2364
rugg	-2365
▁cases	-2366
▁attack	-2367
▁authorities	-2368
ody	-2369
▁general	-2370
▁previous	-2371
▁presidential	-2372
ls	-2373
aving	-2374
icy	-2375
▁sw	-2376
▁things	-2377
▁2015	-2378
izations	-2379
min	-2380
while	-2381
OR	-2382
rought	-2383
▁revolution	-2384
apse	-2385
▁immed	-2386
▁mob	-2387
ulner	-2388
ulation	-2389
▁cities	-2390
force	-2391
▁laun	-2392
▁cru	-2393
▁situation	-2394
▁NE	-2395
▁miss	-2396
▁status	-2397
▁strugg	-2398
▁corporate	-2399
olit	-2400
▁tem	-2401
▁insur	-2402
▁bonds	-2403
▁arr	-2404
▁side	-2405
▁stock	-2406
▁reality	-2407
▁African	-2408
▁lat	-2409
imately	-2410
▁attention	-2411
ology	-2412
▁Afghanistan	-2413
aid	-2414
▁State	-2415
het	-2416
▁NEW	-2417
▁host	-2418
iance	-2419
▁late	-2420
▁surplus	-2421
▁favor	-2422
▁complex	-2423
▁air	-2424
▁repl	-2425
▁territ	-2426
▁minister	-2427
▁substant	-2428
▁uncertain	-2429
▁integration	-2430
▁larger	-2431
▁freedom	-2432
▁deficits	-2433
agn	-2434
uster	-2435
▁Geor	-2436
mp	-2437
ological	-2438
arant	-2439
erves	-2440
▁shar	-2441
▁powers	-2442
ung	-2443
▁rat	-2444
▁Lat	-2445
▁vulner	-2446
▁sanctions	-2447
▁matter	-2448
▁following	-2449
rexit	-2450
▁announ	-2451
▁limited	-2452
▁agricult	-2453
▁competition	-2454
▁jo	-2455
▁rein	-2456
▁Security	-2457
▁outcome	-2458
af	-2459
ular	-2460
▁include	-2461
▁Mexico	-2462
ets	-2463
ters	-2464
▁coming	-2465
▁ign	-2466
▁prep	-2467
▁took	-2468
▁collapse	-2469
ired	-2470
ension	-2471
▁adjust	-2472
▁Sim	-2473
▁avail	-2474
igrants	-2475
ception	-2476
▁standards	-2477
▁nar	-2478
ones	-2479
ator	-2480
▁collect	-2481
▁protest	-2482
▁purch	-2483
▁external	-2484
▁Development	-2485
year	-2486
▁Palestinian	-2487
▁NATO	-2488
DG	-2489
▁guarant	-2490
▁held	-2491
▁answ	-2492
▁recession	-2493
▁Ad	-2494
▁reducing	-2495
▁offer	-2496
ification	-2497
▁concerns	-2498
use	-2499
▁legis	-2500
▁cat	-2501
▁framew	-2502
▁di	-2503
▁known	-2504
▁sharp	-2505
▁expans	-2506
▁defense	-2507
leg	-2508
▁relatively	-2509
▁mechan	-2510
▁attract	-2511
▁produce	-2512
▁mind	-2513
▁mist	-2514
▁certainly	-2515
▁easy	-2516
▁commitment	-2517
▁fed	-2518
arter	-2519
▁Donald	-2520
▁products	-2521
▁ask	-2522
▁near	-2523
▁indeed	-2524
▁ve	-2525
▁explain	-2526
▁resol	-2527
▁quickly	-2528
sh	-2529
erc	-2530
▁asset	-2531
▁obvious	-2532
▁critical	-2533
▁corruption	-2534
▁conv	-2535
▁decisions	-2536
ext	-2537
▁currently	-2538
lig	-2539
▁art	-2540
ots	-2541
erty	-2542
called	-2543
lex	-2544
▁stop	-2545
▁projects	-2546
▁established	-2547
▁Latin	-2548
unction	-2549
▁millions	-2550
itable	-2551
orn	-2552
▁Since	-2553
▁results	-2554
▁words	-2555
▁financing	-2556
AN	-2557
rats	-2558
▁cle	-2559
▁came	-2560
-1	-2561
▁let	-2562
▁sett	-2563
▁above	-2564
▁dyn	-2565
▁meeting	-2566
lier	-2567
▁Per	-2568
iquid	-2569
▁suc	-2570
▁refugees	-2571
▁unlikely	-2572
iated	-2573
▁creating	-2574
crib	-2575
▁burd	-2576
oy	-2577
ached	-2578
▁div	-2579
▁enter	-2580
▁expansion	-2581
▁age	-2582
▁confidence	-2583
▁surv	-2584
income	-2585
▁reb	-2586
osing	-2587
▁Most	-2588
▁univers	-2589
hest	-2590
▁Sc	-2591
vest	-2592
▁cuts	-2593
▁Although	-2594
▁becoming	-2595
▁movement	-2596
▁mere	-2597
▁recognize	-2598
▁businesses	-2599
▁succeed	-2600
▁summ	-2601
▁Internet	-2602
ech	-2603
▁men	-2604
▁doubt	-2605
▁allies	-2606
▁Great	-2607
▁reasons	-2608
▁worldwide	-2609
▁organizations	-2610
▁sent	-2611
▁renew	-2612
▁religious	-2613
kn	-2614
▁tend	-2615
ancing	-2616
▁cal	-2617
▁dangerous	-2618
▁reject	-2619
▁won	-2620
▁elsewhere	-2621
rain	-2622
▁line	-2623
ees	-2624
▁rough	-2625
▁Barack	-2626
▁personal	-2627
une	-2628
uth	-2629
rary	-2630
▁intervention	-2631
oking	-2632
▁Lib	-2633
▁tool	-2634
ane	-2635
hem	-2636
▁ste	-2637
▁repe	-2638
▁Israeli	-2639
▁dig	-2640
▁positive	-2641
▁responsibility	-2642
9,	-2643
▁caused	-2644
▁basic	-2645
▁dram	-2646
▁attacks	-2647
▁negative	-2648
▁carbon	-2649
▁hous	-2650
ressed	-2651
▁heav	-2652
▁fig	-2653
retary	-2654
val	-2655
▁beginning	-2656
▁continued	-2657
ensus	-2658
▁belie	-2659
▁raise	-2660
▁thing	-2661
▁mechanism	-2662
utes	-2663
app	-2664
rep	-2665
▁ir	-2666
▁helped	-2667
action	-2668
▁distrib	-2669
▁refere	-2670
▁according	-2671
light	-2672
▁uns	-2673
ici	-2674
▁advantage	-2675
ault	-2676
ites	-2677
▁everyone	-2678
▁six	-2679
ature	-2680
▁elimin	-2681
▁brought	-2682
▁clearly	-2683
▁1.	-2684
ought	-2685
ortion	-2686
▁below	-2687
▁introdu	-2688
▁parliament	-2689
▁expert	-2690
▁spread	-2691
ogra	-2692
▁deliver	-2693
▁Monetary	-2694
▁knowledge	-2695
▁alternative	-2696
▁No	-2697
▁Des	-2698
▁cover	-2699
ressive	-2700
▁Can	-2701
▁gains	-2702
used	-2703
▁fair	-2704
ensions	-2705
▁days	-2706
acter	-2707
▁Govern	-2708
▁forced	-2709
▁existing	-2710
▁reserves	-2711
▁Brexit	-2712
▁source	-2713
▁typ	-2714
▁funding	-2715
▁technological	-2716
▁proposed	-2717
▁det	-2718
▁performance	-2719
els	-2720
part	-2721
3,	-2722
▁Mean	-2723
oph	-2724
▁2014	-2725
▁unf	-2726
aries	-2727
▁2012	-2728
▁liquid	-2729
▁bi	-2730
▁building	-2731
usterity	-2732
iment	-2733
ilities	-2734
▁sovereign	-2735
▁II	-2736
▁ce	-2737
▁18	-2738
ries	-2739
▁federal	-2740
▁continues	-2741
IN	-2742
omin	-2743
emic	-2744
ellig	-2745
erate	-2746
making	-2747
▁Mar	-2748
▁deg	-2749
▁sus	-2750
▁Meanwhile	-2751
▁Ex	-2752
▁center	-2753
▁Economic	-2754
▁competit	-2755
ison	-2756
ordin	-2757
encies	-2758
▁Sw	-2759
acro	-2760
▁Spain	-2761
▁twent	-2762
▁family	-2763
▁implic	-2764
▁gradu	-2765
▁output	-2766
▁Europeans	-2767
my	-2768
▁worth	-2769
▁Arabia	-2770
▁severe	-2771
▁Ass	-2772
▁trust	-2773
▁company	-2774
▁prosperity	-2775
loc	-2776
▁creation	-2777
▁additional	-2778
aper	-2779
▁mess	-2780
▁dynam	-2781
▁factors	-2782
nces	-2783
▁available	-2784
▁science	-2785
▁Republican	-2786
▁farm	-2787
▁manufacturing	-2788
▁Dep	-2789
▁transform	-2790
%.	-2791
▁solutions	-2792
▁office	-2793
▁Indian	-2794
▁roughly	-2795
▁victory	-2796
▁-	-2797
▁green	-2798
▁choice	-2799
bo	-2800
equ	-2801
rist	-2802
▁Ham	-2803
▁netw	-2804
ograph	-2805
▁assoc	-2806
ony	-2807
▁disease	-2808
▁Trade	-2809
▁framework	-2810
atically	-2811
▁hy	-2812
▁Federal	-2813
▁leave	-2814
▁allowed	-2815
▁special	-2816
ourn	-2817
▁answer	-2818
▁scale	-2819
▁mot	-2820
▁shared	-2821
ands	-2822
▁196	-2823
▁basis	-2824
▁outside	-2825
▁sectors	-2826
▁15	-2827
▁Greek	-2828
▁Second	-2829
▁stimulus	-2830
▁thereby	-2831
7,	-2832
▁ideas	-2833
economic	-2834
bi	-2835
▁forward	-2836
▁ahead	-2837
ustain	-2838
▁required	-2839
ilt	-2840
lling	-2841
▁moral	-2842
off	-2843
rel	-2844
▁overall	-2845
▁supposed	-2846
eneral	-2847
▁communities	-2848
pol	-2849
care	-2850
zero	-2851
▁Other	-2852
rust	-2853
▁agreed	-2854
▁institutional	-2855
▁Xi	-2856
▁imposs	-2857
▁fully	-2858
▁damage	-2859
▁flows	-2860
▁Korean	-2861
▁person	-2862
▁argue	-2863
▁afford	-2864
ili	-2865
ptember	-2866
▁industries	-2867
▁effectively	-2868
▁claims	-2869
▁crises	-2870
▁skills	-2871
▁withd	-2872
▁provided	-2873
▁management	-2874
ann	-2875
osp	-2876
▁mal	-2877
▁Aust	-2878
cer	-2879
▁increases	-2880
▁red	-2881
ients	-2882
▁urban	-2883
▁engage	-2884
▁vision	-2885
▁conserv	-2886
▁transition	-2887
▁independence	-2888
▁mark	-2889
ibly	-2890
▁independent	-2891
▁$2	-2892
▁savings	-2893
lled	-2894
ishing	-2895
▁connect	-2896
▁instead	-2897
▁matters	-2898
▁September	-2899
▁individuals	-2900
do	-2901
par	-2902
phas	-2903
▁contain	-2904
▁societies	-2905
▁Simil	-2906
▁thought	-2907
▁consumers	-2908
-20	-2909
ott	-2910
▁multilateral	-2911
hens	-2912
▁Unf	-2913
▁rapidly	-2914
sec	-2915
▁inev	-2916
▁virt	-2917
▁points	-2918
▁contract	-2919
▁generation	-2920
opolit	-2921
▁explo	-2922
▁wages	-2923
▁activities	-2924
▁eventually	-2925
▁imper	-2926
▁study	-2927
▁tariff	-2928
▁subject	-2929
ventional	-2930
▁austerity	-2931
▁stronger	-2932
▁Rev	-2933
▁harm	-2934
iety	-2935
▁inclus	-2936
▁economics	-2937
▁incentives	-2938
oks	-2939
▁Tw	-2940
erb	-2941
▁minor	-2942
▁restric	-2943
▁critic	-2944
▁households	-2945
▁border	-2946
▁exe	-2947
▁nor	-2948
▁Just	-2949
▁aimed	-2950
▁macro	-2951
▁quality	-2952
▁Unfortunately	-2953
of	-2954
duct	-2955
▁emp	-2956
▁mid	-2957
ournal	-2958
▁Despite	-2959
▁questions	-2960
▁Not	-2961
▁2016	-2962
▁assess	-2963
▁12	-2964
▁dollars	-2965
unt	-2966
▁seek	-2967
add	-2968
ware	-2969
▁extra	-2970
sy	-2971
pro	-2972
▁borders	-2973
▁reached	-2974
▁impossible	-2975
%,	-2976
▁rob	-2977
▁minim	-2978
▁talks	-2979
▁pursue	-2980
▁reduced	-2981
abilities	-2982
▁Ro	-2983
▁House	-2984
▁goals	-2985
▁complete	-2986
▁bilateral	-2987
▁insurance	-2988
▁facing	-2989
▁Finally	-2990
▁providing	-2991
▁internal	-2992
den	-2993
ohn	-2994
▁widely	-2995
unn	-2996
▁radical	-2997
▁suggests	-2998
▁commod	-2999
umb	-3000
▁hop	-3001
onents	-3002
urs	-3003
▁Jew	-3004
▁orig	-3005
▁pain	-3006
▁vast	-3007
▁intellig	-3008
▁commer	-3009
cle	-3010
itud	-3011
▁cross	-3012
▁service	-3013
oot	-3014
ashing	-3015
▁emphas	-3016
▁gap	-3017
▁link	-3018
▁recon	-3019
▁poll	-3020
▁limit	-3021
account	-3022
aterial	-3023
▁diplomatic	-3024
▁trou	-3025
▁deter	-3026
celer	-3027
ender	-3028
▁normal	-3029
▁buy	-3030
gence	-3031
▁dict	-3032
▁crucial	-3033
▁road	-3034
undred	-3035
aff	-3036
cont	-3037
▁precise	-3038
▁politically	-3039
arity	-3040
▁From	-3041
▁phys	-3042
▁pus	-3043
▁list	-3044
▁events	-3045
▁Likewise	-3046
ORK	-3047
sector	-3048
▁loans	-3049
▁authority	-3050
▁tas	-3051
▁chance	-3052
▁YORK	-3053
▁Reserve	-3054
▁describ	-3055
hers	-3056
▁simple	-3057
▁area	-3058
▁experien	-3059
ox	-3060
ellect	-3061
▁withdraw	-3062
▁Secretary	-3063
▁agreements	-3064
▁era	-3065
▁John	-3066
▁appears	-3067
ried	-3068
▁mort	-3069
▁housing	-3070
augh	-3071
ustom	-3072
▁engine	-3073
▁thinking	-3074
▁193	-3075
▁city	-3076
▁front	-3077
▁thous	-3078
▁Soc	-3079
▁sal	-3080
▁nature	-3081
▁secure	-3082
▁stable	-3083
hel	-3084
▁Med	-3085
▁wants	-3086
▁yield	-3087
▁losses	-3088
▁elected	-3089
▁directly	-3090
▁followed	-3091
50	-3092
▁Net	-3093
▁book	-3094
▁Paris	-3095
▁parts	-3096
▁encourage	-3097
▁turned	-3098
▁legitim	-3099
▁consumer	-3100
▁character	-3101
iter	-3102
olid	-3103
idency	-3104
▁ultimately	-3105
▁digital	-3106
▁burden	-3107
▁significantly	-3108
pping	-3109
▁fast	-3110
▁soft	-3111
▁constra	-3112
▁vulnerable	-3113
century	-3114
▁summit	-3115
▁divid	-3116
▁embra	-3117
▁referend	-3118
▁your	-3119
istent	-3120
lands	-3121
▁actions	-3122
▁regulation	-3123
▁name	-3124
▁whole	-3125
▁wat	-3126
▁competitive	-3127
▁responsible	-3128
oman	-3129
▁material	-3130
rehens	-3131
▁regions	-3132
▁draw	-3133
▁Leban	-3134
▁shows	-3135
▁bub	-3136
▁boom	-3137
▁primary	-3138
▁consensus	-3139
▁trying	-3140
▁Argent	-3141
▁equity	-3142
▁Ke	-3143
▁fri	-3144
▁plans	-3145
eng	-3146
▁committed	-3147
elt	-3148
▁vital	-3149
rest	-3150
▁Nor	-3151
▁efficient	-3152
▁scen	-3153
minbi	-3154
▁Over	-3155
▁Commun	-3156
▁nation	-3157
▁Ken	-3158
asion	-3159
ustainable	-3160
▁intellect	-3161
fully	-3162
▁size	-3163
iciency	-3164
▁sufficient	-3165
▁Though	-3166
▁Mal	-3167
going	-3168
▁neighbors	-3169
▁advoc	-3170
▁appear	-3171
▁culture	-3172
aces	-3173
▁trig	-3174
▁imports	-3175
nder	-3176
▁week	-3177
▁difference	-3178
eria	-3179
▁zero	-3180
lection	-3181
hern	-3182
▁bro	-3183
▁Clint	-3184
▁saving	-3185
▁super	-3186
▁liquidity	-3187
▁Pl	-3188
▁fix	-3189
▁Go	-3190
▁serve	-3191
▁sound	-3192
▁easily	-3193
▁hundred	-3194
sc	-3195
▁laws	-3196
▁focused	-3197
▁seeking	-3198
▁apparent	-3199
▁subsidies	-3200
▁understanding	-3201
▁displ	-3202
▁prime	-3203
▁treatment	-3204
▁vacc	-3205
▁Clinton	-3206
▁meaning	-3207
▁Republicans	-3208
▁sources	-3209
▁reduction	-3210
▁Organ	-3211
▁property	-3212
▁confront	-3213
▁throughout	-3214
▁wars	-3215
▁warming	-3216
▁Similarly	-3217
vert	-3218
▁fre	-3219
▁safe	-3220
▁reflects	-3221
▁terrorism	-3222
▁Mer	-3223
atever	-3224
▁poore	-3225
▁circum	-3226
▁partly	-3227
airs	-3228
ique	-3229
▁occup	-3230
▁destro	-3231
▁demands	-3232
▁contrary	-3233
EL	-3234
▁models	-3235
▁presidency	-3236
ety	-3237
▁tro	-3238
▁purp	-3239
▁acceler	-3240
▁direction	-3241
▁Mac	-3242
▁enh	-3243
▁coup	-3244
▁push	-3245
war	-3246
▁sup	-3247
▁renminbi	-3248
▁continent	-3249
sis	-3250
▁core	-3251
▁People	-3252
▁Syrian	-3253
▁argued	-3254
▁Col	-3255
▁frag	-3256
illing	-3257
▁promote	-3258
▁produced	-3259
ulated	-3260
▁Hamas	-3261
▁steps	-3262
▁argument	-3263
▁sides	-3264
▁conduct	-3265
▁pattern	-3266
▁targets	-3267
▁standard	-3268
▁coalition	-3269
anu	-3270
▁surve	-3271
racies	-3272
▁electric	-3273
▁populist	-3274
▁seemed	-3275
▁port	-3276
cember	-3277
▁truth	-3278
▁faster	-3279
▁students	-3280
aul	-3281
▁My	-3282
cast	-3283
edly	-3284
▁excessive	-3285
▁regulatory	-3286
▁Palestinians	-3287
iles	-3288
▁extent	-3289
▁cultural	-3290
▁aband	-3291
▁autom	-3292
▁biggest	-3293
▁conclud	-3294
▁log	-3295
▁game	-3296
▁sens	-3297
▁importance	-3298
▁opin	-3299
▁wage	-3300
▁immigration	-3301
rect	-3302
▁Only	-3303
▁going	-3304
▁minist	-3305
▁journal	-3306
ocks	-3307
▁Sen	-3308
▁lose	-3309
▁tell	-3310
fficient	-3311
▁anything	-3312
▁announced	-3313
▁margin	-3314
▁December	-3315
▁heart	-3316
▁latest	-3317
▁origin	-3318
▁scientific	-3319
▁reve	-3320
ita	-3321
▁Kim	-3322
▁mut	-3323
▁whom	-3324
▁neither	-3325
antic	-3326
▁option	-3327
▁referendum	-3328
▁intellectual	-3329
pri	-3330
ovember	-3331
▁His	-3332
▁quant	-3333
▁himself	-3334
▁compared	-3335
▁Eng	-3336
▁enterpr	-3337
▁enorm	-3338
▁earlier	-3339
▁threats	-3340
▁flo	-3341
AM	-3342
▁Am	-3343
▁paid	-3344
nic	-3345
angu	-3346
enth	-3347
▁provides	-3348
▁CO	-3349
▁save	-3350
▁uncertainty	-3351
lif	-3352
▁try	-3353
▁field	-3354
▁story	-3355
▁scenar	-3356
enez	-3357
enezuel	-3358
▁abandon	-3359
▁historical	-3360
kel	-3361
orks	-3362
▁separ	-3363
▁stagn	-3364
▁November	-3365
acific	-3366
▁perman	-3367
▁trading	-3368
▁therefore	-3369
policy	-3370
▁shown	-3371
▁Venezuel	-3372
▁expectations	-3373
auc	-3374
▁imag	-3375
▁calls	-3376
▁intelligence	-3377
▁Christ	-3378
▁Econom	-3379
▁substantial	-3380
co	-3381
▁principle	-3382
▁assistance	-3383
▁Organization	-3384
▁batt	-3385
▁George	-3386
▁apprec	-3387
▁immediate	-3388
▁commercial	-3389
▁abroad	-3390
▁achieved	-3391
▁structure	-3392
cause	-3393
▁dism	-3394
▁competitiveness	-3395
5,	-3396
ights	-3397
▁Last	-3398
TON	-3399
pay	-3400
oses	-3401
izes	-3402
▁flex	-3403
▁falling	-3404
▁execut	-3405
ops	-3406
▁imbal	-3407
▁sometimes	-3408
▁legitimacy	-3409
AS	-3410
▁barri	-3411
▁Poland	-3412
▁changed	-3413
▁terrorist	-3414
▁theory	-3415
holders	-3416
▁becomes	-3417
▁finally	-3418
▁geopolit	-3419
▁York	-3420
orthern	-3421
▁compar	-3422
ira	-3423
▁202	-3424
gency	-3425
▁acqu	-3426
▁defe	-3427
▁adopted	-3428
ING	-3429
▁Kh	-3430
▁faces	-3431
third	-3432
▁takes	-3433
▁profession	-3434
▁Er	-3435
▁10%	-3436
ossil	-3437
1.	-3438
ubl	-3439
raft	-3440
▁Merkel	-3441
▁ord	-3442
order	-3443
▁Sunn	-3444
▁oblig	-3445
▁remark	-3446
▁communic	-3447
porary	-3448
▁prospects	-3449
uck	-3450
anks	-3451
outher	-3452
▁adopt	-3453
▁context	-3454
▁enable	-3455
▁limits	-3456
▁lending	-3457
▁specific	-3458
▁Gaz	-3459
▁happen	-3460
▁University	-3461
uct	-3462
▁safety	-3463
▁speech	-3464
▁Consider	-3465
aled	-3466
state	-3467
ancial	-3468
▁farmers	-3469
▁training	-3470
▁bail	-3471
▁accounts	-3472
▁here	-3473
▁mand	-3474
▁various	-3475
rehensive	-3476
▁0.	-3477
fect	-3478
comes	-3479
▁optim	-3480
▁custom	-3481
▁incomes	-3482
ulate	-3483
▁Thus	-3484
▁worry	-3485
▁belief	-3486
▁Argentina	-3487
nty	-3488
▁spent	-3489
▁Perhaps	-3490
▁profits	-3491
▁tools	-3492
▁arrange	-3493
▁Iranian	-3494
▁precisely	-3495
nam	-3496
▁2.	-3497
▁Its	-3498
ignty	-3499
ondon	-3500
▁30	-3501
▁isol	-3502
▁built	-3503
▁quarter	-3504
▁AI	-3505
▁Why	-3506
aches	-3507
▁cash	-3508
▁clean	-3509
▁default	-3510
▁Comp	-3511
▁merely	-3512
▁migration	-3513
▁Cold	-3514
▁lot	-3515
iable	-3516
outhern	-3517
▁stabil	-3518
▁Revolution	-3519
▁General	-3520
▁present	-3521
▁function	-3522
▁improved	-3523
uses	-3524
▁London	-3525
▁comprom	-3526
▁Har	-3527
iring	-3528
▁spend	-3529
▁Lebanon	-3530
▁percent	-3531
▁principles	-3532
EC	-3533
ER	-3534
OND	-3535
▁100	-3536
▁sen	-3537
pread	-3538
atform	-3539
▁promise	-3540
ONDON	-3541
men	-3542
▁publ	-3543
▁Another	-3544
▁Democratic	-3545
▁initiative	-3546
arc	-3547
▁final	-3548
▁LONDON	-3549
▁Gu	-3550
▁range	-3551
▁thousands	-3552
▁volat	-3553
▁Ph	-3554
▁fossil	-3555
▁drive	-3556
▁tight	-3557
ference	-3558
▁tariffs	-3559
▁earn	-3560
▁facilit	-3561
▁macroeconomic	-3562
▁resulting	-3563
itting	-3564
▁managed	-3565
▁measure	-3566
▁unable	-3567
idespread	-3568
▁supported	-3569
▁membership	-3570
3.	-3571
know	-3572
▁started	-3573
▁circumst	-3574
aves	-3575
rowth	-3576
▁team	-3577
▁outcomes	-3578
▁pan	-3579
▁rele	-3580
▁insist	-3581
▁activity	-3582
▁base	-3583
rative	-3584
▁advance	-3585
▁possibility	-3586
ilies	-3587
▁Both	-3588
▁June	-3589
▁firm	-3590
▁bound	-3591
▁solid	-3592
▁sovereignty	-3593
▁Ju	-3594
▁enj	-3595
ifying	-3596
▁meant	-3597
▁space	-3598
▁estimated	-3599
▁adap	-3600
levant	-3601
▁broader	-3602
ains	-3603
▁easing	-3604
▁launched	-3605
inet	-3606
hetor	-3607
inary	-3608
ij	-3609
▁mer	-3610
▁capita	-3611
▁victim	-3612
▁Because	-3613
rich	-3614
▁Mod	-3615
▁went	-3616
▁causes	-3617
▁diseases	-3618
ray	-3619
▁task	-3620
▁ensuring	-3621
▁received	-3622
▁stem	-3623
▁raising	-3624
▁happened	-3625
▁running	-3626
▁efficiency	-3627
▁regulations	-3628
7%	-3629
▁Their	-3630
▁leaving	-3631
▁fighting	-3632
▁strength	-3633
aling	-3634
▁welf	-3635
▁rhetor	-3636
3%	-3637
vail	-3638
▁carry	-3639
▁round	-3640
▁addition	-3641
▁creditors	-3642
ait	-3643
reced	-3644
urm	-3645
▁inform	-3646
▁welfare	-3647
▁restrict	-3648
▁widespread	-3649
EN	-3650
ugh	-3651
umm	-3652
actions	-3653
▁ethnic	-3654
gn	-3655
uild	-3656
▁dead	-3657
▁Social	-3658
▁legislation	-3659
▁€	-3660
ull	-3661
▁hit	-3662
▁prem	-3663
▁rural	-3664
▁worst	-3665
▁comput	-3666
▁police	-3667
hib	-3668
▁Sing	-3669
▁Treat	-3670
▁prove	-3671
▁treaty	-3672
▁helping	-3673
▁enormous	-3674
recedented	-3675
▁capt	-3676
▁promises	-3677
▁transport	-3678
icro	-3679
▁platform	-3680
▁operations	-3681
▁circumstances	-3682
▁hands	-3683
▁anyone	-3684
▁schools	-3685
▁families	-3686
▁194	-3687
▁Libya	-3688
▁message	-3689
▁candidates	-3690
.)	-3691
ames	-3692
ynes	-3693
ze	-3694
ittee	-3695
▁views	-3696
▁depends	-3697
▁highest	-3698
▁appropri	-3699
lad	-3700
▁hour	-3701
▁driven	-3702
▁absence	-3703
▁concent	-3704
▁generally	-3705
▁unprecedented	-3706
▁Abe	-3707
▁Eastern	-3708
▁construction	-3709
▁lies	-3710
▁vers	-3711
▁Those	-3712
▁designed	-3713
0,000	-3714
▁drugs	-3715
▁commodity	-3716
▁collective	-3717
itig	-3718
time	-3719
▁spir	-3720
▁revenue	-3721
▁perspect	-3722
orb	-3723
▁wind	-3724
standing	-3725
▁democracies	-3726
ching	-3727
idered	-3728
▁stake	-3729
▁geopolitical	-3730
ios	-3731
▁DC	-3732
wing	-3733
▁fell	-3734
▁During	-3735
▁deeply	-3736
▁barriers	-3737
▁associated	-3738
ague	-3739
▁Man	-3740
▁disaster	-3741
▁differences	-3742
▁agricultural	-3743
ula	-3744
▁Cam	-3745
▁bomb	-3746
▁giving	-3747
▁struggle	-3748
▁improving	-3749
▁considered	-3750
zy	-3751
cale	-3752
rene	-3753
▁asked	-3754
▁disrupt	-3755
▁revenues	-3756
▁exception	-3757
▁practices	-3758
▁undermine	-3759
aria	-3760
▁sex	-3761
▁block	-3762
▁currencies	-3763
▁Bo	-3764
▁bill	-3765
▁infect	-3766
▁confere	-3767
▁repeated	-3768
fin	-3769
house	-3770
▁goes	-3771
▁medical	-3772
▁remained	-3773
▁economist	-3774
iers	-3775
▁entirely	-3776
▁sustained	-3777
ethe	-3778
lied	-3779
rimin	-3780
▁acknow	-3781
back	-3782
▁pack	-3783
▁equal	-3784
▁ratio	-3785
▁Ma	-3786
▁Polit	-3787
reasury	-3788
▁exceed	-3789
see	-3790
scale	-3791
▁changing	-3792
▁partnership	-3793
▁der	-3794
usion	-3795
▁mach	-3796
▁meth	-3797
▁rare	-3798
▁Treaty	-3799
▁opinion	-3800
▁identity	-3801
▁tried	-3802
reprene	-3803
▁tensions	-3804
▁conflicts	-3805
aching	-3806
remlin	-3807
▁raised	-3808
▁returns	-3809
▁assert	-3810
▁agencies	-3811
▁electoral	-3812
▁considerable	-3813
ada	-3814
▁diss	-3815
▁lib	-3816
▁sum	-3817
▁weakness	-3818
▁deflation	-3819
▁learn	-3820
▁Austral	-3821
▁initiatives	-3822
doğ	-3823
▁Su	-3824
▁obst	-3825
▁colle	-3826
▁langu	-3827
▁pun	-3828
doğan	-3829
▁Kremlin	-3830
ashington	-3831
▁Erdoğan	-3832
whel	-3833
▁visit	-3834
▁Keynes	-3835
▁closer	-3836
icip	-3837
▁multip	-3838
▁worked	-3839
▁prevail	-3840
▁declared	-3841
isc	-3842
▁enab	-3843
coming	-3844
lantic	-3845
▁frequ	-3846
▁factor	-3847
▁destroy	-3848
▁resistance	-3849
▁instability	-3850
▁Cour	-3851
▁strategies	-3852
The	-3853
ints	-3854
▁hardly	-3855
▁hundreds	-3856
BRI	-3857
▁Rather	-3858
▁prefer	-3859
6%	-3860
▁sold	-3861
▁Invest	-3862
▁receive	-3863
▁allowing	-3864
▁credibility	-3865
▁comprehensive	-3866
reet	-3867
▁gold	-3868
▁mention	-3869
▁Democrats	-3870
anda	-3871
▁eight	-3872
▁proper	-3873
▁involved	-3874
▁authoritarian	-3875
▁smaller	-3876
▁root	-3877
anuary	-3878
▁deaths	-3879
▁permanent	-3880
4%	-3881
4,	-3882
▁choose	-3883
▁mostly	-3884
▁narrow	-3885
▁slowdown	-3886
mar	-3887
▁squ	-3888
▁unw	-3889
▁candidate	-3890
7.	-3891
▁Cal	-3892
▁told	-3893
itative	-3894
▁bankers	-3895
▁usually	-3896
uine	-3897
▁due	-3898
▁stage	-3899
related	-3900
▁Muslims	-3901
▁scientists	-3902
▁Bl	-3903
▁Co	-3904
orial	-3905
▁forms	-3906
etheless	-3907
▁potentially	-3908
▁anim	-3909
▁sell	-3910
▁ties	-3911
lusion	-3912
▁weeks	-3913
▁justice	-3914
▁everything	-3915
-19	-3916
uman	-3917
▁Under	-3918
▁ongoing	-3919
▁generate	-3920
▁bure	-3921
▁stands	-3922
▁emerged	-3923
▁experts	-3924
▁includes	-3925
▁overwhel	-3926
▁highlight	-3927
▁organization	-3928
▁wel	-3929
▁consolid	-3930
▁transfer	-3931
ani	-3932
sych	-3933
▁talk	-3934
▁revers	-3935
▁decided	-3936
IS	-3937
▁adequ	-3938
▁trial	-3939
▁planet	-3940
▁rhetoric	-3941
▁fundament	-3942
▁Bro	-3943
▁Kurd	-3944
▁army	-3945
▁upon	-3946
▁wast	-3947
▁faced	-3948
raction	-3949
▁offered	-3950
▁capitalism	-3951
▁entreprene	-3952
▁Dav	-3953
▁sought	-3954
▁January	-3955
▁migrants	-3956
▁electricity	-3957
▁gir	-3958
▁Financial	-3959
ode	-3960
▁Non	-3961
inent	-3962
▁2010	-3963
▁Washington	-3964
▁contribute	-3965
DGE	-3966
▁gl	-3967
AMBRI	-3968
▁2009	-3969
▁Sunni	-3970
AMBRIDGE	-3971
▁overcome	-3972
▁diplomacy	-3973
▁suffering	-3974
▁defend	-3975
▁controls	-3976
▁productive	-3977
▁distribution	-3978
urt	-3979
cers	-3980
ikes	-3981
mark	-3982
▁Will	-3983
▁places	-3984
▁payments	-3985
▁CAMBRIDGE	-3986
▁estimates	-3987
lows	-3988
▁Gaza	-3989
Americ	-3990
▁moving	-3991
▁viewed	-3992
▁percentage	-3993
yle	-3994
▁Whe	-3995
risis	-3996
▁light	-3997
▁compens	-3998
▁genuine	-3999
▁forecast	-4000
gen	-4001
▁hor	-4002
▁July	-4003
▁Court	-4004
▁greatest	-4005
▁borrowing	-4006
ieth	-4007
astro	-4008
▁nationalism	-4009
ote	-4010
▁Do	-4011
eenth	-4012
▁Then	-4013
▁body	-4014
ceived	-4015
▁mortg	-4016
▁complic	-4017
antly	-4018
▁1990	-4019
▁bott	-4020
ietnam	-4021
▁restore	-4022
▁scenario	-4023
sts	-4024
bles	-4025
▁resist	-4026
▁bureauc	-4027
▁alliance	-4028
▁transformation	-4029
govern	-4030
▁recognized	-4031
▁commitments	-4032
▁suffer	-4033
▁Ber	-4034
uries	-4035
▁establishment	-4036
pet	-4037
▁Ital	-4038
▁unless	-4039
▁concept	-4040
▁secular	-4041
▁priority	-4042
▁populations	-4043
▁constitution	-4044
1%	-4045
ares	-4046
itude	-4047
▁Macron	-4048
▁medium	-4049
▁positions	-4050
▁played	-4051
▁combined	-4052
▁Sea	-4053
▁har	-4054
▁Turk	-4055
▁pace	-4056
reland	-4057
▁exact	-4058
▁fallen	-4059
▁troops	-4060
▁Vietnam	-4061
▁getting	-4062
▁implications	-4063
..	-4064
oil	-4065
▁ended	-4066
▁owners	-4067
▁analysis	-4068
▁50	-4069
arbon	-4070
▁arms	-4071
▁killed	-4072
▁trends	-4073
▁options	-4074
▁territory	-4075
▁agriculture	-4076
long	-4077
▁March	-4078
▁guarantee	-4079
▁experienced	-4080
pin	-4081
▁esc	-4082
which	-4083
▁manip	-4084
▁impose	-4085
▁pen	-4086
asing	-4087
▁Vlad	-4088
▁insp	-4089
▁proposal	-4090
▁implemented	-4091
▁mor	-4092
▁easier	-4093
▁lesson	-4094
▁proved	-4095
▁Ireland	-4096
▁implies	-4097
▁universal	-4098
etic	-4099
▁2006	-4100
▁compl	-4101
▁actors	-4102
▁conventional	-4103
kept	-4104
ogue	-4105
▁fears	-4106
▁practice	-4107
▁ec	-4108
▁Nig	-4109
▁rely	-4110
atures	-4111
▁amounts	-4112
▁supporters	-4113
rat	-4114
itter	-4115
▁exerc	-4116
▁regimes	-4117
▁otherwise	-4118
▁imbalances	-4119
▁beg	-4120
▁Venezuela	-4121
IV	-4122
eb	-4123
▁depos	-4124
▁intens	-4125
▁replace	-4126
▁protests	-4127
▁participation	-4128
uting	-4129
istics	-4130
▁Trans	-4131
▁double	-4132
fense	-4133
▁spur	-4134
▁Assad	-4135
▁online	-4136
sk	-4137
▁ey	-4138
▁aggreg	-4139
▁instru	-4140
▁numbers	-4141
▁refugee	-4142
PP	-4143
ih	-4144
ney	-4145
ulf	-4146
wan	-4147
imir	-4148
▁chann	-4149
▁Health	-4150
▁Indones	-4151
▁pled	-4152
▁appoint	-4153
▁Vladimir	-4154
▁everywhere	-4155
ria	-4156
▁quite	-4157
▁perspective	-4158
ery	-4159
run	-4160
▁vo	-4161
dden	-4162
▁sharply	-4163
▁remov	-4164
▁seven	-4165
▁crimin	-4166
▁mainly	-4167
▁Climate	-4168
iction	-4169
▁conference	-4170
▁Tal	-4171
idents	-4172
▁motiv	-4173
ructive	-4174
▁involve	-4175
▁southern	-4176
ev	-4177
▁join	-4178
▁gender	-4179
▁inevitable	-4180
▁objectives	-4181
▁enterprises	-4182
▁Te	-4183
uous	-4184
▁medic	-4185
▁mechanisms	-4186
▁method	-4187
▁Treasury	-4188
apital	-4189
▁works	-4190
▁accomp	-4191
▁expend	-4192
▁affairs	-4193
▁demonstr	-4194
DS	-4195
▁expensive	-4196
▁immigrants	-4197
rid	-4198
aren	-4199
ustr	-4200
▁Our	-4201
anted	-4202
▁alloc	-4203
▁dimin	-4204
▁rational	-4205
▁dro	-4206
▁accum	-4207
▁truly	-4208
flation	-4209
▁1990’	-4210
▁sudden	-4211
herent	-4212
roduct	-4213
▁lines	-4214
▁leverage	-4215
lar	-4216
▁sil	-4217
illed	-4218
power	-4219
▁Kong	-4220
▁mount	-4221
▁psych	-4222
▁resil	-4223
▁appropriate	-4224
▁joint	-4225
▁devast	-4226
▁travel	-4227
5.	-4228
▁obser	-4229
▁degree	-4230
2,	-4231
uk	-4232
▁ep	-4233
atis	-4234
▁room	-4235
iately	-4236
▁Without	-4237
▁patients	-4238
▁conservative	-4239
2%	-4240
more	-4241
▁2008,	-4242
▁aware	-4243
▁robust	-4244
▁investig	-4245
▁corporations	-4246
aks	-4247
▁enforce	-4248
▁learned	-4249
Ch	-4250
-200	-4251
adequ	-4252
▁Swed	-4253
▁formal	-4254
▁unique	-4255
▁debts	-4256
▁networks	-4257
▁prepared	-4258
▁inclusive	-4259
ipe	-4260
▁Hong	-4261
▁acad	-4262
▁gone	-4263
arency	-4264
▁cancer	-4265
▁ruling	-4266
▁expendit	-4267
▁aggregate	-4268
▁movements	-4269
▁adjustment	-4270
oke	-4271
ails	-4272
ancy	-4273
rage	-4274
▁phil	-4275
▁fuels	-4276
▁wanted	-4277
▁dynamic	-4278
▁Islamist	-4279
▁ordinary	-4280
▁Tai	-4281
stitute	-4282
▁regulators	-4283
▁strengthening	-4284
mbly	-4285
▁hon	-4286
▁enem	-4287
▁hopes	-4288
▁correct	-4289
▁believed	-4290
alle	-4291
▁203	-4292
▁Parliament	-4293
▁developments	-4294
los	-4295
▁court	-4296
▁desire	-4297
▁senior	-4298
▁promised	-4299
▁declining	-4300
▁reflected	-4301
ffect	-4302
▁Third	-4303
▁blame	-4304
▁elites	-4305
▁imposed	-4306
▁addressing	-4307
▁underlying	-4308
▁tradition	-4309
▁continuing	-4310
la	-4311
urb	-4312
fall	-4313
▁ones	-4314
ober	-4315
▁Nob	-4316
▁adapt	-4317
urities	-4318
▁producers	-4319
▁"	-4320
▁calc	-4321
ctober	-4322
▁useful	-4323
▁twentieth	-4324
ores	-4325
▁stay	-4326
▁figure	-4327
▁resolve	-4328
▁mitig	-4329
▁Taiwan	-4330
▁poorest	-4331
▁pursuing	-4332
▁combination	-4333
▁counterpart	-4334
8%	-4335
owned	-4336
▁type	-4337
▁cycle	-4338
ructuring	-4339
▁immediately	-4340
8,	-4341
▁chem	-4342
anging	-4343
▁monit	-4344
ivalent	-4345
▁active	-4346
▁confron	-4347
▁driving	-4348
SE	-4349
itation	-4350
▁battle	-4351
▁virtually	-4352
ployed	-4353
reement	-4354
▁October	-4355
▁Turkish	-4356
▁causing	-4357
▁heavily	-4358
iant	-4359
▁mistake	-4360
▁profound	-4361
rud	-4362
rown	-4363
▁bear	-4364
▁drop	-4365
▁fulf	-4366
▁persu	-4367
▁legisl	-4368
▁offers	-4369
▁lessons	-4370
▁physical	-4371
ager	-4372
look	-4373
ronic	-4374
▁girls	-4375
▁spect	-4376
▁accord	-4377
▁inadequ	-4378
▁determine	-4379
▁ut	-4380
▁fire	-4381
▁stra	-4382
▁explan	-4383
▁credible	-4384
▁starters	-4385
▁objective	-4386
oly	-4387
▁Fore	-4388
▁schem	-4389
▁Brother	-4390
▁whereas	-4391
▁bankrupt	-4392
▁constitutional	-4393
enn	-4394
utr	-4395
fuel	-4396
inks	-4397
INGTON	-4398
itious	-4399
▁cheap	-4400
▁imped	-4401
▁review	-4402
▁affected	-4403
▁economically	-4404
bre	-4405
▁Two	-4406
▁foot	-4407
▁gave	-4408
▁knows	-4409
▁deeper	-4410
▁subsequ	-4411
▁whatever	-4412
▁proposals	-4413
▁shape	-4414
▁profit	-4415
▁recomm	-4416
▁maintaining	-4417
ASH	-4418
▁Em	-4419
▁50%	-4420
ollah	-4421
▁mobil	-4422
▁Indonesia	-4423
▁typically	-4424
▁represents	-4425
▁supporting	-4426
acerb	-4427
▁Prot	-4428
▁friends	-4429
▁bringing	-4430
▁occurred	-4431
▁destruction	-4432
▁generations	-4433
asc	-4434
irth	-4435
▁decide	-4436
▁holding	-4437
▁pension	-4438
▁parliamentary	-4439
enh	-4440
▁bul	-4441
▁Here	-4442
▁deprec	-4443
▁relevant	-4444
▁enjoy	-4445
▁stead	-4446
ASHINGTON	-4447
▁expanding	-4448
rank	-4449
▁armed	-4450
▁violent	-4451
▁described	-4452
ocu	-4453
pret	-4454
reme	-4455
aught	-4456
stream	-4457
▁assume	-4458
security	-4459
▁exacerb	-4460
level	-4461
stood	-4462
▁dial	-4463
Euro	-4464
fers	-4465
luding	-4466
▁obstac	-4467
▁published	-4468
▁nomin	-4469
▁parent	-4470
▁nations	-4471
▁planning	-4472
▁opponents	-4473
cons	-4474
fort	-4475
▁ready	-4476
▁collabor	-4477
▁ministers	-4478
▁WASHINGTON	-4479
▁resolution	-4480
▁nationalist	-4481
▁Sch	-4482
▁cutting	-4483
▁purpose	-4484
▁technical	-4485
TA	-4486
ches	-4487
▁Still	-4488
▁heavy	-4489
liferation	-4490
▁achieving	-4491
▁desper	-4492
▁choices	-4493
▁studies	-4494
▁peaceful	-4495
▁dramatically	-4496
llor	-4497
pril	-4498
▁20%	-4499
first	-4500
ipher	-4501
▁shock	-4502
▁youth	-4503
▁preced	-4504
▁determined	-4505
▁She	-4506
▁asp	-4507
▁compe	-4508
▁temper	-4509
▁turning	-4510
20	-4511
leb	-4512
▁$3	-4513
icle	-4514
▁symb	-4515
▁Count	-4516
▁prison	-4517
▁exactly	-4518
▁Australia	-4519
▁concerned	-4520
book	-4521
class	-4522
▁tack	-4523
ground	-4524
▁leads	-4525
▁uncon	-4526
uations	-4527
▁seriously	-4528
cks	-4529
▁equally	-4530
▁language	-4531
▁li	-4532
▁decis	-4533
▁Canada	-4534
ographic	-4535
▁resource	-4536
▁Communist	-4537
resp	-4538
illeg	-4539
▁faith	-4540
▁gained	-4541
▁reinfor	-4542
enty	-4543
Europe	-4544
▁react	-4545
▁defeat	-4546
▁promoting	-4547
che	-4548
▁Bal	-4549
▁bold	-4550
yl	-4551
igor	-4552
atisf	-4553
count	-4554
▁looks	-4555
▁Act	-4556
▁Gre	-4557
trade	-4558
▁east	-4559
▁2010,	-4560
▁retire	-4561
▁twenty	-4562
▁demonstrated	-4563
▁Policy	-4564
▁related	-4565
ibilities	-4566
▁temporary	-4567
▁transparency	-4568
▁fil	-4569
orpor	-4570
▁divided	-4571
▁Fortunately	-4572
▁195	-4573
▁Modi	-4574
▁wond	-4575
▁remind	-4576
▁observers	-4577
▁equivalent	-4578
▁bailout	-4579
▁keeping	-4580
▁accepted	-4581
▁opposite	-4582
▁($	-4583
▁Me	-4584
ugust	-4585
▁April	-4586
▁partner	-4587
▁restructuring	-4588
gia	-4589
▁3.	-4590
ading	-4591
onent	-4592
▁feed	-4593
lihood	-4594
▁discussion	-4595
appe	-4596
▁wis	-4597
▁tact	-4598
iences	-4599
▁dream	-4600
▁processes	-4601
heast	-4602
▁grand	-4603
▁illeg	-4604
▁losing	-4605
ded	-4606
▁25	-4607
axim	-4608
ffic	-4609
acing	-4610
▁flaw	-4611
▁resc	-4612
▁bubble	-4613
▁signed	-4614
▁victims	-4615
▁annually	-4616
DGs	-4617
ana	-4618
▁showed	-4619
▁opening	-4620
▁learning	-4621
▁surprise	-4622
▁pollution	-4623
▁arrangements	-4624
▁ric	-4625
licit	-4626
▁cell	-4627
▁none	-4628
▁bottom	-4629
▁playing	-4630
▁contributed	-4631
IC	-4632
ift	-4633
▁2%	-4634
▁Br	-4635
▁ment	-4636
▁race	-4637
▁advis	-4638
▁summer	-4639
▁starting	-4640
▁condition	-4641
ires	-4642
▁got	-4643
▁Hung	-4644
▁grown	-4645
▁issued	-4646
▁relief	-4647
▁cong	-4648
▁trip	-4649
contro	-4650
▁symbol	-4651
▁taxpay	-4652
▁perfect	-4653
▁northern	-4654
▁necessarily	-4655
▁requirements	-4656
▁collaps	-4657
▁included	-4658
▁criticism	-4659
iagn	-4660
iban	-4661
▁exit	-4662
▁fewer	-4663
aration	-4664
▁happens	-4665
▁minority	-4666
▁territorial	-4667
ster	-4668
rence	-4669
▁1980	-4670
▁begun	-4671
artment	-4672
▁coordin	-4673
▁defined	-4674
▁putting	-4675
▁presence	-4676
▁dictators	-4677
▁encouraging	-4678
son	-4679
▁moved	-4680
▁players	-4681
▁peripher	-4682
let	-4683
agers	-4684
▁Bang	-4685
▁fost	-4686
▁enact	-4687
▁Italian	-4688
▁innovative	-4689
▁willingness	-4690
▁delay	-4691
▁August	-4692
▁trigger	-4693
▁employees	-4694
▁Depression	-4695
ife	-4696
usal	-4697
▁Paul	-4698
▁chief	-4699
▁elite	-4700
▁paper	-4701
▁toler	-4702
▁modest	-4703
▁undert	-4704
▁urgent	-4705
▁possibly	-4706
▁ambitious	-4707
oud	-4708
▁offset	-4709
▁figures	-4710
▁billions	-4711
▁liberalization	-4712
bled	-4713
urch	-4714
inian	-4715
▁Chile	-4716
▁added	-4717
▁tempt	-4718
▁Colomb	-4719
▁dramatic	-4720
▁constraints	-4721
▁institution	-4722
▁HIV	-4723
▁fal	-4724
▁lend	-4725
▁2015,	-4726
▁Every	-4727
▁compr	-4728
▁monop	-4729
▁applic	-4730
▁surely	-4731
▁trouble	-4732
▁although	-4733
▁compromise	-4734
▁quantitative	-4735
▁fem	-4736
ional	-4737
▁brut	-4738
▁Nobel	-4739
▁closely	-4740
▁consist	-4741
▁interven	-4742
▁remaining	-4743
▁priorities	-4744
▁Reg	-4745
aining	-4746
mented	-4747
▁Jewish	-4748
▁investing	-4749
▁stagnation	-4750
▁volatility	-4751
pic	-4752
▁16	-4753
comm	-4754
▁cha	-4755
ressional	-4756
▁underpin	-4757
▁perceived	-4758
▁entrepreneurs	-4759
gu	-4760
ias	-4761
ping	-4762
▁mix	-4763
▁Port	-4764
▁hours	-4765
▁solve	-4766
▁crimes	-4767
▁distin	-4768
▁healthy	-4769
▁greenhouse	-4770
▁essentially	-4771
lines	-4772
▁Chance	-4773
▁critics	-4774
▁structures	-4775
▁understood	-4776
oon	-4777
▁Mc	-4778
apore	-4779
▁embrace	-4780
▁purchases	-4781
▁humanitarian	-4782
▁universities	-4783
uty	-4784
▁says	-4785
▁blood	-4786
▁cyber	-4787
▁Taliban	-4788
▁reported	-4789
▁extremely	-4790
▁sustainability	-4791
▁confir	-4792
ventions	-4793
▁costly	-4794
▁inadequate	-4795
SEAN	-4796
▁40%	-4797
▁ASEAN	-4798
Pacific	-4799
▁command	-4800
▁journalists	-4801
▁establishing	-4802
emen	-4803
▁Pen	-4804
ailed	-4805
arely	-4806
▁Shia	-4807
▁disag	-4808
▁towards	-4809
▁Singapore	-4810
▁introduced	-4811
▁sto	-4812
being	-4813
▁conver	-4814
▁legacy	-4815
▁mandate	-4816
▁addressed	-4817
▁Franc	-4818
ustrial	-4819
▁intended	-4820
rew	-4821
▁wave	-4822
lected	-4823
▁track	-4824
4.	-4825
ECD	-4826
ozy	-4827
▁mur	-4828
▁arch	-4829
carbon	-4830
▁frust	-4831
▁rival	-4832
▁reward	-4833
▁failing	-4834
▁targeted	-4835
▁sea	-4836
▁thr	-4837
▁kept	-4838
arkozy	-4839
▁Foreign	-4840
▁historic	-4841
▁religion	-4842
▁suffered	-4843
▁incentive	-4844
▁promising	-4845
▁remarkable	-4846
bert	-4847
onom	-4848
irect	-4849
nership	-4850
uilding	-4851
▁shocks	-4852
▁identify	-4853
▁marginal	-4854
▁previously	-4855
▁threatened	-4856
▁unsustainable	-4857
▁30%	-4858
▁evol	-4859
▁fate	-4860
▁Committee	-4861
bank	-4862
ecess	-4863
orient	-4864
▁signs	-4865
▁network	-4866
▁legitimate	-4867
with	-4868
▁Cub	-4869
▁saw	-4870
ested	-4871
igned	-4872
▁writ	-4873
▁search	-4874
▁gradually	-4875
▁restrictions	-4876
iny	-4877
-201	-4878
ingu	-4879
▁2007	-4880
▁crop	-4881
▁speak	-4882
ospital	-4883
▁Sarkozy	-4884
▁equality	-4885
▁survival	-4886
▁approaches	-4887
mon	-4888
▁IS	-4889
▁Sup	-4890
▁dri	-4891
▁maxim	-4892
▁Constit	-4893
▁dialogue	-4894
EO	-4895
rs	-4896
▁17	-4897
▁Car	-4898
overed	-4899
▁2012,	-4900
▁2013,	-4901
national	-4902
▁eliminate	-4903
ahu	-4904
▁docu	-4905
▁Beyond	-4906
▁capable	-4907
▁discipl	-4908
▁reports	-4909
▁renewable	-4910
▁integrated	-4911
▁surprising	-4912
2.	-4913
dr	-4914
arsh	-4915
▁OECD	-4916
▁shap	-4917
▁ideal	-4918
▁humans	-4919
▁launch	-4920
▁aggressive	-4921
▁regardless	-4922
▁undermining	-4923
▁capabilities	-4924
CS	-4925
▁veh	-4926
▁arrest	-4927
▁emerge	-4928
▁fueled	-4929
▁adequate	-4930
▁emergence	-4931
▁implementation	-4932
su	-4933
▁Cont	-4934
▁grew	-4935
▁stress	-4936
▁benefic	-4937
▁calling	-4938
▁moderate	-4939
▁concluded	-4940
eda	-4941
gic	-4942
aily	-4943
▁Any	-4944
▁Gulf	-4945
cession	-4946
▁served	-4947
▁centuries	-4948
▁engagement	-4949
▁quo	-4950
▁ver	-4951
▁Plan	-4952
▁flood	-4953
country	-4954
▁mutual	-4955
▁paying	-4956
▁researc	-4957
▁predecess	-4958
▁Chancellor	-4959
▁educational	-4960
▁transactions	-4961
US	-4962
▁PA	-4963
view	-4964
adays	-4965
anish	-4966
▁qual	-4967
▁wake	-4968
anyahu	-4969
▁White	-4970
▁celeb	-4971
▁parad	-4972
▁votes	-4973
▁neighbor	-4974
▁interpret	-4975
▁Netanyahu	-4976
▁Governments	-4977
iders	-4978
▁opposed	-4979
▁Russians	-4980
▁Ange	-4981
▁norms	-4982
▁reluct	-4983
▁However	-4984
ahar	-4985
▁Summ	-4986
itably	-4987
▁earth	-4988
▁incomp	-4989
▁stance	-4990
▁pushing	-4991
▁Partnership	-4992
▁Wall	-4993
▁observ	-4994
▁chemical	-4995
▁sentiment	-4996
eth	-4997
cean	-4998
▁Mor	-4999
▁Sil	-5000
▁Once	-5001
isingly	-5002
▁except	-5003
▁pushed	-5004
▁England	-5005
▁standing	-5006
▁protecting	-5007
▁solidarity	-5008
ompl	-5009
otic	-5010
▁reserve	-5011
▁recognition	-5012
▁11	-5013
oubt	-5014
▁fixed	-5015
▁superv	-5016
oms	-5017
▁Ky	-5018
▁doesn	-5019
▁smart	-5020
▁imagine	-5021
▁explicit	-5022
▁settlement	-5023
▁Ne	-5024
aeda	-5025
debt	-5026
ordan	-5027
▁sort	-5028
▁Again	-5029
▁plants	-5030
▁minimum	-5031
▁ideological	-5032
iforn	-5033
▁exam	-5034
▁homes	-5035
▁weight	-5036
▁rejected	-5037
▁Palestine	-5038
ken	-5039
▁13	-5040
ijing	-5041
▁bloc	-5042
▁phen	-5043
▁2014,	-5044
▁risky	-5045
▁reaching	-5046
▁pressures	-5047
▁proportion	-5048
rote	-5049
ffective	-5050
▁carried	-5051
▁looking	-5052
▁Californ	-5053
▁criminal	-5054
▁humanity	-5055
▁terrorists	-5056
mad	-5057
yal	-5058
▁Cy	-5059
adow	-5060
free	-5061
▁Asse	-5062
itness	-5063
▁apply	-5064
▁enabl	-5065
▁scope	-5066
agement	-5067
ordination	-5068
hab	-5069
ebru	-5070
uable	-5071
▁diagn	-5072
▁escal	-5073
▁solar	-5074
▁tough	-5075
ebruary	-5076
▁mother	-5077
▁Nigeria	-5078
▁1%	-5079
pass	-5080
pring	-5081
▁Jews	-5082
▁2011,	-5083
▁Human	-5084
▁prohib	-5085
▁compete	-5086
▁enabled	-5087
▁setting	-5088
▁civilian	-5089
bit	-5090
era	-5091
how	-5092
▁Cr	-5093
ties	-5094
iling	-5095
▁birth	-5096
▁revol	-5097
▁sales	-5098
▁destabil	-5099
▁suggested	-5100
▁repeatedly	-5101
▁QE	-5102
▁nav	-5103
▁Jordan	-5104
▁deterior	-5105
▁contracts	-5106
sp	-5107
ownt	-5108
▁Unt	-5109
ained	-5110
icles	-5111
rowing	-5112
ultane	-5113
▁David	-5114
▁board	-5115
▁series	-5116
▁content	-5117
▁phenomen	-5118
▁transfers	-5119
▁Investment	-5120
▁10	-5121
port	-5122
ether	-5123
urren	-5124
▁Yemen	-5125
▁logic	-5126
▁Further	-5127
▁Naz	-5128
ament	-5129
▁Senate	-5130
▁latter	-5131
▁February	-5132
▁operating	-5133
▁anx	-5134
▁sac	-5135
▁philos	-5136
▁corrupt	-5137
ineteenth	-5138
▁boosting	-5139
▁hospital	-5140
▁securities	-5141
GO	-5142
pted	-5143
▁wors	-5144
airman	-5145
▁wrote	-5146
▁realize	-5147
▁BER	-5148
▁eru	-5149
anied	-5150
▁2011	-5151
▁pret	-5152
▁downt	-5153
▁condem	-5154
▁father	-5155
▁secret	-5156
▁exposed	-5157
▁someone	-5158
▁survive	-5159
▁Assembly	-5160
▁Nonetheless	-5161
istrib	-5162
▁withdrawal	-5163
▁substantially	-5164
▁Ear	-5165
▁Mos	-5166
odies	-5167
secut	-5168
▁fort	-5169
appoint	-5170
▁Beijing	-5171
▁comment	-5172
▁conducted	-5173
▁isolation	-5174
▁Rom	-5175
▁lay	-5176
ivered	-5177
▁harder	-5178
▁ignore	-5179
▁Agreement	-5180
▁primarily	-5181
Is	-5182
ole	-5183
ume	-5184
iled	-5185
▁Ben	-5186
icing	-5187
▁2013	-5188
▁expense	-5189
▁persist	-5190
▁practical	-5191
▁controvers	-5192
▁negotiating	-5193
border	-5194
estern	-5195
▁deals	-5196
▁newsp	-5197
▁rating	-5198
▁slight	-5199
▁California	-5200
▁completely	-5201
▁researchers	-5202
9.	-5203
eron	-5204
ilipp	-5205
▁appeal	-5206
▁strike	-5207
▁advances	-5208
▁discrimin	-5209
▁obligations	-5210
depend	-5211
▁holds	-5212
▁mobile	-5213
▁operate	-5214
▁simultane	-5215
▁reasonable	-5216
▁explanation	-5217
ihad	-5218
using	-5219
▁Until	-5220
▁reass	-5221
▁allows	-5222
▁experiment	-5223
▁wid	-5224
▁crow	-5225
▁Portug	-5226
▁engaged	-5227
▁enhance	-5228
▁Christian	-5229
▁accounting	-5230
▁accompanied	-5231
▁Ant	-5232
▁shr	-5233
▁alike	-5234
▁black	-5235
▁delib	-5236
▁Philipp	-5237
▁emergency	-5238
▁attractive	-5239
NA	-5240
▁bol	-5241
▁irre	-5242
▁Never	-5243
ressing	-5244
▁linked	-5245
▁Georgia	-5246
▁disappe	-5247
▁strongly	-5248
▁delivered	-5249
▁evolution	-5250
▁Iraqi	-5251
▁defin	-5252
▁waste	-5253
ishment	-5254
▁warned	-5255
▁accompl	-5256
▁failures	-5257
▁populism	-5258
rap	-5259
ables	-5260
▁vill	-5261
▁telev	-5262
▁woman	-5263
▁Growth	-5264
▁welcome	-5265
▁ideology	-5266
AR	-5267
agan	-5268
▁Sud	-5269
▁users	-5270
▁package	-5271
▁taxpayers	-5272
▁preventing	-5273
▁Bel	-5274
▁lob	-5275
▁via	-5276
inced	-5277
▁barg	-5278
▁trib	-5279
▁wider	-5280
ogether	-5281
▁Sweden	-5282
▁Supreme	-5283
▁budgets	-5284
▁initial	-5285
▁reverse	-5286
▁species	-5287
▁disputes	-5288
▁appreciation	-5289
rue	-5290
known	-5291
▁felt	-5292
crisis	-5293
through	-5294
ulating	-5295
▁charge	-5296
▁contem	-5297
▁surround	-5298
▁Countries	-5299
▁innovations	-5300
uit	-5301
pric	-5302
unis	-5303
▁died	-5304
▁peak	-5305
▁satisf	-5306
▁weaken	-5307
American	-5308
▁finding	-5309
▁expanded	-5310
hi	-5311
ifth	-5312
▁apart	-5313
▁polls	-5314
▁Recent	-5315
▁Whether	-5316
▁autonom	-5317
▁mission	-5318
▁publicly	-5319
▁supplies	-5320
▁extraordin	-5321
▁threatening	-5322
ns	-5323
egu	-5324
▁Prog	-5325
▁iron	-5326
▁elements	-5327
9%	-5328
DR	-5329
▁40	-5330
aded	-5331
erous	-5332
▁Serb	-5333
▁ball	-5334
▁2009,	-5335
▁champ	-5336
▁proceed	-5337
▁enabling	-5338
8.	-5339
duc	-5340
tax	-5341
▁60%	-5342
▁die	-5343
▁alle	-5344
▁turm	-5345
▁Tunis	-5346
▁aspect	-5347
▁settle	-5348
▁dismiss	-5349
▁turmoil	-5350
▁regarded	-5351
▁narrative	-5352
▁BRI	-5353
▁rose	-5354
▁multi	-5355
▁steel	-5356
▁weaker	-5357
ifically	-5358
oriented	-5359
▁anticip	-5360
▁malaria	-5361
▁downturn	-5362
▁Sub	-5363
▁WTO	-5364
▁fat	-5365
▁aging	-5366
▁daily	-5367
▁liter	-5368
connect	-5369
▁genetic	-5370
▁offering	-5371
rog	-5372
aust	-5373
▁TPP	-5374
ipped	-5375
▁tour	-5376
▁1980’	-5377
▁micro	-5378
▁newly	-5379
▁spirit	-5380
▁professional	-5381
zb	-5382
ola	-5383
▁inflows	-5384
▁sharing	-5385
size	-5386
▁tim	-5387
inding	-5388
resent	-5389
▁deval	-5390
▁actual	-5391
function	-5392
oubtedly	-5393
▁illegal	-5394
▁devastating	-5395
▁coordination	-5396
lades	-5397
▁cast	-5398
▁absol	-5399
▁Street	-5400
▁combat	-5401
▁divers	-5402
▁artific	-5403
▁dispute	-5404
▁nominal	-5405
▁globally	-5406
▁threaten	-5407
▁counterparts	-5408
▁contributions	-5409
▁sch	-5410
bling	-5411
arters	-5412
▁claimed	-5413
▁discover	-5414
▁reaction	-5415
gas	-5416
osy	-5417
ador	-5418
lete	-5419
sels	-5420
▁facts	-5421
▁table	-5422
▁perpet	-5423
European	-5424
▁creates	-5425
▁released	-5426
mosp	-5427
▁Aut	-5428
▁Bern	-5429
▁backed	-5430
▁statement	-5431
▁Add	-5432
▁voted	-5433
zbollah	-5434
▁leaves	-5435
reaching	-5436
▁adverse	-5437
▁declined	-5438
▁executive	-5439
▁discussions	-5440
▁implementing	-5441
▁$4	-5442
idel	-5443
▁clin	-5444
clical	-5445
▁survey	-5446
exchange	-5447
utrition	-5448
▁missile	-5449
▁parents	-5450
▁Banglades	-5451
▁provision	-5452
▁subsequent	-5453
▁80%	-5454
▁colon	-5455
▁conven	-5456
▁ending	-5457
▁Defense	-5458
▁invasion	-5459
▁managers	-5460
▁producing	-5461
▁effectiveness	-5462
▁interventions	-5463
▁Ah	-5464
▁crime	-5465
ocratic	-5466
▁Cameron	-5467
▁arguments	-5468
▁convinced	-5469
▁facilities	-5470
udd	-5471
ashed	-5472
▁emot	-5473
▁od	-5474
osis	-5475
▁alt	-5476
▁swe	-5477
▁fert	-5478
▁plant	-5479
▁posed	-5480
▁intent	-5481
▁notably	-5482
▁wealthy	-5483
▁attempts	-5484
▁coverage	-5485
▁earnings	-5486
▁undoubtedly	-5487
▁accountability	-5488
ux	-5489
que	-5490
fare	-5491
▁Lead	-5492
▁magn	-5493
osition	-5494
▁atmosp	-5495
▁barely	-5496
▁closed	-5497
▁refused	-5498
▁staff	-5499
▁joined	-5500
▁transl	-5501
▁Israelis	-5502
▁announce	-5503
▁conclusion	-5504
▁mainstream	-5505
▁nineteenth	-5506
▁fundamentally	-5507
AD	-5508
ari	-5509
▁2000	-5510
▁nine	-5511
▁gives	-5512
▁chains	-5513
▁ownership	-5514
raf	-5515
amed	-5516
rack	-5517
vard	-5518
▁ple	-5519
▁Free	-5520
▁passed	-5521
▁Hezbollah	-5522
▁flexibility	-5523
bas	-5524
what	-5525
agues	-5526
pected	-5527
▁reput	-5528
▁skept	-5529
▁escape	-5530
▁bubbles	-5531
▁distort	-5532
including	-5533
▁Institute	-5534
▁dependent	-5535
▁surpluses	-5536
▁consistent	-5537
▁5%	-5538
▁ben	-5539
▁Kenya	-5540
▁alarm	-5541
▁pharm	-5542
▁slowly	-5543
▁Conserv	-5544
▁prolong	-5545
▁ambitions	-5546
▁Department	-5547
▁contribution	-5548
ino	-5549
▁anc	-5550
▁obt	-5551
▁managing	-5552
▁$1.	-5553
▁ran	-5554
▁born	-5555
▁surge	-5556
▁exclus	-5557
▁placed	-5558
▁rarely	-5559
▁safegu	-5560
▁computer	-5561
▁flexible	-5562
▁redistrib	-5563
▁z	-5564
▁25%	-5565
▁Jin	-5566
▁tow	-5567
▁Face	-5568
▁equip	-5569
▁print	-5570
▁unity	-5571
▁viable	-5572
▁applied	-5573
▁fragile	-5574
▁variety	-5575
▁Colombia	-5576
▁momentum	-5577
▁replaced	-5578
▁weakened	-5579
▁bankruptcy	-5580
ma	-5581
▁$5	-5582
ellow	-5583
ivate	-5584
▁phase	-5585
osystem	-5586
▁female	-5587
▁seemingly	-5588
▁successor	-5589
▁inevitably	-5590
▁white	-5591
product	-5592
▁extend	-5593
▁wonder	-5594
▁centers	-5595
▁diverse	-5596
▁valuable	-5597
▁dictatorship	-5598
body	-5599
resh	-5600
▁Yes	-5601
▁Much	-5602
▁word	-5603
commun	-5604
▁twice	-5605
▁sexual	-5606
▁broadly	-5607
▁pointed	-5608
▁returned	-5609
▁systemic	-5610
▁negotiate	-5611
▁facilitate	-5612
CP	-5613
imb	-5614
▁El	-5615
ragm	-5616
work	-5617
gered	-5618
igrant	-5619
urally	-5620
▁Peace	-5621
▁false	-5622
▁rebal	-5623
▁attrib	-5624
▁yields	-5625
▁killing	-5626
▁pursued	-5627
▁witness	-5628
▁patterns	-5629
▁struggling	-5630
▁Sustainable	-5631
▁demonstrate	-5632
isan	-5633
rete	-5634
▁Are	-5635
▁bur	-5636
itten	-5637
▁polar	-5638
uff	-5639
gment	-5640
▁ally	-5641
▁Spring	-5642
▁Unlike	-5643
▁cooper	-5644
▁proced	-5645
ophistic	-5646
▁Hungary	-5647
intensive	-5648
▁revealed	-5649
▁expressed	-5650
▁demographic	-5651
▁participants	-5652
▁successfully	-5653
▁reck	-5654
utical	-5655
▁retail	-5656
▁chronic	-5657
▁contrad	-5658
▁examples	-5659
▁Pakistani	-5660
▁Furthermore	-5661
▁protectionism	-5662
sight	-5663
▁jihad	-5664
▁tests	-5665
▁decent	-5666
▁saying	-5667
▁stories	-5668
▁dominant	-5669
▁television	-5670
▁Philippines	-5671
▁transparent	-5672
ovo	-5673
dered	-5674
▁High	-5675
▁Spec	-5676
▁sole	-5677
▁text	-5678
▁wish	-5679
ection	-5680
▁encouraged	-5681
AI	-5682
ips	-5683
vis	-5684
▁TB	-5685
▁accur	-5686
▁index	-5687
▁Nether	-5688
interest	-5689
▁exercise	-5690
▁mortgage	-5691
▁disappoint	-5692
▁Netherlands	-5693
▁relationships	-5694
▁ded	-5695
unger	-5696
▁Energy	-5697
▁renewed	-5698
▁generated	-5699
▁progressive	-5700
RIS	-5701
▁Os	-5702
arak	-5703
▁lag	-5704
▁lie	-5705
rating	-5706
▁Goals	-5707
▁Market	-5708
▁voting	-5709
▁approval	-5710
▁balanced	-5711
▁displaced	-5712
▁responses	-5713
▁14	-5714
ilemm	-5715
▁stre	-5716
▁south	-5717
▁divide	-5718
▁retirement	-5719
...	-5720
cri	-5721
▁Sm	-5722
▁wa	-5723
▁pie	-5724
▁Angela	-5725
▁channel	-5726
▁sophistic	-5727
▁instruments	-5728
adic	-5729
lock	-5730
otics	-5731
▁brain	-5732
▁donors	-5733
▁Jinping	-5734
▁soldiers	-5735
▁customers	-5736
▁demanding	-5737
▁periphery	-5738
▁vac	-5739
▁burn	-5740
▁cars	-5741
driven	-5742
▁helps	-5743
▁lacks	-5744
▁ruled	-5745
▁courts	-5746
▁resort	-5747
▁wisdom	-5748
▁Portugal	-5749
▁resulted	-5750
▁concerning	-5751
▁frequently	-5752
▁supposedly	-5753
▁university	-5754
GDP	-5755
oted	-5756
▁Eth	-5757
▁Kos	-5758
theless	-5759
▁bigger	-5760
▁buying	-5761
▁friend	-5762
▁discoura	-5763
▁weakening	-5764
▁policymaking	-5765
fe	-5766
▁Mu	-5767
ommod	-5768
▁hege	-5769
▁knew	-5770
ulative	-5771
▁thanks	-5772
▁Egyptian	-5773
▁Facebook	-5774
▁absolute	-5775
▁academic	-5776
▁multiple	-5777
▁remember	-5778
▁acknowled	-5779
IA	-5780
ius	-5781
oes	-5782
oned	-5783
rees	-5784
eping	-5785
▁Four	-5786
▁2016,	-5787
▁coast	-5788
▁evident	-5789
▁showing	-5790
▁version	-5791
▁mobility	-5792
▁reliable	-5793
▁ecosystem	-5794
▁platforms	-5795
▁statements	-5796
▁improvement	-5797
▁aw	-5798
▁App	-5799
▁aud	-5800
point	-5801
▁Hist	-5802
▁Malays	-5803
▁Reagan	-5804
▁Robert	-5805
▁fourth	-5806
▁raises	-5807
▁decisive	-5808
▁purchase	-5809
▁taxation	-5810
▁unwilling	-5811
▁presidents	-5812
isp	-5813
alin	-5814
thirds	-5815
aceutical	-5816
▁happening	-5817
▁Bangladesh	-5818
▁shareholders	-5819
odox	-5820
ogle	-5821
▁hot	-5822
▁blam	-5823
iments	-5824
▁aspir	-5825
▁absorb	-5826
▁plenty	-5827
▁alleged	-5828
▁shifting	-5829
▁resilience	-5830
Es	-5831
na	-5832
zz	-5833
▁70%	-5834
▁rout	-5835
ptions	-5836
▁Crime	-5837
▁speed	-5838
▁depart	-5839
▁transm	-5840
▁Harvard	-5841
▁educated	-5842
▁nowadays	-5843
▁dominated	-5844
▁simultaneously	-5845
osn	-5846
illenn	-5847
▁marked	-5848
▁painful	-5849
▁populists	-5850
▁advantages	-5851
▁fra	-5852
ashion	-5853
▁guide	-5854
▁pragm	-5855
termath	-5856
▁volunt	-5857
▁weather	-5858
▁downward	-5859
▁aftermath	-5860
▁depression	-5861
ctr	-5862
serv	-5863
▁Bol	-5864
▁blow	-5865
ubarak	-5866
▁diver	-5867
▁Resear	-5868
▁methods	-5869
▁damaging	-5870
▁accelerate	-5871
tt	-5872
soc	-5873
▁Nic	-5874
▁Bill	-5875
▁uses	-5876
▁adult	-5877
▁badly	-5878
▁recip	-5879
▁argues	-5880
▁sheets	-5881
▁shifts	-5882
▁extended	-5883
▁measured	-5884
▁similarly	-5885
▁imperative	-5886
▁lab	-5887
oning	-5888
▁older	-5889
▁proven	-5890
▁rulers	-5891
▁suspic	-5892
▁Justice	-5893
▁comfort	-5894
▁elector	-5895
▁accommod	-5896
▁triggered	-5897
▁participate	-5898
▁alternatives	-5899
BO	-5900
CE	-5901
▁·	-5902
▁90%	-5903
▁dark	-5904
▁epid	-5905
▁sacr	-5906
▁kinds	-5907
▁eastern	-5908
▁mistakes	-5909
▁benefited	-5910
▁diversity	-5911
▁Mad	-5912
▁hab	-5913
▁hyp	-5914
asters	-5915
▁acting	-5916
▁component	-5917
▁assessment	-5918
▁guarantees	-5919
▁maintained	-5920
▁purchasing	-5921
▁consequence	-5922
▁Forum	-5923
▁Google	-5924
▁advice	-5925
veraging	-5926
▁fulfill	-5927
▁believes	-5928
▁carefully	-5929
aut	-5930
▁3%	-5931
▁Sal	-5932
agger	-5933
▁brid	-5934
▁exclud	-5935
▁murder	-5936
▁stopped	-5937
▁imperial	-5938
▁reconcil	-5939
▁background	-5940
▁colleagues	-5941
rant	-5942
ylum	-5943
▁Law	-5944
inded	-5945
rights	-5946
▁2001,	-5947
▁image	-5948
▁Rights	-5949
▁brutal	-5950
▁Mubarak	-5951
▁warning	-5952
▁materials	-5953
▁meaningful	-5954
▁complicated	-5955
▁compensation	-5956
cker	-5957
▁dim	-5958
style	-5959
establ	-5960
▁Agency	-5961
▁Change	-5962
▁height	-5963
▁Spanish	-5964
▁focusing	-5965
▁challenging	-5966
▁characterized	-5967
ami	-5968
ked	-5969
▁mus	-5970
▁pict	-5971
▁Sudan	-5972
▁chaos	-5973
▁debates	-5974
▁apparently	-5975
▁phenomenon	-5976
▁acknowledge	-5977
rum	-5978
▁CEO	-5979
▁eyes	-5980
▁runs	-5981
▁fails	-5982
▁fresh	-5983
▁north	-5984
▁gather	-5985
▁shares	-5986
outheast	-5987
▁grounds	-5988
▁justify	-5989
▁annivers	-5990
▁properly	-5991
▁prosperous	-5992
▁depreciation	-5993
▁confrontation	-5994
ley	-5995
▁4.	-5996
onia	-5997
▁aims	-5998
health	-5999
▁talent	-6000
▁worried	-6001
▁borrowers	-6002
▁regarding	-6003
▁foundation	-6004
▁identified	-6005
cow	-6006
roc	-6007
oked	-6008
▁Big	-6009
ounded	-6010
▁aside	-6011
illance	-6012
▁Germans	-6013
▁Pacific	-6014
▁assumed	-6015
▁streets	-6016
▁concrete	-6017
▁equipment	-6018
▁consistently	-6019
ibi	-6020
now	-6021
▁60	-6022
▁Lab	-6023
iking	-6024
▁1970	-6025
▁City	-6026
▁wall	-6027
00,000	-6028
astrop	-6029
▁abuse	-6030
urrency	-6031
▁stimulate	-6032
▁breakthrough	-6033
▁considerably	-6034
China	-6035
▁Bash	-6036
▁send	-6037
▁write	-6038
▁brings	-6039
▁united	-6040
▁capture	-6041
▁charges	-6042
▁treated	-6043
▁vehicles	-6044
▁obstacles	-6045
▁threatens	-6046
▁unilateral	-6047
▁strengthened	-6048
?”	-6049
pan	-6050
ura	-6051
▁fle	-6052
apers	-6053
▁insu	-6054
▁ignored	-6055
▁profess	-6056
▁somewhat	-6057
▁organized	-6058
▁minorities	-6059
▁pharmaceutical	-6060
▁$6	-6061
iver	-6062
pper	-6063
▁Jer	-6064
▁bra	-6065
enced	-6066
itect	-6067
▁wild	-6068
▁moves	-6069
▁storm	-6070
▁Kosovo	-6071
▁manner	-6072
▁traged	-6073
▁unders	-6074
▁atmosphere	-6075
▁impressive	-6076
▁undermined	-6077
▁partnerships	-6078
▁je	-6079
ruit	-6080
integ	-6081
▁enth	-6082
▁shut	-6083
ailand	-6084
▁PARIS	-6085
▁heads	-6086
▁Tunisia	-6087
▁imposing	-6088
▁workforce	-6089
▁indicators	-6090
▁overwhelming	-6091
fol	-6092
▁Pet	-6093
▁ast	-6094
▁zone	-6095
aharan	-6096
itudes	-6097
▁minds	-6098
▁asylum	-6099
▁ethical	-6100
▁fueling	-6101
▁original	-6102
▁ultimate	-6103
▁civilians	-6104
▁occupation	-6105
aus	-6106
agen	-6107
lish	-6108
icious	-6109
inated	-6110
▁Moscow	-6111
▁rescue	-6112
inational	-6113
▁distingu	-6114
▁governing	-6115
▁predicted	-6116
▁succeeded	-6117
▁improvements	-6118
▁rig	-6119
chang	-6120
▁forg	-6121
▁pose	-6122
▁2008.	-6123
Saharan	-6124
▁hunger	-6125
▁opened	-6126
▁Through	-6127
▁express	-6128
▁Thailand	-6129
▁consolidation	-6130
iced	-6131
▁2007,	-6132
▁bodies	-6133
▁outbre	-6134
▁forcing	-6135
▁invested	-6136
▁limiting	-6137
▁openness	-6138
▁inclusion	-6139
▁responded	-6140
▁Nevertheless	-6141
Ass	-6142
fit	-6143
▁Bet	-6144
addam	-6145
▁wait	-6146
irable	-6147
▁noted	-6148
▁scand	-6149
▁voice	-6150
▁Church	-6151
▁vaccines	-6152
▁architect	-6153
▁catastrop	-6154
We	-6155
▁1,	-6156
▁Mah	-6157
anmar	-6158
idden	-6159
▁None	-6160
▁didn	-6161
▁hero	-6162
lessly	-6163
▁Among	-6164
▁Blair	-6165
▁Clear	-6166
▁eager	-6167
▁types	-6168
▁unions	-6169
▁selling	-6170
▁informal	-6171
▁presented	-6172
▁anniversary	-6173
▁experiencing	-6174
▁insufficient	-6175
▁surprisingly	-6176
mpt	-6177
oles	-6178
▁Dut	-6179
▁loyal	-6180
▁schol	-6181
▁usual	-6182
▁Should	-6183
▁scheme	-6184
▁accused	-6185
▁neighboring	-6186
▁transformed	-6187
CC	-6188
eted	-6189
▁doz	-6190
icial	-6191
▁prox	-6192
▁entit	-6193
rations	-6194
▁notion	-6195
▁routine	-6196
inflation	-6197
▁preserve	-6198
▁Political	-6199
▁initially	-6200
▁attempting	-6201
▁extraordinary	-6202
▁unconventional	-6203
xic	-6204
▁Hol	-6205
▁pet	-6206
▁tele	-6207
growth	-6208
▁consult	-6209
▁vaccine	-6210
▁secondary	-6211
▁dependence	-6212
▁engineering	-6213
▁representatives	-6214
afi	-6215
▁Ric	-6216
Assad	-6217
▁Educ	-6218
▁gets	-6219
urance	-6220
▁propag	-6221
▁gaining	-6222
▁appeared	-6223
amb	-6224
▁Conf	-6225
▁night	-6226
develop	-6227
perform	-6228
▁eradic	-6229
▁island	-6230
▁oppose	-6231
▁dealing	-6232
▁greatly	-6233
▁separate	-6234
▁sophisticated	-6235
ao	-6236
lit	-6237
born	-6238
▁Cop	-6239
democ	-6240
estate	-6241
insula	-6242
▁Roman	-6243
▁estate	-6244
▁retain	-6245
▁shadow	-6246
▁discipline	-6247
▁persistent	-6248
▁Brotherhood	-6249
atar	-6250
lash	-6251
▁Den	-6252
▁loan	-6253
▁trap	-6254
gently	-6255
▁strict	-6256
▁privile	-6257
▁suddenly	-6258
▁Cz	-6259
indu	-6260
odes	-6261
▁tri	-6262
▁Hill	-6263
ranean	-6264
▁2015.	-6265
▁enthus	-6266
▁Myanmar	-6267
▁occasion	-6268
▁collapsed	-6269
▁residents	-6270
▁controlled	-6271
▁negotiated	-6272
▁surveillance	-6273
ple	-6274
▁Ac	-6275
orld	-6276
▁2005	-6277
▁Holl	-6278
▁unex	-6279
▁acute	-6280
▁watch	-6281
▁Public	-6282
▁traffic	-6283
▁recommend	-6284
lymp	-6285
▁teac	-6286
▁dilemm	-6287
▁tackle	-6288
▁doctors	-6289
▁meetings	-6290
▁urgently	-6291
▁construct	-6292
EA	-6293
ugg	-6294
▁Moh	-6295
oided	-6296
▁True	-6297
▁prud	-6298
▁pure	-6299
iously	-6300
▁drawn	-6301
▁simpl	-6302
▁Berlin	-6303
▁attend	-6304
▁famous	-6305
▁empower	-6306
▁monopoly	-6307
▁assumption	-6308
6,	-6309
face	-6310
omal	-6311
rity	-6312
▁Red	-6313
price	-6314
▁Cuba	-6315
▁fill	-6316
▁risen	-6317
▁stocks	-6318
▁English	-6319
▁portfol	-6320
▁severely	-6321
▁slightly	-6322
▁Represent	-6323
▁expenditures	-6324
ett	-6325
ateg	-6326
cost	-6327
oods	-6328
claim	-6329
▁rail	-6330
▁links	-6331
▁overh	-6332
▁penal	-6333
▁Saddam	-6334
▁avoided	-6335
▁gradual	-6336
▁repression	-6337
▁congressional	-6338
emb	-6339
▁nom	-6340
opard	-6341
place	-6342
▁ISIS	-6343
▁drag	-6344
▁pick	-6345
▁Olymp	-6346
▁poorer	-6347
atlantic	-6348
▁entered	-6349
▁written	-6350
▁emphasis	-6351
▁estimate	-6352
▁advocates	-6353
▁artificial	-6354
▁communication	-6355
athol	-6356
utral	-6357
▁pill	-6358
▁Crimea	-6359
▁Labour	-6360
▁planned	-6361
▁activists	-6362
▁exporters	-6363
tr	-6364
lor	-6365
she	-6366
osen	-6367
emics	-6368
essim	-6369
▁heard	-6370
▁decreas	-6371
▁Research	-6372
▁protected	-6373
▁multinational	-6374
▁Ir	-6375
ocol	-6376
ussels	-6377
▁Group	-6378
▁Qaeda	-6379
▁arbit	-6380
▁trials	-6381
▁Holland	-6382
▁dangers	-6383
▁slowing	-6384
▁pressing	-6385
iterranean	-6386
▁dominance	-6387
▁statistics	-6388
▁discrimination	-6389
adv	-6390
opia	-6391
▁Off	-6392
▁hur	-6393
▁Before	-6394
▁Polish	-6395
▁Francis	-6396
▁prepare	-6397
▁sensible	-6398
▁perception	-6399
▁revolutionary	-6400
hani	-6401
▁sect	-6402
▁Board	-6403
▁deposits	-6404
▁straight	-6405
▁destroyed	-6406
▁intention	-6407
▁generating	-6408
▁provisions	-6409
▁influential	-6410
▁involvement	-6411
▁hyd	-6412
▁son	-6413
▁Found	-6414
▁mental	-6415
▁slower	-6416
▁Kurdish	-6417
▁constitu	-6418
▁wellbeing	-6419
▁commission	-6420
▁manipulation	-6421
ses	-6422
aker	-6423
▁Imp	-6424
cking	-6425
ifies	-6426
▁$100	-6427
▁outl	-6428
▁overt	-6429
▁poorly	-6430
▁Nuclear	-6431
▁dropped	-6432
▁enemies	-6433
▁possess	-6434
▁prolonged	-6435
▁realistic	-6436
▁Mediterranean	-6437
);	-6438
IP	-6439
▁191	-6440
▁Hit	-6441
▁cul	-6442
▁anger	-6443
▁categ	-6444
▁repay	-6445
▁Atlantic	-6446
▁financed	-6447
▁connected	-6448
▁ourselves	-6449
▁reductions	-6450
▁unemployed	-6451
▁Im	-6452
cher	-6453
soft	-6454
iaries	-6455
▁Front	-6456
▁books	-6457
▁refer	-6458
▁sympt	-6459
▁Author	-6460
▁Clearly	-6461
▁illness	-6462
▁jeopard	-6463
▁winning	-6464
▁expertise	-6465
▁involving	-6466
▁operation	-6467
▁Conference	-6468
▁compelling	-6469
oto	-6470
real	-6471
▁Who	-6472
▁desp	-6473
▁Qatar	-6474
▁doctr	-6475
▁Cathol	-6476
▁antibi	-6477
▁presum	-6478
▁rooted	-6479
▁backing	-6480
▁missing	-6481
▁backlash	-6482
▁employers	-6483
oor	-6484
ball	-6485
stan	-6486
▁Ban	-6487
▁cab	-6488
iances	-6489
▁Abbas	-6490
▁inher	-6491
▁Bashar	-6492
▁deploy	-6493
▁overse	-6494
▁unfair	-6495
roportion	-6496
▁Brussels	-6497
▁Malaysia	-6498
▁striking	-6499
▁obviously	-6500
ein	-6501
och	-6502
yan	-6503
▁Let	-6504
iliar	-6505
▁seats	-6506
▁uphold	-6507
▁feature	-6508
▁patient	-6509
▁undersc	-6510
▁mitigate	-6511
governmental	-6512
▁functioning	-6513
▁contributing	-6514
beit	-6515
cles	-6516
▁Inc	-6517
▁irr	-6518
icism	-6519
▁Char	-6520
▁eval	-6521
▁exem	-6522
▁hurt	-6523
▁puts	-6524
▁star	-6525
▁Times	-6526
▁poses	-6527
▁broken	-6528
▁fields	-6529
▁waters	-6530
▁careful	-6531
▁deposit	-6532
▁disagree	-6533
▁disorder	-6534
▁outright	-6535
▁requiring	-6536
▁affordable	-6537
alf	-6538
ilib	-6539
phic	-6540
▁Abd	-6541
▁AIDS	-6542
▁seas	-6543
▁suic	-6544
▁vent	-6545
minded	-6546
▁Dutch	-6547
▁check	-6548
▁imply	-6549
▁Southeast	-6550
▁liabilities	-6551
▁protectionist	-6552
ini	-6553
▁15%	-6554
▁Del	-6555
▁Her	-6556
▁Burm	-6557
▁Init	-6558
▁Rich	-6559
▁2000,	-6560
▁Three	-6561
▁Hitler	-6562
▁caught	-6563
chnology	-6564
▁picture	-6565
▁rightly	-6566
▁tragedy	-6567
▁features	-6568
▁reliance	-6569
▁confident	-6570
▁motivated	-6571
IT	-6572
sen	-6573
agon	-6574
▁Mao	-6575
oples	-6576
▁ease	-6577
▁epis	-6578
▁unle	-6579
▁happy	-6580
▁weapon	-6581
▁approved	-6582
▁reluctant	-6583
▁enforcement	-6584
bor	-6585
vez	-6586
kers	-6587
egoti	-6588
▁intr	-6589
▁pipe	-6590
▁scar	-6591
▁wise	-6592
respons	-6593
▁openly	-6594
▁animals	-6595
▁Northern	-6596
▁mounting	-6597
▁underest	-6598
▁favorable	-6599
▁extremists	-6600
▁considering	-6601
roll	-6602
▁Art	-6603
▁Chá	-6604
▁You	-6605
ourse	-6606
▁ends	-6607
▁grid	-6608
adjust	-6609
▁belong	-6610
▁dispar	-6611
▁foresee	-6612
▁analysts	-6613
▁implicit	-6614
▁machines	-6615
▁missiles	-6616
▁tightening	-6617
▁transportation	-6618
▁Far	-6619
▁Deng	-6620
▁Gold	-6621
▁aver	-6622
▁1970’	-6623
▁falls	-6624
▁Others	-6625
▁removed	-6626
▁creative	-6627
▁Education	-6628
▁inefficient	-6629
CO	-6630
FTA	-6631
win	-6632
▁Li	-6633
nings	-6634
▁Back	-6635
▁Shan	-6636
▁forth	-6637
▁match	-6638
▁seeks	-6639
▁element	-6640
▁distinct	-6641
▁finances	-6642
▁underway	-6643
▁Stability	-6644
me	-6645
olf	-6646
▁$7	-6647
▁6.	-6648
▁192	-6649
▁gun	-6650
▁pool	-6651
▁Somal	-6652
▁deleg	-6653
enhagen	-6654
▁Unless	-6655
▁strikes	-6656
▁anywhere	-6657
▁abandoned	-6658
▁beneficial	-6659
▁guaranteed	-6660
▁internationally	-6661
iox	-6662
▁Gh	-6663
anke	-6664
▁fun	-6665
▁enemy	-6666
▁manif	-6667
▁Chávez	-6668
▁privat	-6669
▁restra	-6670
▁Against	-6671
▁medicine	-6672
▁difficulties	-6673
unch	-6674
▁mag	-6675
▁SDGs	-6676
▁Inter	-6677
▁define	-6678
▁regist	-6679
▁triump	-6680
▁Mexican	-6681
▁payment	-6682
▁Convention	-6683
▁disproportion	-6684
ests	-6685
lets	-6686
▁2004	-6687
▁hear	-6688
▁Power	-6689
▁catch	-6690
▁chain	-6691
▁agency	-6692
▁foster	-6693
▁feeling	-6694
▁spectac	-6695
▁stabilize	-6696
▁Constitution	-6697
▁Dis	-6698
▁sun	-6699
omics	-6700
▁Jong	-6701
▁acts	-6702
▁indu	-6703
▁lawy	-6704
▁crash	-6705
▁Stalin	-6706
▁courage	-6707
▁paralle	-6708
connected	-6709
▁actively	-6710
▁avoiding	-6711
▁Copenhagen	-6712
▁contradict	-6713
▁catastrophe	-6714
▁manufacture	-6715
▁proliferation	-6716
▁vulnerability	-6717
BI	-6718
va	-6719
▁Eb	-6720
fire	-6721
ghai	-6722
▁Bas	-6723
▁meg	-6724
▁onto	-6725
addafi	-6726
▁saved	-6727
▁enacted	-6728
▁outlook	-6729
▁prefere	-6730
▁prominent	-6731
▁executives	-6732
▁achievement	-6733
▁21	-6734
iang	-6735
ruck	-6736
▁Pan	-6737
water	-6738
▁Each	-6739
▁male	-6740
▁unst	-6741
▁postp	-6742
▁turns	-6743
▁couple	-6744
▁explos	-6745
▁display	-6746
▁granted	-6747
▁foreigners	-6748
cell	-6749
iest	-6750
▁date	-6751
▁quot	-6752
tering	-6753
▁BRICS	-6754
▁cells	-6755
▁stood	-6756
reshold	-6757
▁paraly	-6758
▁lasting	-6759
▁Shanghai	-6760
▁indicate	-6761
▁explained	-6762
▁intervene	-6763
▁projected	-6764
▁targeting	-6765
▁comparable	-6766
▁reputation	-6767
▁confronting	-6768
▁expenditure	-6769
ELE	-6770
owed	-6771
enses	-6772
riage	-6773
▁Ethi	-6774
▁Five	-6775
▁Shin	-6776
▁curb	-6777
▁terr	-6778
▁tort	-6779
energy	-6780
rading	-6781
▁Czech	-6782
▁draft	-6783
▁inside	-6784
▁resent	-6785
▁upward	-6786
▁Finance	-6787
▁complain	-6788
▁upcoming	-6789
▁accountable	-6790
▁represented	-6791
ught	-6792
party	-6793
▁Coop	-6794
▁Scot	-6795
▁rock	-6796
▁sequ	-6797
▁signal	-6798
▁spring	-6799
▁adopting	-6800
▁autonomy	-6801
▁resolved	-6802
▁awareness	-6803
▁prevented	-6804
▁electorate	-6805
▁problematic	-6806
bur	-6807
cel	-6808
▁4%	-6809
outs	-6810
reen	-6811
rium	-6812
▁Rel	-6813
▁dys	-6814
▁slo	-6815
▁une	-6816
▁upg	-6817
▁pand	-6818
usalem	-6819
▁Earth	-6820
▁Kurds	-6821
▁sites	-6822
astrous	-6823
sharing	-6824
▁Strate	-6825
▁intense	-6826
▁Bernanke	-6827
▁Business	-6828
▁Democracy	-6829
▁competing	-6830
▁neighborhood	-6831
▁communications	-6832
eds	-6833
iev	-6834
▁Zh	-6835
ctic	-6836
nedy	-6837
rand	-6838
rict	-6839
▁cop	-6840
▁hed	-6841
▁los	-6842
▁unit	-6843
Palest	-6844
owered	-6845
uction	-6846
▁Frank	-6847
▁chose	-6848
▁Corpor	-6849
▁Having	-6850
▁asking	-6851
▁lowest	-6852
▁champion	-6853
▁volatile	-6854
▁Keynesian	-6855
▁communism	-6856
▁Industrial	-6857
▁disastrous	-6858
▁politician	-6859
▁respectively	-6860
▁controversial	-6861
icon	-6862
orsi	-6863
▁Aff	-6864
▁Rou	-6865
erson	-6866
eting	-6867
hered	-6868
▁halt	-6869
▁rent	-6870
▁2005,	-6871
▁enlar	-6872
▁spill	-6873
▁Center	-6874
▁advert	-6875
▁erupted	-6876
▁pursuit	-6877
▁constant	-6878
▁reversed	-6879
▁attitudes	-6880
▁extremism	-6881
▁Foundation	-6882
▁acceptable	-6883
▁expression	-6884
lu	-6885
▁[	-6886
▁eg	-6887
atri	-6888
such	-6889
▁neo	-6890
osure	-6891
▁Road	-6892
econom	-6893
invest	-6894
othing	-6895
▁laure	-6896
▁valid	-6897
▁begins	-6898
▁unrest	-6899
▁Kennedy	-6900
▁convers	-6901
▁release	-6902
▁inherent	-6903
▁persuade	-6904
▁disasters	-6905
▁extensive	-6906
▁threshold	-6907
▁complement	-6908
▁monitoring	-6909
▁coordinated	-6910
▁eliminating	-6911
▁legislative	-6912
▁concentrated	-6913
▁fundamentals	-6914
inej	-6915
omed	-6916
▁cry	-6917
▁kil	-6918
▁ranks	-6919
ultural	-6920
▁forest	-6921
building	-6922
lessness	-6923
▁Capital	-6924
struction	-6925
▁generous	-6926
▁campaigns	-6927
▁rebalancing	-6928
▁Year	-6929
▁plays	-6930
▁roads	-6931
▁remote	-6932
▁struck	-6933
▁Hillary	-6934
▁concess	-6935
▁visible	-6936
▁Ukrainian	-6937
▁alliances	-6938
▁reinforce	-6939
CA	-6940
▁,	-6941
▁sets	-6942
▁crops	-6943
▁shale	-6944
▁looked	-6945
▁fashion	-6946
▁Scotland	-6947
▁adoption	-6948
▁dynamics	-6949
▁geograph	-6950
▁bit	-6951
▁Shar	-6952
ighter	-6953
racted	-6954
▁Morsi	-6955
▁align	-6956
▁memory	-6957
▁arguing	-6958
▁assault	-6959
▁cabinet	-6960
▁chances	-6961
▁machine	-6962
▁dominate	-6963
▁supports	-6964
▁Jerusalem	-6965
▁reporting	-6966
▁insecurity	-6967
▁reinforced	-6968
▁foundations	-6969
ko	-6970
arr	-6971
imp	-6972
▁BR	-6973
ounced	-6974
▁brief	-6975
▁toxic	-6976
▁Norway	-6977
▁pessim	-6978
▁stated	-6979
▁Denmark	-6980
▁testing	-6981
▁conclude	-6982
▁famously	-6983
▁Authority	-6984
▁inability	-6985
▁mortgages	-6986
▁recognizing	-6987
▁collaboration	-6988
▁modernization	-6989
uan	-6990
qual	-6991
▁Dar	-6992
▁code	-6993
▁heat	-6994
▁tens	-6995
inejad	-6996
thodox	-6997
▁Ebola	-6998
▁Where	-6999
▁consc	-7000
▁dereg	-7001
▁facto	-7002
▁invent	-7003
▁anxiety	-7004
▁triumph	-7005
▁purposes	-7006
▁dysfunction	-7007
▁dog	-7008
redit	-7009
unity	-7010
▁blue	-7011
▁dign	-7012
▁feas	-7013
▁input	-7014
oration	-7015
▁select	-7016
▁cheaper	-7017
illennium	-7018
▁colonial	-7019
▁explains	-7020
▁divisions	-7021
▁Government	-7022
▁sufficiently	-7023
ima	-7024
acco	-7025
ibet	-7026
archy	-7027
inger	-7028
itzer	-7029
▁door	-7030
▁veto	-7031
alling	-7032
▁blind	-7033
▁innoc	-7034
▁novel	-7035
▁calcul	-7036
▁exists	-7037
▁richer	-7038
▁sooner	-7039
▁details	-7040
▁disturb	-7041
▁numerous	-7042
▁sectarian	-7043
▁interested	-7044
▁announcement	-7045
oul	-7046
hand	-7047
▁Cur	-7048
▁sem	-7049
▁gaps	-7050
redict	-7051
▁plaus	-7052
▁stark	-7053
▁albeit	-7054
▁ancient	-7055
▁citizen	-7056
▁immense	-7057
▁shifted	-7058
astrophic	-7059
▁Hollande	-7060
▁balances	-7061
▁claiming	-7062
▁affecting	-7063
▁optimistic	-7064
II	-7065
def	-7066
osm	-7067
▁Qu	-7068
rors	-7069
▁Army	-7070
▁vary	-7071
ocrats	-7072
▁Ahmad	-7073
▁Medic	-7074
▁cease	-7075
▁unequ	-7076
▁fellow	-7077
▁paradox	-7078
▁periods	-7079
▁deepening	-7080
▁predictable	-7081
HI	-7082
cor	-7083
ika	-7084
▁Bh	-7085
fund	-7086
▁Kar	-7087
▁arm	-7088
ollar	-7089
▁luck	-7090
▁1930’	-7091
▁ultra	-7092
▁volume	-7093
▁preserv	-7094
▁disinteg	-7095
▁optimism	-7096
▁software	-7097
controlled	-7098
▁desperate	-7099
▁existence	-7100
▁safeguard	-7101
▁likelihood	-7102
▁contraction	-7103
ils	-7104
sun	-7105
athy	-7106
mony	-7107
ocracy	-7108
▁2010.	-7109
▁arise	-7110
▁remove	-7111
▁student	-7112
▁familiar	-7113
▁indirect	-7114
▁prosecut	-7115
▁Islamists	-7116
▁accession	-7117
AV	-7118
ELEY	-7119
iful	-7120
rong	-7121
▁Fat	-7122
▁Rec	-7123
▁ang	-7124
▁eld	-7125
KELEY	-7126
▁2017	-7127
▁symp	-7128
holder	-7129
ioxide	-7130
▁gross	-7131
▁driver	-7132
ilibrium	-7133
▁skilled	-7134
itzerland	-7135
▁Whatever	-7136
▁division	-7137
▁observed	-7138
▁justified	-7139
▁shortfall	-7140
▁livelihood	-7141
▁importantly	-7142
▁achievements	-7143
ES	-7144
NP	-7145
bod	-7146
jud	-7147
iary	-7148
▁Ren	-7149
▁wal	-7150
▁1930	-7151
▁fasc	-7152
icians	-7153
▁Tibet	-7154
▁arsen	-7155
▁giant	-7156
▁BERKELEY	-7157
▁convince	-7158
▁directed	-7159
▁pensions	-7160
▁superior	-7161
▁integrity	-7162
▁introduce	-7163
▁propaganda	-7164
▁Switzerland	-7165
▁arrangement	-7166
6.	-7167
ois	-7168
uls	-7169
▁5.	-7170
atism	-7171
▁Sand	-7172
▁subm	-7173
▁Reform	-7174
▁headed	-7175
▁incumb	-7176
▁steady	-7177
▁lenders	-7178
▁criteria	-7179
▁doctrine	-7180
▁aspirations	-7181
asp	-7182
new	-7183
▁24	-7184
▁Rw	-7185
uris	-7186
usse	-7187
asive	-7188
advant	-7189
backed	-7190
▁corre	-7191
▁Serbia	-7192
▁empire	-7193
▁inject	-7194
▁judges	-7195
▁ratios	-7196
ollowing	-7197
▁peoples	-7198
▁tactics	-7199
▁embraced	-7200
▁treaties	-7201
▁procedures	-7202
▁considerations	-7203
LO	-7204
hr	-7205
▁(1	-7206
band	-7207
cend	-7208
▁Che	-7209
▁2003	-7210
▁Assoc	-7211
▁Green	-7212
▁Popul	-7213
aughter	-7214
uration	-7215
▁classes	-7216
▁Chairman	-7217
▁advisers	-7218
▁channels	-7219
▁judgment	-7220
▁realized	-7221
▁attempted	-7222
▁destructive	-7223
Cs	-7224
ooth	-7225
▁Ann	-7226
▁Emp	-7227
▁dub	-7228
▁yen	-7229
epend	-7230
▁fine	-7231
necess	-7232
▁enrich	-7233
▁honest	-7234
▁waiting	-7235
▁alongside	-7236
▁interview	-7237
▁mortality	-7238
▁delivering	-7239
▁weaknesses	-7240
ef	-7241
hy	-7242
ky	-7243
kin	-7244
ding	-7245
uity	-7246
▁PRI	-7247
▁hub	-7248
▁Supp	-7249
▁deny	-7250
▁Arabs	-7251
▁abund	-7252
▁haven	-7253
▁lived	-7254
▁flawed	-7255
▁Already	-7256
▁neutral	-7257
▁accurate	-7258
▁discussed	-7259
▁sensitive	-7260
▁declaration	-7261
▁catastrophic	-7262
zo	-7263
kov	-7264
alog	-7265
ixon	-7266
▁NGO	-7267
▁San	-7268
ophob	-7269
▁Emer	-7270
▁dele	-7271
▁toll	-7272
ailing	-7273
icking	-7274
▁Moroc	-7275
▁alien	-7276
▁brand	-7277
▁cohes	-7278
forward	-7279
iations	-7280
ilitary	-7281
▁Office	-7282
▁career	-7283
▁flight	-7284
▁overth	-7285
▁sacrif	-7286
election	-7287
▁Indians	-7288
▁Twitter	-7289
▁relying	-7290
▁shortages	-7291
▁commodities	-7292
ikh	-7293
lav	-7294
ply	-7295
▁500	-7296
▁Out	-7297
▁eye	-7298
ernal	-7299
ishes	-7300
polit	-7301
▁deem	-7302
▁Women	-7303
▁genoc	-7304
▁slowed	-7305
▁dilemma	-7306
▁accident	-7307
uate	-7308
▁ble	-7309
▁hom	-7310
▁pul	-7311
▁2001	-7312
▁Somet	-7313
▁finds	-7314
▁grave	-7315
▁route	-7316
▁revive	-7317
idelines	-7318
▁reduces	-7319
▁Africans	-7320
▁foremost	-7321
▁mobilize	-7322
▁communist	-7323
▁realities	-7324
▁components	-7325
▁Cooperation	-7326
▁constructive	-7327
▁historically	-7328
▁Hu	-7329
aunt	-7330
mmet	-7331
olar	-7332
▁Adm	-7333
▁pal	-7334
under	-7335
▁coun	-7336
▁jump	-7337
▁2006,	-7338
▁guard	-7339
▁hoped	-7340
▁plumm	-7341
government	-7342
▁disadvant	-7343
▁philosoph	-7344
▁convergence	-7345
no	-7346
exp	-7347
zed	-7348
cure	-7349
▁tons	-7350
icated	-7351
incing	-7352
reform	-7353
▁Worse	-7354
▁enfor	-7355
adjusted	-7356
▁bolster	-7357
▁regular	-7358
▁Alliance	-7359
▁enhanced	-7360
▁entering	-7361
▁findings	-7362
▁steadily	-7363
▁regularly	-7364
mor	-7365
sey	-7366
bted	-7367
▁205	-7368
enous	-7369
▁cope	-7370
accept	-7371
▁Greens	-7372
▁School	-7373
▁formed	-7374
▁traject	-7375
▁demanded	-7376
▁marriage	-7377
▁principal	-7378
▁rejection	-7379
▁resilient	-7380
OEs	-7381
▁IP	-7382
arat	-7383
coni	-7384
▁fit	-7385
ected	-7386
night	-7387
▁Balk	-7388
urable	-7389
▁annex	-7390
▁Summit	-7391
▁chosen	-7392
▁circle	-7393
▁denied	-7394
currency	-7395
▁deserve	-7396
▁enables	-7397
▁younger	-7398
▁exposure	-7399
▁proclaim	-7400
▁produces	-7401
▁challenged	-7402
▁concessions	-7403
▁accelerating	-7404
▁Lo	-7405
▁Tay	-7406
▁unus	-7407
▁Fatah	-7408
▁ocean	-7409
▁quiet	-7410
▁remed	-7411
▁scarce	-7412
▁pricing	-7413
▁Ethiopia	-7414
▁committee	-7415
▁cooperate	-7416
▁providers	-7417
▁receiving	-7418
▁competitors	-7419
▁devaluation	-7420
▁existential	-7421
▁traditionally	-7422
SA	-7423
ivot	-7424
▁SDR	-7425
▁cas	-7426
erman	-7427
▁love	-7428
active	-7429
ipping	-7430
▁Fried	-7431
▁donor	-7432
▁train	-7433
▁adding	-7434
▁funded	-7435
▁aspects	-7436
▁binding	-7437
▁overwhelm	-7438
▁difficulty	-7439
▁bureaucracy	-7440
▁differently	-7441
▁surrounding	-7442
▁temperatures	-7443
amin	-7444
prom	-7445
prus	-7446
▁11,	-7447
▁bid	-7448
▁web	-7449
ivals	-7450
▁Bosn	-7451
▁Park	-7452
orship	-7453
▁Burma	-7454
▁exempl	-7455
▁somehow	-7456
▁suspect	-7457
▁teachers	-7458
▁comparison	-7459
▁adjustments	-7460
▁professionals	-7461
akh	-7462
hman	-7463
izon	-7464
left	-7465
supp	-7466
tech	-7467
▁Cor	-7468
hetic	-7469
▁Jean	-7470
▁Nazi	-7471
▁mism	-7472
▁plun	-7473
▁tech	-7474
▁entry	-7475
▁retal	-7476
▁virus	-7477
growing	-7478
largest	-7479
▁premium	-7480
▁indebted	-7481
▁tendency	-7482
▁unnecess	-7483
▁restoring	-7484
▁ineffective	-7485
▁predecessor	-7486
▁investigation	-7487
hard	-7488
▁isn	-7489
scape	-7490
ushar	-7491
▁abol	-7492
▁depr	-7493
▁lobb	-7494
▁tsun	-7495
gments	-7496
▁resur	-7497
▁Cyprus	-7498
▁contag	-7499
▁endors	-7500
▁joining	-7501
▁delivery	-7502
▁judicial	-7503
▁laureate	-7504
▁worrying	-7505
▁definition	-7506
▁eliminated	-7507
▁prevention	-7508
▁constrained	-7509
▁inflationary	-7510
bed	-7511
sur	-7512
itch	-7513
olas	-7514
▁Dra	-7515
▁Ult	-7516
▁exh	-7517
▁Alex	-7518
rained	-7519
▁2017,	-7520
▁Nixon	-7521
essions	-7522
istical	-7523
▁cataly	-7524
▁doubts	-7525
▁namely	-7526
quarters	-7527
usharraf	-7528
▁talking	-7529
▁tension	-7530
▁feasible	-7531
▁desirable	-7532
▁popularity	-7533
▁recognizes	-7534
▁assumptions	-7535
▁nonetheless	-7536
▁contemporary	-7537
▁reconciliation	-7538
ón	-7539
rav	-7540
ums	-7541
▁70	-7542
ache	-7543
enei	-7544
▁Mil	-7545
▁Sur	-7546
▁Tax	-7547
orted	-7548
▁cold	-7549
▁melt	-7550
▁roll	-7551
amenei	-7552
▁camps	-7553
▁honor	-7554
▁tends	-7555
▁forget	-7556
▁patent	-7557
▁Whereas	-7558
▁nowhere	-7559
▁dynamism	-7560
▁investor	-7561
▁meantime	-7562
▁computers	-7563
▁hospitals	-7564
▁naturally	-7565
▁prevailing	-7566
▁antibiotics	-7567
▁comparative	-7568
▁predecessors	-7569
▁significance	-7570
▁understandable	-7571
oo	-7572
cul	-7573
ipp	-7574
len	-7575
▁DEL	-7576
▁Wal	-7577
▁Xia	-7578
urisd	-7579
▁Fran	-7580
▁Mich	-7581
imated	-7582
▁Alger	-7583
▁merit	-7584
▁Berlus	-7585
▁fairly	-7586
▁refuse	-7587
▁stakes	-7588
cription	-7589
▁Austria	-7590
▁Somalia	-7591
▁pledged	-7592
▁schemes	-7593
▁Khamenei	-7594
▁newspaper	-7595
iodiversity	-7596
▁altogether	-7597
▁experiences	-7598
▁underpinned	-7599
▁7.	-7600
ocal	-7601
onds	-7602
▁DELHI	-7603
▁James	-7604
▁proud	-7605
▁rigid	-7606
▁Crisis	-7607
▁League	-7608
▁fought	-7609
▁telling	-7610
▁typical	-7611
▁attitude	-7612
▁lowering	-7613
▁disappear	-7614
▁Berlusconi	-7615
▁explicitly	-7616
▁cooperative	-7617
▁interdepend	-7618
▁representative	-7619
ham	-7620
educ	-7621
▁Exp	-7622
▁glo	-7623
▁fool	-7624
▁pull	-7625
iciary	-7626
liance	-7627
▁2013.	-7628
▁insol	-7629
▁plural	-7630
▁seeing	-7631
▁deliber	-7632
▁advocate	-7633
▁criticized	-7634
▁territories	-7635
▁destabilizing	-7636
HO	-7637
oe	-7638
▁Inf	-7639
▁fan	-7640
▁twe	-7641
arked	-7642
▁trem	-7643
iative	-7644
▁concert	-7645
▁forests	-7646
▁mutually	-7647
▁accounted	-7648
▁preferred	-7649
▁strongest	-7650
▁discovered	-7651
▁equilibrium	-7652
▁Conservative	-7653
DI	-7654
OS	-7655
igm	-7656
ras	-7657
umn	-7658
gers	-7659
▁map	-7660
astic	-7661
▁Labor	-7662
▁crack	-7663
▁grant	-7664
▁judge	-7665
▁Making	-7666
▁Romney	-7667
▁blamed	-7668
▁disarm	-7669
▁jurisd	-7670
▁precip	-7671
▁street	-7672
▁discont	-7673
▁Thatcher	-7674
▁outbreak	-7675
▁Peninsula	-7676
▁Ahmadinejad	-7677
Sem	-7678
ghi	-7679
spe	-7680
berg	-7681
brid	-7682
wind	-7683
inter	-7684
▁cens	-7685
▁Irish	-7686
▁genes	-7687
▁harsh	-7688
▁sight	-7689
▁degrad	-7690
▁losers	-7691
▁relies	-7692
▁stream	-7693
▁Economy	-7694
▁Rouhani	-7695
▁hostile	-7696
▁coherent	-7697
▁overseas	-7698
▁Musharraf	-7699
▁followers	-7700
▁emphasized	-7701
▁straightforward	-7702
EI	-7703
ael	-7704
tor	-7705
▁DNA	-7706
viron	-7707
ildren	-7708
▁Husse	-7709
▁Ronald	-7710
▁earthqu	-7711
▁serving	-7712
▁isolated	-7713
▁unaccept	-7714
▁forecasts	-7715
▁Millennium	-7716
▁appreciate	-7717
▁enterprise	-7718
▁exacerbated	-7719
▁urbanization	-7720
▁concentration	-7721
IF	-7722
cu	-7723
ek	-7724
uma	-7725
▁AM	-7726
▁bip	-7727
▁tit	-7728
▁Belg	-7729
▁panic	-7730
ceptions	-7731
▁acquire	-7732
▁closing	-7733
▁dignity	-7734
▁distant	-7735
▁follows	-7736
▁refusal	-7737
▁surpass	-7738
▁implying	-7739
▁Otherwise	-7740
▁Recession	-7741
▁automation	-7742
▁Association	-7743
CD	-7744
irm	-7745
▁Air	-7746
vered	-7747
▁odds	-7748
▁uphe	-7749
iating	-7750
▁2003,	-7751
▁broke	-7752
▁seize	-7753
▁Lehman	-7754
▁advent	-7755
▁assist	-7756
▁worker	-7757
▁Richard	-7758
▁dismant	-7759
▁ranging	-7760
▁involves	-7761
▁unstable	-7762
▁plausible	-7763
▁pragmatic	-7764
▁disruption	-7765
▁responding	-7766
▁desperately	-7767
."	-7768
EU	-7769
itz	-7770
mal	-7771
anim	-7772
▁Day	-7773
liers	-7774
▁Marx	-7775
▁vice	-7776
▁Gates	-7777
▁deriv	-7778
▁elder	-7779
▁ignor	-7780
▁Draghi	-7781
▁pledge	-7782
▁shaped	-7783
▁Program	-7784
▁frequent	-7785
▁imported	-7786
▁manifest	-7787
▁scholars	-7788
▁expansionary	-7789
▁introduction	-7790
CT	-7791
It	-7792
ny	-7793
asy	-7794
zing	-7795
otten	-7796
riend	-7797
▁Food	-7798
▁lift	-7799
▁note	-7800
▁rank	-7801
▁turb	-7802
▁2012.	-7803
▁bills	-7804
▁Rwanda	-7805
▁analog	-7806
ominated	-7807
▁whereby	-7808
▁declines	-7809
▁informed	-7810
▁inspired	-7811
▁judiciary	-7812
▁selection	-7813
▁specifically	-7814
▁27	-7815
aked	-7816
uled	-7817
tical	-7818
▁Decl	-7819
▁Next	-7820
▁bench	-7821
▁fluct	-7822
▁animal	-7823
▁recall	-7824
▁resign	-7825
▁Koreans	-7826
▁Liberal	-7827
▁customs	-7828
▁suicide	-7829
▁Brothers	-7830
▁employed	-7831
▁recorded	-7832
▁securing	-7833
▁premature	-7834
▁Ultimately	-7835
▁collateral	-7836
▁constitute	-7837
▁accelerated	-7838
JP	-7839
des	-7840
imm	-7841
▁22	-7842
▁23	-7843
▁pu	-7844
▁Ang	-7845
print	-7846
global	-7847
▁Elect	-7848
▁abuses	-7849
▁adults	-7850
▁obtain	-7851
▁Hussein	-7852
▁socially	-7853
▁Following	-7854
▁emphasize	-7855
▁resolving	-7856
▁suggesting	-7857
▁livelihoods	-7858
▁TV	-7859
inst	-7860
oler	-7861
▁Ali	-7862
▁Jun	-7863
▁Ter	-7864
▁mos	-7865
▁Bret	-7866
▁breat	-7867
▁coinc	-7868
▁pound	-7869
▁safer	-7870
▁tasks	-7871
▁dispos	-7872
▁Morocco	-7873
▁enlarge	-7874
▁focuses	-7875
▁creditor	-7876
▁democrat	-7877
▁holdings	-7878
productive	-7879
▁medicines	-7880
▁preparing	-7881
▁unexpected	-7882
▁acknowledged	-7883
▁applications	-7884
ups	-7885
irty	-7886
▁bed	-7887
▁gar	-7888
usive	-7889
▁card	-7890
▁film	-7891
▁flag	-7892
erties	-7893
▁amend	-7894
▁craft	-7895
▁zones	-7896
▁inflic	-7897
▁serves	-7898
▁Several	-7899
▁islands	-7900
▁Governor	-7901
▁ambition	-7902
▁minimize	-7903
▁returning	-7904
▁Economists	-7905
▁acceptance	-7906
▁bargaining	-7907
▁confronted	-7908
▁revolutions	-7909
▁accumulation	-7910
well	-7911
▁Pre	-7912
▁ing	-7913
ounce	-7914
rutin	-7915
▁1960	-7916
▁evil	-7917
▁fish	-7918
▁outf	-7919
▁outs	-7920
▁spot	-7921
Israel	-7922
atible	-7923
▁assass	-7924
▁earned	-7925
▁exploit	-7926
▁implied	-7927
mentation	-7928
▁fraction	-7929
▁infectious	-7930
▁treatments	-7931
▁preferences	-7932
▁supervision	-7933
▁determination	-7934
▁administrative	-7935
▁sn	-7936
-199	-7937
erry	-7938
fold	-7939
▁cyn	-7940
itate	-7941
▁Chen	-7942
▁bias	-7943
▁diff	-7944
▁Ocean	-7945
▁Woods	-7946
▁pride	-7947
▁upper	-7948
▁median	-7949
▁scrutin	-7950
▁unpopul	-7951
▁vicious	-7952
▁incorpor	-7953
▁shortage	-7954
investment	-7955
▁extremist	-7956
▁initiated	-7957
▁integrate	-7958
▁trajectory	-7959
▁redistribution	-7960
Th	-7961
ONG	-7962
cap	-7963
tic	-7964
▁7%	-7965
aise	-7966
rill	-7967
wage	-7968
▁End	-7969
▁kid	-7970
▁pra	-7971
itime	-7972
▁flat	-7973
▁hedge	-7974
ounding	-7975
▁System	-7976
▁burdens	-7977
▁devices	-7978
▁devoted	-7979
▁dioxide	-7980
▁favored	-7981
▁scandal	-7982
ideration	-7983
▁obstacle	-7984
▁republic	-7985
democratic	-7986
industrial	-7987
▁defending	-7988
▁landscape	-7989
▁precedent	-7990
▁highlighted	-7991
▁commentators	-7992
80	-7993
BOC	-7994
▁6%	-7995
▁1.5	-7996
▁Don	-7997
▁Fut	-7998
▁gam	-7999
▁inj	-8000
elect	-8001
▁Serv	-8002
▁cart	-8003
▁flee	-8004
▁laid	-8005
▁suit	-8006
apping	-8007
manuel	-8008
▁Prize	-8009
▁navig	-8010
▁rally	-8011
▁vigor	-8012
▁Simply	-8013
▁massac	-8014
▁player	-8015
▁voices	-8016
▁Environ	-8017
▁affects	-8018
▁aggress	-8019
▁privacy	-8020
▁ratings	-8021
▁nutrition	-8022
▁disruptive	-8023
RID	-8024
van	-8025
▁rac	-8026
Japan	-8027
think	-8028
▁cosm	-8029
▁duty	-8030
▁2011.	-8031
▁2014.	-8032
▁waves	-8033
society	-8034
▁Summers	-8035
▁revival	-8036
▁epidemic	-8037
▁governed	-8038
▁governor	-8039
▁complexity	-8040
▁frameworks	-8041
▁intentions	-8042
▁temperature	-8043
▁stakeholders	-8044
▁consideration	-8045
▁Ts	-8046
offs	-8047
velt	-8048
▁hes	-8049
▁mun	-8050
aping	-8051
armed	-8052
ormal	-8053
▁Real	-8054
▁mood	-8055
General	-8056
osevelt	-8057
▁Fourth	-8058
▁Shinzo	-8059
▁fortun	-8060
▁drivers	-8061
▁enjoyed	-8062
▁founded	-8063
▁neglect	-8064
▁shaping	-8065
▁cyclical	-8066
▁unpredict	-8067
▁protesters	-8068
▁situations	-8069
▁interesting	-8070
▁transatlantic	-8071
▁8%	-8072
ords	-8073
orse	-8074
▁MAD	-8075
▁lic	-8076
▁rub	-8077
edded	-8078
olved	-8079
▁erod	-8080
taking	-8081
▁brink	-8082
▁sheet	-8083
▁freely	-8084
▁prompt	-8085
▁versus	-8086
▁degrees	-8087
▁doubled	-8088
▁lacking	-8089
▁surface	-8090
▁captured	-8091
▁describe	-8092
▁Economics	-8093
▁Greenspan	-8094
▁confirmed	-8095
▁headlines	-8096
▁constantly	-8097
▁reflecting	-8098
▁violations	-8099
▁interpretation	-8100
vey	-8101
▁God	-8102
▁Lar	-8103
▁Tar	-8104
▁bab	-8105
▁tob	-8106
added	-8107
▁amid	-8108
▁nurt	-8109
▁incur	-8110
▁patri	-8111
▁polio	-8112
▁roles	-8113
▁stret	-8114
▁stuck	-8115
enomics	-8116
▁advers	-8117
▁cycles	-8118
▁tempor	-8119
▁contact	-8120
▁mothers	-8121
▁rebuild	-8122
▁tobacco	-8123
▁deployed	-8124
▁genocide	-8125
▁meltdown	-8126
▁overlook	-8127
▁Roosevelt	-8128
▁indicates	-8129
▁expectancy	-8130
▁settlements	-8131
NCE	-8132
etty	-8133
hors	-8134
need	-8135
▁Dire	-8136
▁spok	-8137
NCETON	-8138
ispens	-8139
orious	-8140
▁Mario	-8141
▁alleg	-8142
▁fault	-8143
▁incon	-8144
▁lands	-8145
▁style	-8146
renched	-8147
▁bought	-8148
▁brother	-8149
▁complac	-8150
▁exchang	-8151
▁retreat	-8152
▁richest	-8153
▁tourism	-8154
▁director	-8155
▁engaging	-8156
▁parallel	-8157
▁PRINCETON	-8158
▁benchmark	-8159
▁diplomats	-8160
▁successes	-8161
▁highlights	-8162
▁officially	-8163
▁negotiation	-8164
▁biodiversity	-8165
▁civilization	-8166
iat	-8167
voc	-8168
▁(“	-8169
▁Gü	-8170
▁id	-8171
aval	-8172
omic	-8173
alley	-8174
dated	-8175
inces	-8176
isher	-8177
orage	-8178
organ	-8179
ullah	-8180
▁Mahm	-8181
▁enjo	-8182
▁pays	-8183
▁2004,	-8184
▁Boliv	-8185
▁Kyoto	-8186
▁moder	-8187
▁bitter	-8188
▁Bretton	-8189
▁looming	-8190
▁arguably	-8191
▁defeated	-8192
▁innocent	-8193
▁buildings	-8194
LIN	-8195
▁eat	-8196
eterm	-8197
icted	-8198
ranch	-8199
▁Iron	-8200
▁anch	-8201
▁leng	-8202
▁myth	-8203
▁Doing	-8204
▁fraud	-8205
▁split	-8206
▁Cambod	-8207
▁Report	-8208
▁deemed	-8209
▁portray	-8210
▁sending	-8211
▁unknown	-8212
▁winners	-8213
▁officers	-8214
▁occurring	-8215
▁diminished	-8216
▁ecosystems	-8217
▁newspapers	-8218
▁protections	-8219
▁deregulation	-8220
-3	-8221
AL	-8222
yc	-8223
ket	-8224
tar	-8225
▁Ba	-8226
inal	-8227
▁plus	-8228
▁piece	-8229
▁trick	-8230
▁Within	-8231
▁checks	-8232
▁impris	-8233
▁unfold	-8234
▁classic	-8235
▁tsunami	-8236
▁founding	-8237
▁accepting	-8238
▁exclusively	-8239
eu	-8240
odd	-8241
▁35	-8242
▁WW	-8243
airo	-8244
ford	-8245
▁Sad	-8246
▁Vol	-8247
▁bes	-8248
▁raw	-8249
iques	-8250
trans	-8251
▁Vice	-8252
▁curt	-8253
▁olig	-8254
▁sees	-8255
▁tail	-8256
icipal	-8257
▁flour	-8258
▁hyper	-8259
▁utter	-8260
lements	-8261
▁MADRID	-8262
▁approx	-8263
▁applies	-8264
▁elderly	-8265
▁liberty	-8266
▁signals	-8267
▁visited	-8268
▁eventual	-8269
▁intermed	-8270
▁occupied	-8271
▁Initiative	-8272
▁allocation	-8273
▁frustration	-8274
cup	-8275
high	-8276
▁Squ	-8277
▁Bund	-8278
▁Peru	-8279
▁mira	-8280
▁rend	-8281
idance	-8282
iketty	-8283
▁Franç	-8284
▁anemic	-8285
▁feared	-8286
▁permit	-8287
▁smooth	-8288
▁college	-8289
▁assuming	-8290
▁restored	-8291
▁widening	-8292
▁appointed	-8293
▁emotional	-8294
▁irrespons	-8295
▁accomplish	-8296
▁convincing	-8297
▁foreseeable	-8298
▁polarization	-8299
-7	-8300
AP	-8301
▁‘	-8302
iol	-8303
ker	-8304
lov	-8305
atal	-8306
▁Bre	-8307
▁Oil	-8308
▁haz	-8309
Semit	-8310
▁Mont	-8311
▁Pers	-8312
▁Apple	-8313
▁Chief	-8314
▁mixed	-8315
▁Minist	-8316
▁houses	-8317
▁article	-8318
▁charged	-8319
▁Emerging	-8320
▁clinical	-8321
▁cultures	-8322
▁philosop	-8323
ifications	-8324
▁contained	-8325
▁factories	-8326
▁hostility	-8327
▁portfolio	-8328
UN	-8329
icul	-8330
ille	-8331
ander	-8332
▁item	-8333
▁pump	-8334
▁conce	-8335
▁uncom	-8336
viously	-8337
▁firmly	-8338
▁Mahmoud	-8339
▁Piketty	-8340
▁harmful	-8341
▁tremend	-8342
▁enduring	-8343
▁functions	-8344
▁happiness	-8345
▁undertake	-8346
▁undermines	-8347
”:	-8348
ago	-8349
aug	-8350
esh	-8351
uum	-8352
cked	-8353
ropri	-8354
sheet	-8355
regard	-8356
▁griev	-8357
▁humil	-8358
▁stems	-8359
leading	-8360
▁solely	-8361
▁consume	-8362
▁monitor	-8363
▁writing	-8364
▁arrested	-8365
▁detailed	-8366
▁speaking	-8367
▁troubled	-8368
▁appealing	-8369
▁magnitude	-8370
▁scenarios	-8371
▁aggression	-8372
▁temporarily	-8373
GB	-8374
án	-8375
bar	-8376
▁Few	-8377
▁Sin	-8378
▁bon	-8379
ester	-8380
henko	-8381
▁buff	-8382
▁feat	-8383
▁grasp	-8384
▁phone	-8385
▁teams	-8386
▁images	-8387
▁provoc	-8388
cyclical	-8389
▁attacked	-8390
▁maximize	-8391
▁distributed	-8392
▁operational	-8393
▁speculative	-8394
▁stabilizing	-8395
▁architecture	-8396
▁availability	-8397
OK	-8398
▁.	-8399
USS	-8400
▁€1	-8401
▁Cup	-8402
▁Lis	-8403
▁hat	-8404
▁ost	-8405
▁yes	-8406
aning	-8407
itely	-8408
oping	-8409
▁Long	-8410
▁club	-8411
▁meat	-8412
▁sake	-8413
▁1960’	-8414
▁alive	-8415
▁depth	-8416
▁drove	-8417
comings	-8418
▁agents	-8419
▁corner	-8420
▁letter	-8421
▁relent	-8422
▁winner	-8423
▁exhaust	-8424
▁landing	-8425
▁Director	-8426
▁fairness	-8427
▁ministry	-8428
Palestinian	-8429
▁compensate	-8430
▁entrenched	-8431
▁speculation	-8432
OM	-8433
inct	-8434
▁ven	-8435
anium	-8436
front	-8437
▁Good	-8438
▁Sino	-8439
▁topp	-8440
▁vide	-8441
▁2009.	-8442
▁Stand	-8443
▁revel	-8444
▁Valley	-8445
▁inputs	-8446
ologists	-8447
▁History	-8448
▁Neither	-8449
▁corresp	-8450
▁suspend	-8451
▁entities	-8452
▁hegemony	-8453
▁tradable	-8454
▁contagion	-8455
▁municipal	-8456
▁globalized	-8457
▁instrument	-8458
▁transaction	-8459
▁shortcomings	-8460
▁transmission	-8461
sum	-8462
▁Sa	-8463
▁Ref	-8464
▁Sol	-8465
aired	-8466
▁Jose	-8467
▁tiny	-8468
guided	-8469
control	-8470
▁master	-8471
▁occurs	-8472
▁regain	-8473
▁soared	-8474
communic	-8475
▁arrived	-8476
▁consent	-8477
▁declare	-8478
▁forever	-8479
▁trained	-8480
▁Catholic	-8481
▁terrible	-8482
▁irrelevant	-8483
▁excessively	-8484
▁requirement	-8485
▁overwhelmingly	-8486
-8	-8487
imal	-8488
ione	-8489
riad	-8490
step	-8491
▁cum	-8492
prime	-8493
▁Does	-8494
▁gene	-8495
▁pact	-8496
▁site	-8497
▁succ	-8498
▁toug	-8499
▁wife	-8500
▁2030.	-8501
▁Micro	-8502
▁admit	-8503
▁flaws	-8504
▁roots	-8505
▁rivals	-8506
▁answers	-8507
▁conclus	-8508
▁fishing	-8509
▁lawyers	-8510
▁legally	-8511
▁cohesion	-8512
▁document	-8513
▁maritime	-8514
ispensable	-8515
performing	-8516
▁prevailed	-8517
▁deployment	-8518
▁conservation	-8519
▁deleveraging	-8520
▁unacceptable	-8521
EM	-8522
ELS	-8523
▁Ev	-8524
conf	-8525
room	-8526
▁300	-8527
▁Est	-8528
▁lux	-8529
▁sho	-8530
izers	-8531
vency	-8532
▁Post	-8533
▁Wolf	-8534
▁diet	-8535
morrow	-8536
▁award	-8537
▁bridge	-8538
▁contest	-8539
▁encount	-8540
▁monopol	-8541
▁request	-8542
▁François	-8543
▁guidance	-8544
▁tomorrow	-8545
▁advancing	-8546
▁prisoners	-8547
▁secretary	-8548
▁disintegration	-8549
vy	-8550
oha	-8551
ych	-8552
anes	-8553
made	-8554
▁Sam	-8555
▁Vik	-8556
▁asy	-8557
▁exec	-8558
▁ramp	-8559
▁soil	-8560
▁stif	-8561
ieties	-8562
▁Holoc	-8563
▁immun	-8564
▁blocked	-8565
▁notable	-8566
▁uranium	-8567
▁warfare	-8568
▁endorsed	-8569
▁liberals	-8570
▁regulate	-8571
▁reversal	-8572
▁Churchill	-8573
▁attracted	-8574
▁Congressional	-8575
▁Globalization	-8576
▁psychological	-8577
▁interconnected	-8578
tw	-8579
▁x	-8580
atch	-8581
laud	-8582
onym	-8583
▁$10	-8584
▁BEI	-8585
atter	-8586
▁perv	-8587
▁rain	-8588
USSELS	-8589
anukov	-8590
rugman	-8591
▁crowd	-8592
▁grows	-8593
▁hydro	-8594
▁miles	-8595
iration	-8596
ologies	-8597
▁Empire	-8598
▁excell	-8599
▁repair	-8600
▁therap	-8601
▁outrage	-8602
▁Emmanuel	-8603
▁completed	-8604
▁departure	-8605
▁spreading	-8606
▁translate	-8607
▁exacerbate	-8608
▁demonstrations	-8609
IL	-8610
▁NP	-8611
Russ	-8612
abet	-8613
▁Shi	-8614
▁bio	-8615
apons	-8616
backs	-8617
▁SOEs	-8618
▁caut	-8619
▁edge	-8620
▁king	-8621
▁spoke	-8622
assador	-8623
defense	-8624
▁Lisbon	-8625
▁absent	-8626
▁ethics	-8627
▁parity	-8628
▁rebels	-8629
▁spiral	-8630
▁thrive	-8631
secution	-8632
▁Yanukov	-8633
▁automob	-8634
▁beliefs	-8635
▁farming	-8636
▁fastest	-8637
▁virtual	-8638
▁western	-8639
ratically	-8640
▁BRUSSELS	-8641
▁breaking	-8642
▁insisted	-8643
▁imbalance	-8644
▁earthquake	-8645
▁representation	-8646
gs	-8647
”)	-8648
5%.	-8649
▁Ed	-8650
anka	-8651
omas	-8652
▁Age	-8653
▁Gen	-8654
▁McK	-8655
▁mil	-8656
occup	-8657
▁1997	-8658
▁2020	-8659
▁Doha	-8660
▁calm	-8661
friend	-8662
resist	-8663
saving	-8664
▁Above	-8665
▁angry	-8666
▁burst	-8667
▁indig	-8668
▁trump	-8669
angible	-8670
looking	-8671
▁Square	-8672
▁deepen	-8673
▁orders	-8674
▁starts	-8675
▁Senator	-8676
▁malaise	-8677
▁minimal	-8678
▁storage	-8679
▁worries	-8680
▁dismissed	-8681
▁oversight	-8682
▁Yanukovych	-8683
▁irrational	-8684
▁sanitation	-8685
▁consolidate	-8686
▁negotiators	-8687
▁unnecessary	-8688
▁bureaucratic	-8689
▁transforming	-8690
▁multilateralism	-8691
col	-8692
▁$9	-8693
spec	-8694
▁Sri	-8695
▁2002	-8696
▁Gene	-8697
▁pock	-8698
▁reun	-8699
▁Right	-8700
enophob	-8701
ircraft	-8702
limited	-8703
▁casual	-8704
▁reveal	-8705
inations	-8706
▁Krugman	-8707
▁evolved	-8708
▁tempted	-8709
stitution	-8710
▁carrying	-8711
▁excluded	-8712
▁generals	-8713
▁discourse	-8714
▁offensive	-8715
▁shrinking	-8716
▁benefiting	-8717
▁discontent	-8718
▁obligation	-8719
▁derivatives	-8720
▁dysfunctional	-8721
KP	-8722
500	-8723
▁Op	-8724
▁Pi	-8725
aped	-8726
ship	-8727
▁ice	-8728
▁tab	-8729
atell	-8730
iants	-8731
skept	-8732
▁Hait	-8733
▁Move	-8734
▁warm	-8735
valued	-8736
▁Civil	-8737
▁Davos	-8738
▁ought	-8739
▁relax	-8740
▁store	-8741
▁units	-8742
▁demise	-8743
▁impede	-8744
▁missed	-8745
▁resemb	-8746
▁vested	-8747
▁Freedom	-8748
▁Juncker	-8749
▁Leaders	-8750
▁Project	-8751
▁bargain	-8752
▁confirm	-8753
▁impover	-8754
efficient	-8755
▁favorite	-8756
▁football	-8757
▁engineers	-8758
▁tolerance	-8759
▁deterrence	-8760
▁profitable	-8761
▁accordingly	-8762
▁association	-8763
▁distinction	-8764
▁enlargement	-8765
zi	-8766
irt	-8767
mod	-8768
▁Ku	-8769
▁$50	-8770
▁Equ	-8771
▁pil	-8772
▁sky	-8773
owing	-8774
▁bust	-8775
ilater	-8776
owners	-8777
▁alter	-8778
▁radio	-8779
▁steep	-8780
ometers	-8781
▁BERLIN	-8782
▁Saudis	-8783
▁behave	-8784
▁phones	-8785
▁tragic	-8786
▁Islands	-8787
▁reading	-8788
▁unified	-8789
▁aircraft	-8790
▁chairman	-8791
▁dictator	-8792
▁discount	-8793
▁opposing	-8794
▁promoted	-8795
▁thousand	-8796
▁recovered	-8797
▁struggles	-8798
▁suspicion	-8799
▁voluntary	-8800
▁boundaries	-8801
▁connection	-8802
▁application	-8803
▁predictions	-8804
▁demonstrates	-8805
▁Representatives	-8806
ID	-8807
▁28	-8808
▁Pu	-8809
▁Lad	-8810
▁Web	-8811
▁hike	-8812
▁nets	-8813
▁resh	-8814
▁Moham	-8815
▁ample	-8816
▁gases	-8817
▁lobby	-8818
▁midst	-8819
▁teach	-8820
▁punish	-8821
▁relied	-8822
▁sports	-8823
ortheast	-8824
▁Article	-8825
▁carries	-8826
▁entails	-8827
▁soaring	-8828
▁admitted	-8829
▁fighters	-8830
▁stemming	-8831
ilaterally	-8832
▁equitable	-8833
▁surprised	-8834
▁degradation	-8835
▁deflationary	-8836
▁reconstruction	-8837
25	-8838
▁$8	-8839
anth	-8840
risk	-8841
▁Had	-8842
▁syn	-8843
▁seat	-8844
▁tied	-8845
▁NAFTA	-8846
▁boast	-8847
▁label	-8848
▁stick	-8849
ulators	-8850
▁harmon	-8851
▁length	-8852
▁vacuum	-8853
▁Finland	-8854
▁acquired	-8855
▁entitled	-8856
▁facility	-8857
▁replacing	-8858
▁respected	-8859
▁unpopular	-8860
▁capitalist	-8861
▁reasonably	-8862
▁reportedly	-8863
▁temptation	-8864
▁approaching	-8865
▁efficiently	-8866
afe	-8867
nel	-8868
▁Ze	-8869
AIDS	-8870
esty	-8871
vity	-8872
▁$2.	-8873
▁Lee	-8874
▁NGOs	-8875
▁News	-8876
▁town	-8877
arious	-8878
uously	-8879
▁McKin	-8880
▁consp	-8881
▁fifth	-8882
▁inaug	-8883
▁indif	-8884
▁Future	-8885
▁Viktor	-8886
▁listen	-8887
▁racial	-8888
▁reserv	-8889
▁tribal	-8890
▁window	-8891
▁closest	-8892
▁orderly	-8893
▁venture	-8894
▁downside	-8895
▁overhaul	-8896
▁reckless	-8897
▁genuinely	-8898
▁punishment	-8899
▁accumulated	-8900
▁connections	-8901
▁diminishing	-8902
▁disarmament	-8903
▁distinguish	-8904
▁Policymakers	-8905
ixt	-8906
▁CD	-8907
▁Bor	-8908
▁Hen	-8909
▁McC	-8910
▁Raj	-8911
▁phr	-8912
▁sad	-8913
▁sle	-8914
▁Mart	-8915
▁fier	-8916
▁pron	-8917
encing	-8918
siders	-8919
▁crude	-8920
▁fruit	-8921
▁inhab	-8922
▁mosqu	-8923
iencies	-8924
▁purely	-8925
▁tested	-8926
▁Charles	-8927
▁Science	-8928
▁drawing	-8929
▁Protocol	-8930
▁interact	-8931
▁supervis	-8932
▁Consensus	-8933
▁Holocaust	-8934
▁philosophy	-8935
▁anticipated	-8936
▁controlling	-8937
▁disparities	-8938
▁disruptions	-8939
▁manufacturers	-8940
▁transnational	-8941
Ps	-8942
Sh	-8943
iro	-8944
eter	-8945
▁tum	-8946
comed	-8947
lovak	-8948
▁Gord	-8949
▁Time	-8950
▁Tony	-8951
▁cool	-8952
▁keen	-8953
profit	-8954
▁Games	-8955
▁notes	-8956
station	-8957
▁bloody	-8958
▁differ	-8959
▁lately	-8960
▁taught	-8961
▁Michael	-8962
▁biology	-8963
▁damaged	-8964
▁exceeds	-8965
▁ranking	-8966
▁silence	-8967
▁spurred	-8968
▁Together	-8969
▁choosing	-8970
▁comprise	-8971
▁embedded	-8972
▁renegoti	-8973
▁forgotten	-8974
▁tremendous	-8975
UR	-8976
erg	-8977
kes	-8978
▁BJP	-8979
▁aug	-8980
▁box	-8981
▁civ	-8982
osion	-8983
othes	-8984
world	-8985
▁Cost	-8986
▁Mass	-8987
▁beat	-8988
▁heed	-8989
▁Ghana	-8990
▁acted	-8991
▁chair	-8992
▁incap	-8993
▁named	-8994
▁owned	-8995
▁squee	-8996
▁bright	-8997
▁turbul	-8998
▁Olympic	-8999
▁Special	-9000
▁Success	-9001
▁assumes	-9002
▁condemn	-9003
▁engines	-9004
▁erosion	-9005
▁unclear	-9006
▁Strategy	-9007
▁Brazilian	-9008
▁countless	-9009
▁discovery	-9010
▁exclusion	-9011
▁meanwhile	-9012
▁techniques	-9013
▁financially	-9014
▁privatization	-9015
FOR	-9016
anz	-9017
izer	-9018
umin	-9019
range	-9020
▁bulk	-9021
▁cogn	-9022
▁puzz	-9023
▁tide	-9024
ocking	-9025
▁dying	-9026
▁pione	-9027
▁topic	-9028
Western	-9029
▁Histor	-9030
▁mathem	-9031
▁preval	-9032
▁satell	-9033
▁strain	-9034
▁asymmet	-9035
▁caution	-9036
▁torture	-9037
▁alarming	-9038
▁defining	-9039
▁pipeline	-9040
▁theories	-9041
▁warnings	-9042
employment	-9043
management	-9044
▁illiberal	-9045
▁inherited	-9046
▁suppliers	-9047
▁Protection	-9048
▁Throughout	-9049
▁capability	-9050
▁substitute	-9051
▁undertaken	-9052
60	-9053
IB	-9054
Le	-9055
law	-9056
pel	-9057
▁Us	-9058
▁na	-9059
abwe	-9060
iasm	-9061
▁Jan	-9062
produ	-9063
▁Mand	-9064
▁Zimb	-9065
▁edit	-9066
▁shot	-9067
▁Gülen	-9068
▁incre	-9069
▁pregn	-9070
▁rises	-9071
▁surre	-9072
aunting	-9073
▁behalf	-9074
▁Johnson	-9075
▁Nicolas	-9076
▁arsenal	-9077
▁bombing	-9078
▁ceiling	-9079
▁exagger	-9080
▁village	-9081
▁Zimbabwe	-9082
▁confined	-9083
▁distrust	-9084
▁orthodox	-9085
▁scrutiny	-9086
▁symptoms	-9087
corruption	-9088
▁exchanges	-9089
▁recapital	-9090
▁encourages	-9091
▁grievances	-9092
▁recessions	-9093
▁expectation	-9094
▁reinforcing	-9095
▁unpredictable	-9096
Wh	-9097
ey	-9098
yo	-9099
5%,	-9100
quis	-9101
exist	-9102
▁Less	-9103
▁PBOC	-9104
▁brib	-9105
▁hate	-9106
▁hire	-9107
▁subt	-9108
needed	-9109
weight	-9110
▁Delhi	-9111
▁forge	-9112
▁habit	-9113
▁hikes	-9114
▁spons	-9115
▁sugar	-9116
▁Almost	-9117
▁basket	-9118
▁injust	-9119
▁sphere	-9120
▁combine	-9121
▁drought	-9122
▁horizon	-9123
▁install	-9124
▁Cambodia	-9125
▁Independ	-9126
▁welcomed	-9127
▁Community	-9128
▁incumbent	-9129
▁indicator	-9130
▁overnight	-9131
▁collection	-9132
▁compliance	-9133
▁indigenous	-9134
▁kilometers	-9135
▁comfortable	-9136
▁justification	-9137
▁Infrastructure	-9138
▁recommendations	-9139
ym	-9140
JING	-9141
▁Jud	-9142
▁Wil	-9143
essed	-9144
green	-9145
shore	-9146
▁2018	-9147
▁2030	-9148
▁cure	-9149
▁maln	-9150
▁ster	-9151
unning	-9152
▁Kerry	-9153
▁allev	-9154
▁maneu	-9155
▁naval	-9156
▁Fiscal	-9157
▁Thomas	-9158
▁ballot	-9159
▁excuse	-9160
▁ingred	-9161
▁notice	-9162
▁Algeria	-9163
▁Markets	-9164
▁authors	-9165
▁invited	-9166
▁passing	-9167
▁suffers	-9168
▁Friedman	-9169
▁Iranians	-9170
▁contempl	-9171
▁distress	-9172
▁xenophob	-9173
▁condemned	-9174
▁promotion	-9175
▁resentment	-9176
▁representing	-9177
▁conservatives	-9178
gor	-9179
iam	-9180
▁Ra	-9181
▁Up	-9182
asty	-9183
isms	-9184
▁tap	-9185
▁Near	-9186
▁Prop	-9187
▁elev	-9188
▁stal	-9189
▁2020.	-9190
▁accus	-9191
liberal	-9192
▁Action	-9193
▁Thanks	-9194
▁repeat	-9195
▁robots	-9196
▁theore	-9197
▁BEIJING	-9198
▁covered	-9199
▁factory	-9200
▁Movement	-9201
▁distance	-9202
▁ignoring	-9203
▁quarters	-9204
▁allocated	-9205
▁dimension	-9206
▁disregard	-9207
▁adequately	-9208
▁biological	-9209
▁correspond	-9210
▁identities	-9211
▁triggering	-9212
▁Corporation	-9213
▁distortions	-9214
▁projections	-9215
▁fragmentation	-9216
▁indispensable	-9217
▁possibilities	-9218
▁stabilization	-9219
▁democratically	-9220
YO	-9221
ec	-9222
ulg	-9223
▁Ay	-9224
FORD	-9225
life	-9226
uras	-9227
iracy	-9228
start	-9229
uated	-9230
▁Amaz	-9231
irical	-9232
rators	-9233
uggish	-9234
▁Singh	-9235
▁Would	-9236
▁foods	-9237
▁intim	-9238
▁marks	-9239
▁recur	-9240
anthrop	-9241
private	-9242
▁Bosnia	-9243
▁breast	-9244
▁entail	-9245
▁nobody	-9246
▁seized	-9247
▁timing	-9248
▁adviser	-9249
▁boosted	-9250
▁indefin	-9251
▁outlets	-9252
▁records	-9253
▁displace	-9254
▁paradigm	-9255
▁printing	-9256
▁childhood	-9257
▁Developing	-9258
▁centralized	-9259
▁entrepreneur	-9260
▁facilitating	-9261
▁nationalists	-9262
PA	-9263
irs	-9264
vin	-9265
arer	-9266
aret	-9267
▁CIA	-9268
▁bus	-9269
▁rid	-9270
▁Mark	-9271
▁Stud	-9272
▁loose	-9273
▁param	-9274
▁sched	-9275
achment	-9276
ictions	-9277
▁Joseph	-9278
▁denial	-9279
▁filled	-9280
▁hegemon	-9281
▁traders	-9282
▁unusual	-9283
ternative	-9284
▁amounted	-9285
▁bailouts	-9286
▁diminish	-9287
▁equipped	-9288
▁formally	-9289
▁Sometimes	-9290
▁breakdown	-9291
▁professor	-9292
▁socialist	-9293
▁creativity	-9294
▁enthusiasm	-9295
▁preserving	-9296
▁superpower	-9297
▁traditions	-9298
▁Declaration	-9299
▁determining	-9300
▁accomplished	-9301
▁interference	-9302
▁Constitutional	-9303
▁characteristics	-9304
In	-9305
dec	-9306
ont	-9307
erto	-9308
▁FDI	-9309
▁Too	-9310
overs	-9311
uties	-9312
▁fees	-9313
▁hide	-9314
▁wins	-9315
▁1,000	-9316
▁Round	-9317
▁error	-9318
▁fatal	-9319
▁Geneva	-9320
▁Gordon	-9321
▁deadly	-9322
▁hidden	-9323
▁myriad	-9324
friendly	-9325
▁Qaddafi	-9326
▁formula	-9327
▁inequal	-9328
▁located	-9329
istically	-9330
▁2008-200	-9331
▁freedoms	-9332
▁whenever	-9333
▁misguided	-9334
▁sacrifice	-9335
▁discourage	-9336
▁fragmented	-9337
▁bureaucrats	-9338
▁exceptional	-9339
▁collectively	-9340
▁inequalities	-9341
▁intellectuals	-9342
aur	-9343
cho	-9344
▁ho	-9345
AVEN	-9346
icks	-9347
olly	-9348
▁flu	-9349
▁vit	-9350
▁Sach	-9351
▁coff	-9352
▁Brown	-9353
▁HAVEN	-9354
version	-9355
▁Terror	-9356
▁afflic	-9357
▁detain	-9358
▁dozens	-9359
▁lifted	-9360
▁string	-9361
▁coastal	-9362
▁delayed	-9363
enhancing	-9364
▁opinions	-9365
▁subjects	-9366
▁decentral	-9367
▁graduates	-9368
▁imperfect	-9369
▁regulated	-9370
▁misleading	-9371
▁renewables	-9372
▁constitutes	-9373
▁deliberately	-9374
▁irresponsible	-9375
RA	-9376
sm	-9377
ua	-9378
awa	-9379
dig	-9380
emer	-9381
▁Ste	-9382
▁unh	-9383
ashes	-9384
field	-9385
▁dozen	-9386
▁proof	-9387
▁metric	-9388
▁orient	-9389
▁overly	-9390
▁Charter	-9391
▁discred	-9392
▁extends	-9393
▁succumb	-9394
▁urgency	-9395
▁outflows	-9396
▁partisan	-9397
▁reminder	-9398
▁advocated	-9399
▁assessing	-9400
▁extending	-9401
▁militants	-9402
▁routinely	-9403
▁Christians	-9404
▁exceptions	-9405
▁infections	-9406
▁aggressively	-9407
▁subsequently	-9408
▁participating	-9409
ka	-9410
cep	-9411
▁Mo	-9412
asse	-9413
▁CCP	-9414
▁bin	-9415
ounds	-9416
▁Bhut	-9417
▁Soon	-9418
▁hind	-9419
Soviet	-9420
erated	-9421
▁2007.	-9422
▁Lanka	-9423
▁Marsh	-9424
▁appet	-9425
▁grass	-9426
▁hence	-9427
▁rebel	-9428
▁Marine	-9429
▁thinks	-9430
▁unanim	-9431
arations	-9432
▁convert	-9433
▁disclos	-9434
▁dissent	-9435
▁partial	-9436
▁placing	-9437
▁spreads	-9438
fficiency	-9439
▁Southern	-9440
▁predomin	-9441
▁province	-9442
▁removing	-9443
▁stations	-9444
▁liability	-9445
▁scientist	-9446
▁decisively	-9447
▁presumably	-9448
▁approximately	-9449
DA	-9450
bán	-9451
▁Ug	-9452
elts	-9453
sett	-9454
trad	-9455
▁Kaz	-9456
aying	-9457
▁Pact	-9458
▁Wars	-9459
▁jour	-9460
▁pund	-9461
▁lifet	-9462
▁sport	-9463
capital	-9464
lovakia	-9465
▁aggrav	-9466
▁bipart	-9467
▁immune	-9468
▁savers	-9469
▁square	-9470
▁issuing	-9471
▁loyalty	-9472
▁ordered	-9473
▁rewards	-9474
▁McKinsey	-9475
▁stagnant	-9476
▁conscious	-9477
▁extension	-9478
▁gathering	-9479
▁performed	-9480
▁reference	-9481
▁censorship	-9482
▁ecological	-9483
▁escalating	-9484
▁automatically	-9485
▁Fuk	-9486
▁Six	-9487
▁vib	-9488
lined	-9489
▁Tayy	-9490
anship	-9491
normal	-9492
▁Scott	-9493
▁actor	-9494
▁plain	-9495
induced	-9496
▁Former	-9497
▁phrase	-9498
▁100,000	-9499
▁Sanders	-9500
▁debtors	-9501
▁endorse	-9502
▁unequal	-9503
estically	-9504
▁frontier	-9505
▁inaction	-9506
▁insights	-9507
▁abandoning	-9508
▁destroying	-9509
▁electronic	-9510
▁succession	-9511
▁restructure	-9512
30	-9513
HA	-9514
ito	-9515
▁ES	-9516
OKYO	-9517
char	-9518
lers	-9519
▁Rem	-9520
worth	-9521
▁Rome	-9522
▁fant	-9523
retion	-9524
▁2016.	-9525
▁Orbán	-9526
▁Recep	-9527
▁TOKYO	-9528
▁climb	-9529
▁keeps	-9530
▁likes	-9531
▁pivot	-9532
▁socio	-9533
America	-9534
▁Tayyip	-9535
▁attain	-9536
▁favors	-9537
▁hoping	-9538
▁incons	-9539
▁poised	-9540
▁Silicon	-9541
▁dubious	-9542
▁emerges	-9543
▁interim	-9544
▁incompet	-9545
▁receives	-9546
▁spectrum	-9547
▁symbolic	-9548
▁villages	-9549
▁impression	-9550
▁exemplified	-9551
▁introducing	-9552
▁environmentally	-9553
-4	-9554
burg	-9555
▁Bay	-9556
▁esp	-9557
ravel	-9558
stone	-9559
▁Prem	-9560
▁Roma	-9561
▁grab	-9562
abetes	-9563
headed	-9564
states	-9565
▁Armen	-9566
▁artic	-9567
▁swift	-9568
atories	-9569
▁abrupt	-9570
▁barrel	-9571
▁entity	-9572
▁hatred	-9573
▁stages	-9574
▁Balkans	-9575
▁antagon	-9576
▁inspire	-9577
▁propose	-9578
▁revived	-9579
▁stagger	-9580
▁depressed	-9581
▁fertility	-9582
▁literally	-9583
▁reforming	-9584
▁adaptation	-9585
▁guidelines	-9586
▁incomplete	-9587
▁experiments	-9588
▁intensified	-9589
▁calculations	-9590
yp	-9591
nov	-9592
▁26	-9593
avor	-9594
cile	-9595
▁Opp	-9596
▁wre	-9597
-2008	-9598
▁horr	-9599
Brexit	-9600
▁Chair	-9601
▁Sachs	-9602
▁ambig	-9603
▁bolst	-9604
▁cards	-9605
▁games	-9606
▁genet	-9607
▁refin	-9608
▁Better	-9609
▁Either	-9610
▁Greeks	-9611
▁detect	-9612
▁hiring	-9613
▁locked	-9614
▁sounds	-9615
▁spends	-9616
▁tenure	-9617
▁Bolivia	-9618
▁knowing	-9619
▁secured	-9620
▁enthusia	-9621
▁watching	-9622
▁reconcile	-9623
▁unlimited	-9624
▁accessible	-9625
▁motivation	-9626
▁citizenship	-9627
▁permanently	-9628
▁marginalized	-9629
▁unilaterally	-9630
PEC	-9631
ara	-9632
▁8.	-9633
▁IT	-9634
hart	-9635
▁Roy	-9636
aland	-9637
uberc	-9638
vedev	-9639
▁empt	-9640
▁breed	-9641
▁proxy	-9642
▁Consum	-9643
▁Iraqis	-9644
▁absurd	-9645
▁benign	-9646
▁Current	-9647
▁intimid	-9648
▁passion	-9649
roductive	-9650
▁borrowed	-9651
▁producer	-9652
▁enhancing	-9653
▁exclusive	-9654
▁launching	-9655
▁personnel	-9656
▁qualified	-9657
▁escalation	-9658
▁originally	-9659
▁bondholders	-9660
▁normalization	-9661
ica	-9662
▁La	-9663
aste	-9664
ials	-9665
mble	-9666
ugos	-9667
▁Tok	-9668
▁ped	-9669
▁van	-9670
▁aren	-9671
▁grim	-9672
▁grip	-9673
▁mega	-9674
▁plot	-9675
cially	-9676
idable	-9677
▁2030,	-9678
▁Cairo	-9679
▁Index	-9680
▁Water	-9681
▁array	-9682
▁cited	-9683
▁drast	-9684
▁slump	-9685
▁unite	-9686
keeping	-9687
ugoslav	-9688
▁Amazon	-9689
▁Kazakh	-9690
▁Puerto	-9691
▁acquis	-9692
▁banned	-9693
▁devise	-9694
▁luxury	-9695
▁enlight	-9696
▁episode	-9697
▁insight	-9698
▁reveals	-9699
▁Agricult	-9700
▁daunting	-9701
▁pandemic	-9702
▁undercut	-9703
▁budgetary	-9704
▁depending	-9705
▁historian	-9706
▁ignorance	-9707
▁permitted	-9708
▁restraint	-9709
▁frustrated	-9710
▁protracted	-9711
▁remarkably	-9712
▁sustaining	-9713
proliferation	-9714
▁impoverished	-9715
▁longstanding	-9716
Af	-9717
BC	-9718
If	-9719
zh	-9720
ida	-9721
amac	-9722
▁Jac	-9723
▁Spe	-9724
Islam	-9725
aksin	-9726
uming	-9727
▁Prom	-9728
▁guer	-9729
▁kick	-9730
▁sick	-9731
▁subs	-9732
elfare	-9733
terror	-9734
▁Banks	-9735
▁Niger	-9736
▁atroc	-9737
▁neuro	-9738
▁peril	-9739
▁seeds	-9740
amacare	-9741
▁Common	-9742
▁fertil	-9743
▁habits	-9744
▁slogan	-9745
▁Increas	-9746
▁intoler	-9747
▁satisfy	-9748
▁solving	-9749
▁surveys	-9750
▁Lebanese	-9751
▁Medvedev	-9752
▁cautious	-9753
▁normally	-9754
▁oligarch	-9755
▁tactical	-9756
▁teaching	-9757
▁treating	-9758
▁diagnosis	-9759
▁skeptical	-9760
▁attributed	-9761
▁formidable	-9762
withstanding	-9763
▁advertising	-9764
▁statistical	-9765
Ind	-9766
elf	-9767
alls	-9768
rock	-9769
▁cow	-9770
isons	-9771
otism	-9772
▁Poor	-9773
eltsin	-9774
ulosis	-9775
▁bases	-9776
▁crypt	-9777
▁magaz	-9778
▁tanks	-9779
▁unint	-9780
levance	-9781
▁Franco	-9782
▁Maduro	-9783
▁Sunnis	-9784
▁doctor	-9785
▁induce	-9786
▁lacked	-9787
▁mining	-9788
▁rebell	-9789
▁unreal	-9790
▁Zealand	-9791
▁recruit	-9792
▁revised	-9793
effective	-9794
reduction	-9795
▁audience	-9796
▁diabetes	-9797
▁feelings	-9798
▁concerted	-9799
uberculosis	-9800
▁annexation	-9801
▁bipartisan	-9802
▁influenced	-9803
▁understands	-9804
iph	-9805
ski	-9806
▁CN	-9807
▁Ox	-9808
bean	-9809
erts	-9810
gans	-9811
wood	-9812
▁Dig	-9813
▁Leg	-9814
▁alc	-9815
▁unm	-9816
Qaeda	-9817
attle	-9818
eline	-9819
▁Pope	-9820
▁Sant	-9821
▁elig	-9822
▁phot	-9823
▁semi	-9824
▁ship	-9825
▁synt	-9826
gorith	-9827
▁Panel	-9828
▁coerc	-9829
▁feels	-9830
▁greed	-9831
▁names	-9832
▁vague	-9833
▁weigh	-9834
ajority	-9835
herence	-9836
ourcing	-9837
▁Sharon	-9838
▁Twenty	-9839
▁grants	-9840
▁lender	-9841
▁traded	-9842
▁Yeltsin	-9843
▁clients	-9844
▁heading	-9845
▁portion	-9846
insurance	-9847
▁contains	-9848
▁diagnost	-9849
▁infected	-9850
▁tackling	-9851
▁thinkers	-9852
▁broadcast	-9853
▁entertain	-9854
▁exercises	-9855
▁witnessed	-9856
development	-9857
▁autocratic	-9858
▁comprising	-9859
▁conviction	-9860
▁separation	-9861
▁composition	-9862
▁conclusions	-9863
jo	-9864
TIP	-9865
vol	-9866
prof	-9867
▁Ach	-9868
▁NPT	-9869
▁rot	-9870
Frank	-9871
fifth	-9872
merce	-9873
▁Dodd	-9874
▁MDGs	-9875
▁Pric	-9876
▁boss	-9877
▁narr	-9878
▁outp	-9879
▁rice	-9880
▁unav	-9881
▁1989,	-9882
▁Tokyo	-9883
▁clout	-9884
▁rigor	-9885
raining	-9886
▁Refuge	-9887
▁inward	-9888
▁agendas	-9889
▁charism	-9890
▁postwar	-9891
▁removal	-9892
▁station	-9893
▁Politics	-9894
▁Xiaoping	-9895
▁backward	-9896
▁blocking	-9897
▁instinct	-9898
▁Microsoft	-9899
▁insurgency	-9900
▁respective	-9901
▁spectacular	-9902
▁evolutionary	-9903
▁fluctuations	-9904
70	-9905
aba	-9906
agog	-9907
rian	-9908
▁Hig	-9909
▁Old	-9910
World	-9911
after	-9912
iform	-9913
roads	-9914
ronts	-9915
▁1950	-9916
▁Debt	-9917
▁fled	-9918
▁shed	-9919
▁wary	-9920
arians	-9921
earing	-9922
ricane	-9923
▁Swiss	-9924
▁lever	-9925
▁march	-9926
▁outwe	-9927
▁sheer	-9928
▁tells	-9929
▁voter	-9930
rategic	-9931
▁bacter	-9932
▁guided	-9933
▁poison	-9934
▁silent	-9935
▁solved	-9936
location	-9937
▁Affairs	-9938
▁Belgium	-9939
▁Nothing	-9940
▁Swedish	-9941
▁logical	-9942
▁migrant	-9943
▁strange	-9944
▁maternal	-9945
▁mistrust	-9946
▁considers	-9947
▁embracing	-9948
▁scheduled	-9949
▁worsening	-9950
▁heightened	-9951
▁nomination	-9952
▁philanthrop	-9953
▁Specifically	-9954
▁demonstrating	-9955
▁profitability	-9956
▁industrialized	-9957
WF	-9958
ala	-9959
▁Av	-9960
lown	-9961
thal	-9962
▁NCD	-9963
▁fro	-9964
▁sli	-9965
rafat	-9966
▁Care	-9967
▁mudd	-9968
▁thin	-9969
ranted	-9970
▁items	-9971
ordable	-9972
▁remitt	-9973
▁vastly	-9974
▁worsen	-9975
▁Private	-9976
▁Similar	-9977
▁compare	-9978
▁pundits	-9979
▁vibrant	-9980
▁mistaken	-9981
▁maintains	-9982
▁radically	-9983
▁discretion	-9984
▁indication	-9985
▁reflection	-9986
bu	-9987
amm	-9988
aze	-9989
rim	-9990
rol	-9991
too	-9992
▁2,	-9993
aire	-9994
▁75%	-9995
▁Wen	-9996
cture	-9997
▁ampl	-9998
▁inex	-9999
▁towns	-10000
▁Leader	-10001
▁Uganda	-10002
▁recipe	-10003
▁replic	-10004
▁timely	-10005
▁harness	-10006
developed	-10007
▁averaged	-10008
▁disputed	-10009
▁preoccup	-10010
▁troubles	-10011
▁automatic	-10012
▁cognitive	-10013
▁criminals	-10014
▁dividends	-10015
▁empirical	-10016
▁formation	-10017
▁overthrow	-10018
▁perfectly	-10019
▁rationale	-10020
information	-10021
▁Kazakhstan	-10022
▁Venezuelan	-10023
▁coordinate	-10024
▁journalist	-10025
▁narratives	-10026
▁staggering	-10027
▁containment	-10028
▁dangerously	-10029
▁recommended	-10030
▁disappointing	-10031
MB	-10032
▁Ha	-10033
coin	-10034
that	-10035
wart	-10036
▁AKP	-10037
▁WHO	-10038
esity	-10039
rians	-10040
skill	-10041
value	-10042
▁Coal	-10043
▁Deal	-10044
▁Moon	-10045
▁Nord	-10046
▁gest	-10047
▁park	-10048
▁rand	-10049
▁sale	-10050
▁scre	-10051
atural	-10052
uating	-10053
▁avert	-10054
▁music	-10055
▁prest	-10056
▁reaff	-10057
▁handle	-10058
educated	-10059
▁futures	-10060
▁handful	-10061
financial	-10062
▁Exchange	-10063
▁Interest	-10064
▁militias	-10065
▁opponent	-10066
▁resident	-10067
▁resisted	-10068
▁addresses	-10069
▁combating	-10070
▁indicated	-10071
denominated	-10072
▁attracting	-10073
▁deliberate	-10074
▁enrichment	-10075
▁complacency	-10076
▁philosopher	-10077
AT	-10078
asi	-10079
▁Nep	-10080
▁Ten	-10081
▁jun	-10082
itant	-10083
oline	-10084
▁Rein	-10085
▁impe	-10086
▁mant	-10087
ieving	-10088
ivable	-10089
orders	-10090
seless	-10091
▁1999,	-10092
▁Basel	-10093
▁Haiti	-10094
▁euros	-10095
▁metap	-10096
▁spear	-10097
▁wield	-10098
finance	-10099
roughts	-10100
▁curric	-10101
▁debtor	-10102
▁fierce	-10103
▁gotten	-10104
▁hazard	-10105
▁misman	-10106
▁shrink	-10107
▁Journal	-10108
▁mindset	-10109
▁monthly	-10110
▁physics	-10111
▁Ministry	-10112
▁appetite	-10113
▁factions	-10114
▁illusion	-10115
orestation	-10116
▁empowered	-10117
▁provinces	-10118
▁disturbing	-10119
▁liberalism	-10120
▁elimination	-10121
▁replacement	-10122
▁vulnerabilities	-10123
!”	-10124
40	-10125
UL	-10126
ARC	-10127
ped	-10128
▁--	-10129
▁9%	-10130
Arab	-10131
bial	-10132
nard	-10133
▁35%	-10134
▁Dam	-10135
▁Ser	-10136
bonds	-10137
ruits	-10138
▁abst	-10139
▁crus	-10140
funded	-10141
orough	-10142
rising	-10143
▁2017.	-10144
▁Nepal	-10145
▁Smith	-10146
▁Techn	-10147
▁enshr	-10148
▁perce	-10149
ortions	-10150
▁beings	-10151
▁fisher	-10152
▁giants	-10153
▁harass	-10154
▁native	-10155
▁pretty	-10156
▁Administ	-10157
▁adjusted	-10158
▁algorith	-10159
▁assembly	-10160
▁defaults	-10161
▁deserves	-10162
▁imminent	-10163
▁lifetime	-10164
▁location	-10165
▁Obviously	-10166
▁allegedly	-10167
▁arbitrary	-10168
▁generates	-10169
▁intensify	-10170
▁reasoning	-10171
▁upgrading	-10172
▁psychology	-10173
▁reluctance	-10174
▁systematic	-10175
▁continental	-10176
▁disappeared	-10177
▁perceptions	-10178
▁unification	-10179
,"	-10180
ki	-10181
ania	-10182
urit	-10183
▁Ecu	-10184
▁mir	-10185
atist	-10186
ellen	-10187
icago	-10188
▁WWII	-10189
▁hier	-10190
arrass	-10191
▁mired	-10192
ariably	-10193
athered	-10194
▁Arafat	-10195
▁Arctic	-10196
▁Nearly	-10197
▁buyers	-10198
▁exempt	-10199
▁repeal	-10200
▁Maynard	-10201
▁Premier	-10202
▁endless	-10203
▁extract	-10204
▁prestig	-10205
▁readily	-10206
▁settled	-10207
▁impunity	-10208
▁massacre	-10209
▁mathemat	-10210
▁offshore	-10211
▁organize	-10212
▁tangible	-10213
▁academics	-10214
▁denuclear	-10215
▁paralysis	-10216
▁peripheral	-10217
▁restricted	-10218
▁domestically	-10219
▁breakthroughs	-10220
▁underestimated	-10221
dad	-10222
pre	-10223
disc	-10224
ghdad	-10225
iates	-10226
▁Gand	-10227
▁merc	-10228
▁2002,	-10229
▁Henry	-10230
attered	-10231
▁Budget	-10232
▁Prince	-10233
▁drives	-10234
▁errors	-10235
▁potent	-10236
▁random	-10237
▁Between	-10238
▁denying	-10239
▁helpful	-10240
▁lifting	-10241
▁rethink	-10242
▁sitting	-10243
▁tougher	-10244
communist	-10245
▁evolving	-10246
▁packages	-10247
▁sluggish	-10248
▁suppress	-10249
▁survived	-10250
ologically	-10251
▁declaring	-10252
▁explosion	-10253
▁intensity	-10254
▁violation	-10255
▁Ironically	-10256
▁cosmopolit	-10257
▁discredited	-10258
▁practically	-10259
Pro	-10260
apt	-10261
big	-10262
bul	-10263
sky	-10264
▁fr	-10265
arus	-10266
comp	-10267
inav	-10268
irac	-10269
wait	-10270
▁Mic	-10271
▁hus	-10272
▁voc	-10273
anger	-10274
asant	-10275
ceans	-10276
eches	-10277
▁shel	-10278
▁Hindu	-10279
▁overe	-10280
▁reson	-10281
▁rests	-10282
▁veget	-10283
Israeli	-10284
andinav	-10285
quarter	-10286
▁Review	-10287
▁arrive	-10288
▁floods	-10289
▁fright	-10290
▁wasted	-10291
▁Chicago	-10292
▁Thaksin	-10293
▁burning	-10294
▁despair	-10295
▁subsidy	-10296
▁uniform	-10297
▁droughts	-10298
▁morality	-10299
▁refusing	-10300
▁sweeping	-10301
▁thorough	-10302
▁incapable	-10303
▁interaction	-10304
▁limitations	-10305
▁transitions	-10306
.,	-10307
rov	-10308
▁9.	-10309
drop	-10310
lass	-10311
will	-10312
▁Abu	-10313
▁Dem	-10314
▁Hel	-10315
▁Hug	-10316
licop	-10317
ensity	-10318
vation	-10319
▁Black	-10320
▁Royal	-10321
▁bombs	-10322
▁clash	-10323
▁monet	-10324
▁throw	-10325
umbling	-10326
▁Chirac	-10327
▁adhere	-10328
▁nomine	-10329
▁ostens	-10330
▁prejud	-10331
▁soccer	-10332
changing	-10333
▁Belarus	-10334
▁Ecuador	-10335
▁Goldman	-10336
▁appeals	-10337
▁examine	-10338
▁margins	-10339
▁readers	-10340
▁trusted	-10341
▁Marshall	-10342
▁Recently	-10343
▁episodes	-10344
▁friendly	-10345
▁revision	-10346
▁Egyptians	-10347
▁healthier	-10348
▁infection	-10349
▁outsiders	-10350
▁unleashed	-10351
▁cumulative	-10352
▁documented	-10353
▁overcoming	-10354
▁Alternative	-10355
▁outstanding	-10356
▁connectivity	-10357
CH	-10358
angs	-10359
eded	-10360
ohol	-10361
▁Com	-10362
fired	-10363
iably	-10364
pered	-10365
▁cere	-10366
▁hung	-10367
▁loud	-10368
German	-10369
▁Catal	-10370
▁Cuban	-10371
▁Nazis	-10372
▁blunt	-10373
▁civic	-10374
▁embod	-10375
ography	-10376
ologist	-10377
weapons	-10378
▁Forces	-10379
▁Yellen	-10380
▁culmin	-10381
▁defect	-10382
▁eroded	-10383
▁pestic	-10384
▁durable	-10385
▁emulate	-10386
▁offices	-10387
ugoslavia	-10388
▁activist	-10389
▁centrist	-10390
▁covering	-10391
▁daughter	-10392
▁decrease	-10393
▁postpone	-10394
▁signaled	-10395
▁Companies	-10396
▁believing	-10397
▁crackdown	-10398
▁exploited	-10399
▁pervasive	-10400
▁rejecting	-10401
▁Australian	-10402
▁coalitions	-10403
▁enthusiast	-10404
▁journalism	-10405
▁facilitated	-10406
establishment	-10407
▁exploitation	-10408
▁deterioration	-10409
EF	-10410
▁AMR	-10411
▁1989	-10412
▁Brex	-10413
▁Rico	-10414
▁Youn	-10415
▁cler	-10416
▁loos	-10417
▁peer	-10418
ferent	-10419
▁empty	-10420
▁erode	-10421
▁prize	-10422
▁scene	-10423
▁Kuwait	-10424
▁Martin	-10425
▁breaks	-10426
▁pillar	-10427
▁quotas	-10428
affected	-10429
▁council	-10430
▁expects	-10431
▁harvest	-10432
▁vehicle	-10433
izational	-10434
▁Franklin	-10435
▁applying	-10436
▁enforced	-10437
▁equities	-10438
▁maneuver	-10439
▁memories	-10440
▁speeches	-10441
▁tolerate	-10442
▁Scandinav	-10443
▁troubling	-10444
▁withstand	-10445
▁continuous	-10446
▁preference	-10447
▁undergoing	-10448
▁implication	-10449
▁probability	-10450
▁technocratic	-10451
▁deteriorating	-10452
awn	-10453
ela	-10454
emy	-10455
mas	-10456
ros	-10457
zen	-10458
gian	-10459
iors	-10460
ogen	-10461
▁Bit	-10462
human	-10463
itous	-10464
▁issu	-10465
▁mild	-10466
iteers	-10467
school	-10468
▁bless	-10469
▁hypoc	-10470
economy	-10471
ication	-10472
▁arises	-10473
▁compact	-10474
▁inhabit	-10475
▁pillars	-10476
▁prudent	-10477
▁symptom	-10478
▁imagined	-10479
▁referred	-10480
▁embarrass	-10481
▁mentioned	-10482
▁neglected	-10483
▁proposing	-10484
▁schooling	-10485
▁struggled	-10486
▁ambassador	-10487
▁invariably	-10488
▁militarily	-10489
ova	-10490
▁ri	-10491
away	-10492
ques	-10493
▁Bah	-10494
▁Has	-10495
▁Jim	-10496
▁Ret	-10497
▁lit	-10498
▁mas	-10499
achev	-10500
annon	-10501
board	-10502
oting	-10503
speed	-10504
vable	-10505
vigor	-10506
▁CEOs	-10507
▁Gaul	-10508
▁Mikh	-10509
▁Open	-10510
▁clar	-10511
▁tone	-10512
assion	-10513
iverse	-10514
▁Annan	-10515
▁Offic	-10516
▁effic	-10517
▁ports	-10518
▁reign	-10519
▁scarc	-10520
▁shoot	-10521
▁touch	-10522
▁Gandhi	-10523
▁duties	-10524
liaments	-10525
▁Earlier	-10526
▁booming	-10527
▁founder	-10528
▁rampant	-10529
▁restaur	-10530
▁suscept	-10531
▁unravel	-10532
▁gasoline	-10533
▁incident	-10534
▁prompted	-10535
▁ratified	-10536
▁certainty	-10537
▁dedicated	-10538
▁unintended	-10539
▁immunization	-10540
▁jurisdiction	-10541
▁manufactured	-10542
▁Environmental	-10543
▁beneficiaries	-10544
BS	-10545
▁80	-10546
case	-10547
ears	-10548
idal	-10549
▁Mat	-10550
▁Ott	-10551
▁cod	-10552
▁dry	-10553
▁peg	-10554
great	-10555
isive	-10556
phone	-10557
▁Crit	-10558
▁Lula	-10559
▁Mali	-10560
▁Prov	-10561
▁reap	-10562
ibbean	-10563
ighted	-10564
umping	-10565
▁Event	-10566
▁River	-10567
▁guess	-10568
▁shame	-10569
atollah	-10570
tenance	-10571
▁assemb	-10572
▁conced	-10573
▁electr	-10574
▁illust	-10575
▁nightm	-10576
financed	-10577
▁Digital	-10578
▁Romania	-10579
▁alcohol	-10580
▁breakup	-10581
▁discern	-10582
▁stalled	-10583
▁trapped	-10584
resistant	-10585
▁Abdullah	-10586
▁abortion	-10587
▁irrevers	-10588
▁presents	-10589
▁Socialist	-10590
▁appearance	-10591
▁safeguards	-10592
▁skepticism	-10593
▁accommodate	-10594
▁destination	-10595
▁conversation	-10596
▁interactions	-10597
▁telecommunic	-10598
▁disagreements	-10599
due	-10600
iki	-10601
▁65	-10602
▁om	-10603
umes	-10604
aming	-10605
hibit	-10606
ousse	-10607
▁Gorb	-10608
▁Stan	-10609
▁vind	-10610
dollar	-10611
enable	-10612
etting	-10613
wealth	-10614
▁2005.	-10615
▁Moral	-10616
▁afflu	-10617
▁cliff	-10618
▁urged	-10619
erating	-10620
iversal	-10621
manship	-10622
▁deputy	-10623
▁enroll	-10624
▁ideals	-10625
▁essence	-10626
▁militar	-10627
▁obesity	-10628
▁studied	-10629
▁commonly	-10630
▁doubling	-10631
▁prevents	-10632
▁respects	-10633
▁segments	-10634
celeration	-10635
▁Caribbean	-10636
▁exporting	-10637
▁fostering	-10638
▁marketing	-10639
▁autonomous	-10640
▁proclaimed	-10641
▁compromises	-10642
▁incremental	-10643
▁remittances	-10644
▁underground	-10645
▁malnutrition	-10646
▁uncertainties	-10647
▁democratization	-10648
▁interdependence	-10649
45	-10650
▁&	-10651
▁i	-10652
but	-10653
assy	-10654
dict	-10655
ndra	-10656
▁Att	-10657
▁Val	-10658
▁rum	-10659
rance	-10660
▁Data	-10661
▁aged	-10662
▁baby	-10663
▁feet	-10664
▁nost	-10665
asions	-10666
compet	-10667
pelled	-10668
usions	-10669
▁Canad	-10670
▁fired	-10671
▁panel	-10672
▁video	-10673
autiful	-10674
▁Asians	-10675
▁fronts	-10676
▁oceans	-10677
▁Banking	-10678
▁Mikhail	-10679
▁journey	-10680
▁linking	-10681
▁origins	-10682
▁reviews	-10683
▁utterly	-10684
dominated	-10685
▁Italians	-10686
▁category	-10687
▁deciding	-10688
▁hardship	-10689
▁mainland	-10690
▁shocking	-10691
▁Gorbachev	-10692
▁Inflation	-10693
▁documents	-10694
▁geography	-10695
▁insisting	-10696
▁plummeted	-10697
▁containing	-10698
▁assessments	-10699
▁identifying	-10700
▁maintenance	-10701
▁parliaments	-10702
▁administrations	-10703
▁entrepreneurial	-10704
GI	-10705
gra	-10706
uts	-10707
▁nu	-10708
ilty	-10709
last	-10710
onic	-10711
▁ICT	-10712
grade	-10713
▁100%	-10714
▁auto	-10715
▁damp	-10716
▁sums	-10717
▁unth	-10718
social	-10719
▁bears	-10720
▁cripp	-10721
▁irony	-10722
▁score	-10723
▁Scient	-10724
▁genome	-10725
▁marine	-10726
▁plight	-10727
equality	-10728
resolved	-10729
▁Gazprom	-10730
▁conting	-10731
▁letting	-10732
▁lowered	-10733
▁maximum	-10734
▁pockets	-10735
dependent	-10736
▁abundant	-10737
▁exceeded	-10738
▁lobbying	-10739
▁quantity	-10740
▁Investors	-10741
▁attacking	-10742
▁ballistic	-10743
▁ceasefire	-10744
▁defensive	-10745
▁strengths	-10746
▁accurately	-10747
▁complaints	-10748
▁enlightened	-10749
▁deforestation	-10750
▁Representative	-10751
▁diversification	-10752
iy	-10753
fur	-10754
nes	-10755
net	-10756
who	-10757
rush	-10758
ulum	-10759
agine	-10760
asure	-10761
eding	-10762
▁Anti	-10763
▁Fail	-10764
▁Home	-10765
▁Marg	-10766
▁Mult	-10767
▁intu	-10768
▁monu	-10769
▁plag	-10770
elsius	-10771
ulture	-10772
▁Guard	-10773
▁Poles	-10774
▁bleak	-10775
▁ships	-10776
conserv	-10777
elected	-10778
▁Across	-10779
▁Baltic	-10780
▁regret	-10781
▁sevent	-10782
curement	-10783
▁careers	-10784
▁circles	-10785
▁flowing	-10786
▁motives	-10787
▁patents	-10788
▁excesses	-10789
▁integral	-10790
▁invented	-10791
▁literacy	-10792
▁proposes	-10793
▁accompany	-10794
▁reactions	-10795
▁trillions	-10796
▁Brexiteers	-10797
▁inherently	-10798
▁performing	-10799
▁processing	-10800
▁accusations	-10801
▁disagreement	-10802
▁intensifying	-10803
za	-10804
omy	-10805
▁ST	-10806
ills	-10807
▁Was	-10808
▁cra	-10809
▁fab	-10810
digit	-10811
richt	-10812
▁Acad	-10813
▁Alan	-10814
▁Kash	-10815
▁Main	-10816
▁walk	-10817
▁wasn	-10818
lusive	-10819
people	-10820
▁2001.	-10821
▁Advis	-10822
▁Innov	-10823
▁Laden	-10824
▁erect	-10825
▁swing	-10826
acities	-10827
ighting	-10828
porting	-10829
▁expose	-10830
▁freeze	-10831
▁spoken	-10832
▁winter	-10833
astricht	-10834
oliberal	-10835
▁Baghdad	-10836
▁Celsius	-10837
▁assured	-10838
▁clearer	-10839
▁credits	-10840
▁endured	-10841
▁penalty	-10842
▁Military	-10843
▁Olympics	-10844
▁activism	-10845
▁backdrop	-10846
▁feedback	-10847
▁selected	-10848
▁champions	-10849
▁Yugoslavia	-10850
▁atrocities	-10851
▁emphasizes	-10852
▁ministries	-10853
▁trafficking	-10854
As	-10855
fty	-10856
▁odd	-10857
emate	-10858
ports	-10859
rants	-10860
ricts	-10861
▁Ever	-10862
▁Flor	-10863
▁Need	-10864
▁Step	-10865
▁Well	-10866
▁cush	-10867
▁dual	-10868
▁forb	-10869
▁inse	-10870
▁medd	-10871
▁obsc	-10872
▁ring	-10873
▁2050,	-10874
▁Alban	-10875
▁Sinai	-10876
▁Start	-10877
▁divor	-10878
▁farms	-10879
▁preca	-10880
▁prone	-10881
welfare	-10882
▁Around	-10883
▁Bannon	-10884
▁anyway	-10885
▁evolve	-10886
▁masses	-10887
▁rememb	-10888
▁rivers	-10889
▁safely	-10890
▁stockp	-10891
▁Mandela	-10892
▁Mohamed	-10893
▁Syrians	-10894
▁clarity	-10895
▁coupled	-10896
▁desired	-10897
▁miracle	-10898
▁tighten	-10899
regulated	-10900
▁Everyone	-10901
▁initiate	-10902
▁scarcity	-10903
▁celebrate	-10904
▁execution	-10905
▁statehood	-10906
▁attraction	-10907
▁ostensibly	-10908
▁overlooked	-10909
▁supplement	-10910
▁communicate	-10911
▁destabilize	-10912
▁restricting	-10913
▁retaliation	-10914
▁indefinitely	-10915
▁strategically	-10916
SB	-10917
han	-10918
obs	-10919
unc	-10920
▁AT	-10921
▁GM	-10922
▁Ol	-10923
exas	-10924
good	-10925
kind	-10926
uble	-10927
▁12%	-10928
▁Dal	-10929
▁Imm	-10930
▁aro	-10931
▁1991	-10932
▁1999	-10933
▁Dani	-10934
▁Mold	-10935
▁OPEC	-10936
▁copy	-10937
▁urge	-10938
determ	-10939
incial	-10940
inians	-10941
▁Could	-10942
▁booms	-10943
▁borne	-10944
▁cruel	-10945
▁fract	-10946
riminal	-10947
▁Bundes	-10948
▁Regard	-10949
▁Rousse	-10950
▁affair	-10951
▁anonym	-10952
▁cultiv	-10953
▁oversh	-10954
illusion	-10955
▁apparat	-10956
▁cynical	-10957
▁hardest	-10958
▁holders	-10959
▁provoke	-10960
▁tighter	-10961
▁Scottish	-10962
▁comments	-10963
▁reminded	-10964
▁traction	-10965
▁wherever	-10966
▁Ayatollah	-10967
▁collected	-10968
▁districts	-10969
▁excellent	-10970
▁injustice	-10971
▁necessity	-10972
▁Maastricht	-10973
▁advocating	-10974
▁anticipate	-10975
▁behavioral	-10976
▁convenient	-10977
▁insistence	-10978
▁sentiments	-10979
▁concentrate	-10980
▁contentious	-10981
▁contributes	-10982
▁controversy	-10983
▁eradication	-10984
▁resolutions	-10985
▁revelations	-10986
▁technocrats	-10987
▁vaccination	-10988
▁assassination	-10989
▁systematically	-10990
-5	-10991
DB	-10992
ps	-10993
ano	-10994
upp	-10995
000,	-10996
appy	-10997
iege	-10998
prop	-10999
stop	-11000
▁Mem	-11001
▁Rio	-11002
▁SAN	-11003
▁Sor	-11004
▁haw	-11005
apter	-11006
chain	-11007
icket	-11008
▁Star	-11009
solete	-11010
urning	-11011
▁Euras	-11012
▁cance	-11013
▁drone	-11014
▁exped	-11015
▁fires	-11016
arendra	-11017
▁Calder	-11018
▁Instit	-11019
▁Manuel	-11020
▁desert	-11021
▁physic	-11022
▁revolt	-11023
▁scores	-11024
▁season	-11025
▁triple	-11026
icularly	-11027
▁Looking	-11028
▁Workers	-11029
▁bridges	-11030
▁ensures	-11031
▁fallout	-11032
▁minutes	-11033
▁morally	-11034
▁reaches	-11035
▁rivalry	-11036
prisingly	-11037
▁Contrary	-11038
▁instruct	-11039
▁magazine	-11040
▁outweigh	-11041
▁preceded	-11042
▁salaries	-11043
▁reinvigor	-11044
▁reversing	-11045
▁substance	-11046
▁casualties	-11047
▁compounded	-11048
▁historians	-11049
▁indirectly	-11050
▁successive	-11051
▁unresolved	-11052
▁appointment	-11053
▁humiliation	-11054
▁environments	-11055
▁Revolutionary	-11056
uay	-11057
▁BO	-11058
▁et	-11059
edge	-11060
fulf	-11061
resa	-11062
▁150	-11063
▁Dub	-11064
▁dil	-11065
▁ham	-11066
blown	-11067
eller	-11068
▁Cauc	-11069
▁Tian	-11070
▁nutr	-11071
issile	-11072
reason	-11073
▁1990,	-11074
▁1997,	-11075
▁2000.	-11076
▁Texas	-11077
▁Using	-11078
▁conqu	-11079
▁floor	-11080
▁forum	-11081
▁frict	-11082
defined	-11083
▁Darfur	-11084
▁betray	-11085
▁Bitcoin	-11086
▁bearing	-11087
▁fortune	-11088
▁ignores	-11089
▁mineral	-11090
▁obliged	-11091
▁smoking	-11092
▁violate	-11093
▁Narendra	-11094
▁linkages	-11095
▁modified	-11096
▁reviving	-11097
▁scandals	-11098
▁universe	-11099
especially	-11100
▁Abenomics	-11101
▁compelled	-11102
▁democrats	-11103
▁satellite	-11104
▁suspected	-11105
▁committing	-11106
▁fulfilling	-11107
▁preventive	-11108
▁reunification	-11109
▁Administration	-11110
bl	-11111
ales	-11112
enda	-11113
igil	-11114
lose	-11115
obil	-11116
uddh	-11117
▁Ice	-11118
▁Pat	-11119
▁PiS	-11120
acies	-11121
▁Biny	-11122
▁Life	-11123
▁bell	-11124
▁hast	-11125
▁ride	-11126
lywood	-11127
perial	-11128
ushima	-11129
▁dealt	-11130
▁trees	-11131
nuclear	-11132
▁Mechan	-11133
balanced	-11134
▁Florida	-11135
▁Society	-11136
▁aligned	-11137
▁existed	-11138
▁oversee	-11139
▁regards	-11140
▁Progress	-11141
▁consumed	-11142
▁disposal	-11143
▁dividend	-11144
▁stressed	-11145
▁violated	-11146
▁Euroskept	-11147
▁Hungarian	-11148
▁contribut	-11149
▁criticize	-11150
▁describes	-11151
▁exceeding	-11152
▁forefront	-11153
▁liberties	-11154
▁nightmare	-11155
▁somewhere	-11156
otechnology	-11157
▁portfolios	-11158
▁positioned	-11159
▁responsive	-11160
▁Politicians	-11161
▁forthcoming	-11162
▁imagination	-11163
▁publication	-11164
▁stimulating	-11165
▁displacement	-11166
aku	-11167
iza	-11168
opt	-11169
blem	-11170
▁Dec	-11171
▁Ide	-11172
▁bea	-11173
sider	-11174
urate	-11175
wered	-11176
▁Belt	-11177
▁Rest	-11178
▁Zhou	-11179
▁band	-11180
▁stub	-11181
acious	-11182
engine	-11183
▁Buddh	-11184
▁Peter	-11185
▁embar	-11186
inkable	-11187
ropical	-11188
seekers	-11189
ussions	-11190
▁cement	-11191
▁shield	-11192
breaking	-11193
▁Imagine	-11194
▁battles	-11195
▁earning	-11196
▁inherit	-11197
▁pledges	-11198
▁therapy	-11199
elligence	-11200
▁Margaret	-11201
▁Medicare	-11202
▁concepts	-11203
▁determin	-11204
▁drinking	-11205
▁gathered	-11206
▁headline	-11207
▁instance	-11208
▁persists	-11209
functioning	-11210
▁Ukrainians	-11211
▁homeowners	-11212
▁peacefully	-11213
▁provincial	-11214
▁surrounded	-11215
▁restoration	-11216
▁explanations	-11217
▁indifference	-11218
▁decentralized	-11219
▁organizational	-11220
FP	-11221
QE	-11222
dis	-11223
inf	-11224
via	-11225
▁(2	-11226
▁ax	-11227
arre	-11228
aved	-11229
ilip	-11230
prot	-11231
role	-11232
▁($1	-11233
▁Ext	-11234
▁Mel	-11235
gical	-11236
iller	-11237
▁akin	-11238
▁echo	-11239
▁fake	-11240
▁nerv	-11241
▁rage	-11242
cribed	-11243
enment	-11244
requis	-11245
utable	-11246
▁2018,	-11247
▁2020,	-11248
▁Maybe	-11249
▁Young	-11250
▁chart	-11251
▁maybe	-11252
▁royal	-11253
▁McCain	-11254
▁insurg	-11255
▁judged	-11256
▁lesser	-11257
▁suited	-11258
Semitism	-11259
capacity	-11260
▁Equally	-11261
▁William	-11262
▁clinics	-11263
▁manager	-11264
▁allocate	-11265
▁emotions	-11266
▁obsolete	-11267
▁stubborn	-11268
▁assertive	-11269
▁comprises	-11270
▁everybody	-11271
▁mandatory	-11272
▁mobilized	-11273
▁orthodoxy	-11274
▁relevance	-11275
▁dimensions	-11276
▁profoundly	-11277
▁relentless	-11278
▁cosmopolitan	-11279
-9	-11280
▁¥	-11281
non	-11282
oup	-11283
rey	-11284
▁Ko	-11285
▁Lu	-11286
UNIC	-11287
ecut	-11288
ften	-11289
icit	-11290
rend	-11291
▁Liu	-11292
▁ath	-11293
icate	-11294
icked	-11295
ringe	-11296
rones	-11297
spons	-11298
▁Left	-11299
▁Tanz	-11300
▁boys	-11301
▁leap	-11302
▁poet	-11303
▁soci	-11304
▁west	-11305
▁Guant	-11306
▁calam	-11307
▁intra	-11308
▁irrig	-11309
▁river	-11310
▁swept	-11311
ifiable	-11312
ignific	-11313
itizens	-11314
oidable	-11315
reating	-11316
▁Libyan	-11317
▁boards	-11318
▁firing	-11319
▁influx	-11320
▁lethal	-11321
▁sensit	-11322
▁storms	-11323
▁switch	-11324
▁tended	-11325
regional	-11326
▁Liberia	-11327
▁stepped	-11328
rudential	-11329
▁Binyamin	-11330
▁Children	-11331
▁flooding	-11332
▁sciences	-11333
▁Fukushima	-11334
▁beautiful	-11335
▁distorted	-11336
▁reformers	-11337
▁stalemate	-11338
▁suspended	-11339
▁accumulate	-11340
▁recipients	-11341
▁exaggerated	-11342
▁inspiration	-11343
▁interpreted	-11344
▁personality	-11345
▁theoretical	-11346
VID	-11347
pts	-11348
rev	-11349
rig	-11350
rip	-11351
sub	-11352
neum	-11353
quir	-11354
uits	-11355
▁Def	-11356
▁Ins	-11357
▁Kir	-11358
▁SWF	-11359
▁Tob	-11360
Claud	-11361
cular	-11362
orbyn	-11363
roots	-11364
tered	-11365
▁AIIB	-11366
▁Oslo	-11367
▁blog	-11368
▁mini	-11369
▁rapp	-11370
Claude	-11371
risome	-11372
roleum	-11373
uminum	-11374
▁1991,	-11375
▁About	-11376
▁Parad	-11377
▁arrog	-11378
▁digit	-11379
▁movie	-11380
▁overl	-11381
▁quasi	-11382
▁sever	-11383
▁spark	-11384
▁theme	-11385
umption	-11386
ustomed	-11387
▁Gaulle	-11388
▁ancest	-11389
▁insure	-11390
▁nostal	-11391
▁outset	-11392
▁patron	-11393
▁ranked	-11394
▁rounds	-11395
▁thwart	-11396
▁wouldn	-11397
▁Bahrain	-11398
▁Certain	-11399
▁Theresa	-11400
▁contend	-11401
▁evasion	-11402
▁explore	-11403
▁passage	-11404
olidarity	-11405
▁agreeing	-11406
▁consists	-11407
▁examined	-11408
▁exporter	-11409
▁guerrill	-11410
▁navigate	-11411
▁pointing	-11412
▁sentence	-11413
▁spurring	-11414
▁thriving	-11415
▁channeled	-11416
▁exhausted	-11417
▁privilege	-11418
▁realizing	-11419
▁revealing	-11420
▁socialism	-11421
▁worldview	-11422
▁worrisome	-11423
▁prediction	-11424
▁remembered	-11425
▁procurement	-11426
▁residential	-11427
▁unrealistic	-11428
▁irreversible	-11429
SR	-11430
”;	-11431
iar	-11432
”).	-11433
Iran	-11434
eneg	-11435
▁BoE	-11436
▁Ris	-11437
▁Rog	-11438
▁mad	-11439
▁sat	-11440
itage	-11441
ivial	-11442
winds	-11443
▁$500	-11444
▁1992	-11445
▁laud	-11446
▁murd	-11447
▁plut	-11448
▁unim	-11449
reated	-11450
▁Small	-11451
▁aston	-11452
▁doors	-11453
▁secre	-11454
itement	-11455
service	-11456
▁Confuc	-11457
▁Corbyn	-11458
▁Modern	-11459
▁counts	-11460
secutive	-11461
▁helicop	-11462
▁hostage	-11463
▁illustr	-11464
▁insists	-11465
▁optimal	-11466
▁rebound	-11467
▁Calderón	-11468
▁commerce	-11469
▁customer	-11470
▁hardline	-11471
▁impeding	-11472
▁resigned	-11473
▁impending	-11474
▁secession	-11475
▁Bundesbank	-11476
▁distressed	-11477
▁geographic	-11478
▁insolvency	-11479
▁mitigating	-11480
▁privileged	-11481
▁reconsider	-11482
▁allegations	-11483
▁conditional	-11484
▁consecutive	-11485
▁forecasting	-11486
▁perpetrators	-11487
▁complementary	-11488
PJ	-11489
▁CH	-11490
▁EM	-11491
euro	-11492
list	-11493
pora	-11494
seen	-11495
▁11%	-11496
▁Ent	-11497
▁MIL	-11498
▁pin	-11499
anged	-11500
borne	-11501
heres	-11502
inked	-11503
▁1998	-11504
▁Adam	-11505
▁Hugo	-11506
▁Stra	-11507
▁swap	-11508
▁Dream	-11509
▁Hence	-11510
▁Renzi	-11511
▁Stock	-11512
▁agent	-11513
▁color	-11514
▁defer	-11515
▁envis	-11516
▁infer	-11517
▁smugg	-11518
▁vigil	-11519
▁Syriza	-11520
▁batter	-11521
▁compel	-11522
▁devote	-11523
▁doomed	-11524
▁fabric	-11525
▁speaks	-11526
▁stores	-11527
▁wishes	-11528
majority	-11529
▁embargo	-11530
▁pressed	-11531
▁strains	-11532
▁substit	-11533
▁transit	-11534
sponsored	-11535
▁Canadian	-11536
▁clearing	-11537
▁innovate	-11538
▁militant	-11539
▁operates	-11540
▁illnesses	-11541
▁immigrant	-11542
▁privately	-11543
▁collapsing	-11544
▁compatible	-11545
▁enormously	-11546
▁registered	-11547
▁supportive	-11548
▁adversaries	-11549
▁disillusion	-11550
▁proposition	-11551
▁Historically	-11552
▁subsidiaries	-11553
▁totalitarian	-11554
▁consequential	-11555
▁understandably	-11556
/1	-11557
awi	-11558
kew	-11559
mir	-11560
reb	-11561
hips	-11562
lege	-11563
ules	-11564
xual	-11565
▁$20	-11566
▁Kac	-11567
▁Ram	-11568
▁Tam	-11569
▁Yas	-11570
▁dat	-11571
UNICH	-11572
ammar	-11573
enter	-11574
ourge	-11575
rates	-11576
reach	-11577
umbai	-11578
▁Kenn	-11579
▁TTIP	-11580
▁Trad	-11581
▁butt	-11582
▁jail	-11583
▁medi	-11584
▁rush	-11585
▁webs	-11586
itated	-11587
utting	-11588
▁Boris	-11589
▁Money	-11590
▁Short	-11591
▁delic	-11592
▁tries	-11593
balance	-11594
▁MUNICH	-11595
▁Michel	-11596
▁Oxford	-11597
▁dreams	-11598
▁guilty	-11599
▁Muammar	-11600
▁Ottoman	-11601
▁Service	-11602
▁anxious	-11603
▁courses	-11604
▁cryptoc	-11605
▁destiny	-11606
▁fleeing	-11607
▁renewal	-11608
▁specter	-11609
▁Regional	-11610
▁aluminum	-11611
▁incurred	-11612
▁strictly	-11613
▁stunning	-11614
▁succeeds	-11615
▁Eurobonds	-11616
▁prerequis	-11617
▁uncomfort	-11618
▁Inequality	-11619
▁calculated	-11620
▁categories	-11621
▁conspiracy	-11622
▁exploiting	-11623
▁internally	-11624
▁manipulate	-11625
▁mitigation	-11626
▁description	-11627
▁shareholder	-11628
▁unthinkable	-11629
▁Conservatives	-11630
LA	-11631
OA	-11632
PD	-11633
SF	-11634
TB	-11635
ta	-11636
ald	-11637
gue	-11638
anch	-11639
bene	-11640
gone	-11641
laim	-11642
▁Rod	-11643
▁Tim	-11644
▁gal	-11645
▁sla	-11646
acked	-11647
antil	-11648
child	-11649
roche	-11650
utive	-11651
▁Fram	-11652
▁Resp	-11653
Muslim	-11654
▁1979,	-11655
▁Large	-11656
▁Sadly	-11657
▁brave	-11658
▁cloud	-11659
▁drama	-11660
▁freer	-11661
▁Agenda	-11662
▁insult	-11663
▁lasted	-11664
▁visits	-11665
children	-11666
resource	-11667
▁Jacques	-11668
▁Protest	-11669
▁broaden	-11670
▁exclude	-11671
▁footing	-11672
▁forming	-11673
▁hearing	-11674
▁herself	-11675
▁husband	-11676
▁inspect	-11677
▁outsize	-11678
▁quietly	-11679
▁refrain	-11680
▁revital	-11681
▁trivial	-11682
▁unleash	-11683
icultural	-11684
political	-11685
▁Managing	-11686
▁Nowadays	-11687
▁attended	-11688
▁centered	-11689
▁contempt	-11690
▁executed	-11691
▁missions	-11692
▁blueprint	-11693
▁correctly	-11694
▁denounced	-11695
▁pessimism	-11696
▁capitalize	-11697
▁discussing	-11698
▁rebuilding	-11699
▁suspicious	-11700
▁witnessing	-11701
▁genetically	-11702
▁withdrawing	-11703
▁socioeconomic	-11704
▁underestimate	-11705
vo	-11706
ows	-11707
ule	-11708
etus	-11709
igue	-11710
keep	-11711
▁$40	-11712
▁Nav	-11713
▁coc	-11714
eness	-11715
iency	-11716
ipras	-11717
ister	-11718
▁1967	-11719
▁1979	-11720
▁IPCC	-11721
▁Snow	-11722
▁Uber	-11723
▁cert	-11724
▁dias	-11725
▁drew	-11726
rapped	-11727
▁fever	-11728
▁inval	-11729
▁pecul	-11730
Qaddafi	-11731
▁Caucas	-11732
▁detail	-11733
▁thrown	-11734
▁Tsipras	-11735
▁anytime	-11736
▁arrival	-11737
▁barrier	-11738
▁gravity	-11739
▁guiding	-11740
▁nervous	-11741
▁nominee	-11742
▁priorit	-11743
▁profile	-11744
▁turnout	-11745
rochement	-11746
▁metaphor	-11747
▁reformed	-11748
▁constrain	-11749
▁eradicate	-11750
▁withdrawn	-11751
▁Technology	-11752
▁constraint	-11753
▁delegation	-11754
▁diagnostic	-11755
▁subsidized	-11756
▁emphasizing	-11757
▁intelligent	-11758
▁intervening	-11759
▁unavoidable	-11760
IR	-11761
▁NT	-11762
▁ox	-11763
osni	-11764
raid	-11765
▁$3.	-11766
▁Fox	-11767
▁Tea	-11768
▁pit	-11769
▁upt	-11770
abled	-11771
eling	-11772
ienna	-11773
lance	-11774
liest	-11775
osity	-11776
otion	-11777
▁1995	-11778
▁HONG	-11779
▁KONG	-11780
▁NCDs	-11781
▁Stat	-11782
▁bird	-11783
▁rall	-11784
anches	-11785
liners	-11786
member	-11787
▁1950’	-11788
▁Costa	-11789
▁Hosni	-11790
▁chess	-11791
▁drain	-11792
▁havoc	-11793
▁onset	-11794
▁sober	-11795
▁spike	-11796
▁Anyone	-11797
▁Credit	-11798
▁Mumbai	-11799
▁branch	-11800
▁merits	-11801
▁resume	-11802
▁silver	-11803
▁tribun	-11804
entially	-11805
▁Critics	-11806
▁Iceland	-11807
▁Moldova	-11808
▁acquies	-11809
▁foolish	-11810
▁reacted	-11811
▁Reinhart	-11812
▁affluent	-11813
▁defenses	-11814
▁efficacy	-11815
▁finished	-11816
▁killings	-11817
▁patience	-11818
▁talented	-11819
▁Achieving	-11820
▁oligarchs	-11821
▁surpassed	-11822
▁competence	-11823
▁distribute	-11824
▁personally	-11825
▁technically	-11826
▁Independence	-11827
▁headquarters	-11828
▁occasionally	-11829
▁predominantly	-11830
MEs	-11831
ady	-11832
ede	-11833
”),	-11834
chev	-11835
feld	-11836
heid	-11837
held	-11838
host	-11839
inis	-11840
iped	-11841
moon	-11842
pace	-11843
zhen	-11844
▁Cro	-11845
▁Lag	-11846
▁pes	-11847
found	-11848
inery	-11849
peror	-11850
roika	-11851
▁$200	-11852
▁Area	-11853
▁Silk	-11854
▁Zion	-11855
▁adds	-11856
▁harb	-11857
▁ling	-11858
irates	-11859
izarre	-11860
orking	-11861
▁2050.	-11862
▁Anglo	-11863
▁backs	-11864
▁pneum	-11865
certain	-11866
▁Castro	-11867
▁commem	-11868
▁dismal	-11869
▁enjoys	-11870
▁hosted	-11871
▁overst	-11872
ortunate	-11873
utionary	-11874
▁Poverty	-11875
▁counted	-11876
▁demagog	-11877
▁handled	-11878
▁overest	-11879
▁payroll	-11880
▁refuses	-11881
▁totally	-11882
▁watched	-11883
▁Caucasus	-11884
▁confused	-11885
▁flourish	-11886
▁outdated	-11887
▁perverse	-11888
▁prestige	-11889
▁reactors	-11890
▁rigorous	-11891
▁skeptics	-11892
▁uprising	-11893
▁balancing	-11894
▁competent	-11895
▁confusion	-11896
▁governors	-11897
▁leveraged	-11898
▁modernize	-11899
▁organisms	-11900
▁outbreaks	-11901
▁recipient	-11902
▁satisfied	-11903
▁workplace	-11904
▁Regardless	-11905
▁accustomed	-11906
▁convention	-11907
▁dependency	-11908
▁groundwork	-11909
▁appreciated	-11910
▁businessmen	-11911
▁empowerment	-11912
▁ingredients	-11913
▁inhabitants	-11914
▁legislators	-11915
▁materialize	-11916
▁respondents	-11917
Proliferation	-11918
▁disadvantage	-11919
▁perspectives	-11920
▁dictatorships	-11921
▁exceptionally	-11922
▁unfortunately	-11923
De	-11924
ST	-11925
ha	-11926
kh	-11927
ads	-11928
lie	-11929
map	-11930
▁90	-11931
▁du	-11932
CPOA	-11933
arth	-11934
clos	-11935
flow	-11936
▁Low	-11937
▁lik	-11938
▁owe	-11939
▁tor	-11940
imity	-11941
irmed	-11942
issue	-11943
yield	-11944
▁Land	-11945
▁chol	-11946
▁glim	-11947
▁lest	-11948
▁nurs	-11949
comers	-11950
public	-11951
▁2,000	-11952
▁Cypri	-11953
▁Force	-11954
▁Macri	-11955
▁Major	-11956
▁lucky	-11957
▁rever	-11958
▁hungry	-11959
▁impart	-11960
▁miscon	-11961
▁nearby	-11962
▁unjust	-11963
payments	-11964
property	-11965
▁College	-11966
▁debated	-11967
▁elusive	-11968
▁ensuing	-11969
▁leftist	-11970
▁officer	-11971
▁outlays	-11972
▁plagued	-11973
▁reprodu	-11974
▁shouldn	-11975
▁signing	-11976
▁Eurozone	-11977
▁extremes	-11978
▁hypothes	-11979
▁imprison	-11980
▁markedly	-11981
▁proceeds	-11982
▁protocol	-11983
▁standoff	-11984
▁fragility	-11985
▁insolvent	-11986
▁rebellion	-11987
▁Eventually	-11988
▁achievable	-11989
▁commentary	-11990
▁complained	-11991
▁correction	-11992
▁reassuring	-11993
▁conflicting	-11994
▁correlation	-11995
▁tuberculosis	-11996
▁mismanagement	-11997
▁constituencies	-11998
lan	-11999
rah	-12000
san	-12001
vio	-12002
▁Je	-12003
▁Py	-12004
help	-12005
namo	-12006
play	-12007
▁1.2	-12008
aires	-12009
anmen	-12010
chant	-12011
group	-12012
ánamo	-12013
▁Bulg	-12014
▁Drug	-12015
▁Salv	-12016
▁Thai	-12017
▁ages	-12018
▁boyc	-12019
▁culp	-12020
▁hamp	-12021
▁mine	-12022
▁owes	-12023
▁exert	-12024
▁globe	-12025
▁inert	-12026
▁steam	-12027
▁title	-12028
▁vowed	-12029
▁Khrush	-12030
▁clever	-12031
▁comply	-12032
▁hybrid	-12033
▁praise	-12034
▁squand	-12035
▁underw	-12036
▁worthy	-12037
▁writer	-12038
▁Malaria	-12039
▁bizarre	-12040
▁cushion	-12041
▁educate	-12042
▁embassy	-12043
▁summits	-12044
▁surging	-12045
immigrant	-12046
▁asserted	-12047
▁evaluate	-12048
▁perceive	-12049
▁promotes	-12050
▁stopping	-12051
▁studying	-12052
▁upheaval	-12053
▁Christmas	-12054
▁Mechanism	-12055
▁broadband	-12056
▁directors	-12057
▁enshrined	-12058
▁explosive	-12059
▁incidents	-12060
▁machinery	-12061
▁persuaded	-12062
▁postponed	-12063
▁surrender	-12064
▁Khrushchev	-12065
▁capacities	-12066
▁explaining	-12067
▁jeopardize	-12068
▁objections	-12069
▁quantities	-12070
▁tendencies	-12071
▁calculation	-12072
▁signatories	-12073
▁undertaking	-12074
▁deficiencies	-12075
▁peacekeeping	-12076
▁distributional	-12077
dem	-12078
▁ze	-12079
aint	-12080
ourg	-12081
paid	-12082
rows	-12083
scar	-12084
▁45%	-12085
▁luc	-12086
▁mel	-12087
▁ves	-12088
heads	-12089
stein	-12090
▁Dise	-12091
▁Kiss	-12092
▁Stig	-12093
▁hall	-12094
▁lock	-12095
▁tank	-12096
rawing	-12097
struct	-12098
▁COVID	-12099
▁Istan	-12100
▁brill	-12101
▁deple	-12102
▁holid	-12103
▁shall	-12104
▁slack	-12105
uctions	-12106
▁Vienna	-12107
▁anchor	-12108
▁burned	-12109
▁makers	-12110
▁misery	-12111
▁oldest	-12112
▁overhe	-12113
▁picked	-12114
▁remedy	-12115
▁reperc	-12116
▁tactic	-12117
Japanese	-12118
▁Kashmir	-12119
▁Overall	-12120
▁faction	-12121
▁fiction	-12122
▁impasse	-12123
▁invaded	-12124
▁permits	-12125
▁preempt	-12126
▁proflig	-12127
▁Istanbul	-12128
▁Tanzania	-12129
▁crossing	-12130
▁narrowly	-12131
▁resemble	-12132
▁sacrific	-12133
▁Argentine	-12134
▁Economist	-12135
▁pipelines	-12136
▁subjected	-12137
▁Guantánamo	-12138
▁pronounced	-12139
▁prohibition	-12140
▁realization	-12141
▁susceptible	-12142
▁underscores	-12143
▁unfortunate	-12144
▁exacerbating	-12145
▁reproductive	-12146
▁underpinning	-12147
▁unwillingness	-12148
isi	-12149
urk	-12150
▁Bu	-12151
▁Ho	-12152
acit	-12153
star	-12154
▁400	-12155
▁MIT	-12156
▁Min	-12157
▁RMB	-12158
▁unb	-12159
▁upd	-12160
5,000	-12161
chers	-12162
eters	-12163
ework	-12164
fuels	-12165
lived	-12166
overy	-12167
ucing	-12168
▁Conc	-12169
▁Wild	-12170
▁busy	-12171
▁user	-12172
decade	-12173
fueled	-12174
handed	-12175
inence	-12176
inning	-12177
target	-12178
unting	-12179
▁Impro	-12180
▁Monti	-12181
▁Seoul	-12182
▁Turks	-12183
▁centr	-12184
▁posts	-12185
▁theor	-12186
▁tyran	-12187
ecutive	-12188
▁Accord	-12189
▁Higher	-12190
▁clause	-12191
▁motion	-12192
▁render	-12193
▁virtue	-12194
thinking	-12195
▁counsel	-12196
▁derived	-12197
▁dictate	-12198
▁fantasy	-12199
▁varying	-12200
▁envision	-12201
▁obtained	-12202
▁Francisco	-12203
▁apparatus	-12204
▁headwinds	-12205
▁notorious	-12206
▁repayment	-12207
established	-12208
▁absolutely	-12209
▁intervened	-12210
▁majorities	-12211
▁mobilizing	-12212
▁precarious	-12213
▁prohibited	-12214
▁proponents	-12215
▁questioned	-12216
▁reinforces	-12217
▁repressive	-12218
▁structured	-12219
▁turbulence	-12220
▁persecution	-12221
▁specialized	-12222
▁substantive	-12223
▁superiority	-12224
globalization	-12225
▁Intelligence	-12226
▁highlighting	-12227
▁inconsistent	-12228
▁systemically	-12229
▁Transatlantic	-12230
▁rapprochement	-12231
▁repercussions	-12232
▁fundamentalism	-12233
▁transformative	-12234
▁£	-12235
ORE	-12236
ali	-12237
jan	-12238
acle	-12239
aque	-12240
litz	-12241
pins	-12242
▁1.3	-12243
▁13%	-12244
▁Fac	-12245
▁Hay	-12246
▁cam	-12247
▁gay	-12248
▁hij	-12249
▁rus	-12250
amous	-12251
apped	-12252
books	-12253
chest	-12254
eless	-12255
month	-12256
there	-12257
▁Alas	-12258
▁Vict	-12259
▁belt	-12260
▁glut	-12261
▁page	-12262
▁tant	-12263
▁unve	-12264
▁woes	-12265
killed	-12266
▁datab	-12267
▁shore	-12268
▁spell	-12269
▁unden	-12270
▁verge	-12271
▁walls	-12272
changed	-12273
irected	-12274
itively	-12275
▁Rising	-12276
▁Sharif	-12277
▁breath	-12278
▁proves	-12279
▁pulled	-12280
appropri	-12281
berspace	-12282
▁approve	-12283
▁curtail	-12284
▁imposes	-12285
▁intends	-12286
▁longest	-12287
▁passive	-12288
▁slavery	-12289
▁Building	-12290
▁capitals	-12291
▁defended	-12292
▁gridlock	-12293
▁improves	-12294
▁radicals	-12295
▁sympathy	-12296
▁deploying	-12297
▁detention	-12298
▁diffusion	-12299
▁locations	-12300
▁measuring	-12301
▁pluralism	-12302
lightenment	-12303
▁conducting	-12304
▁moderation	-12305
▁predicting	-12306
▁inauguration	-12307
▁prescription	-12308
▁satisfaction	-12309
▁contradictory	-12310
▁investigations	-12311
gi	-12312
▁CP	-12313
▁JP	-12314
lead	-12315
lude	-12316
risy	-12317
▁BOJ	-12318
▁Bes	-12319
▁Hum	-12320
▁bru	-12321
▁rav	-12322
athan	-12323
grown	-12324
ovsky	-12325
▁Hans	-12326
▁Work	-12327
▁boon	-12328
▁cite	-12329
▁hint	-12330
▁hurd	-12331
▁samp	-12332
▁susp	-12333
erable	-12334
riched	-12335
▁2006.	-12336
▁exile	-12337
▁mayor	-12338
▁veter	-12339
Russian	-12340
compass	-12341
▁Compet	-12342
▁Wilson	-12343
▁embark	-12344
▁racism	-12345
▁upside	-12346
▁Britons	-12347
▁Failure	-12348
▁illicit	-12349
▁nurture	-12350
▁plunged	-12351
▁retired	-12352
▁unhappy	-12353
▁viewing	-12354
iological	-12355
▁Cultural	-12356
▁employer	-12357
▁inclined	-12358
▁mountain	-12359
▁overhang	-12360
▁prevails	-12361
▁Kissinger	-12362
▁Tiananmen	-12363
▁admission	-12364
▁diversify	-12365
▁identical	-12366
▁installed	-12367
▁judgments	-12368
▁obsession	-12369
▁resistant	-12370
▁unchanged	-12371
▁Liberation	-12372
▁Solidarity	-12373
▁analytical	-12374
▁automobile	-12375
▁monopolies	-12376
▁privileges	-12377
▁pessimistic	-12378
▁preventable	-12379
▁questioning	-12380
▁speculators	-12381
▁transferred	-12382
▁undervalued	-12383
▁associations	-12384
▁Comprehensive	-12385
▁demonstrators	-12386
▁jurisdictions	-12387
▁disappointment	-12388
No	-12389
RC	-12390
nn	-12391
”?	-12392
ENA	-12393
iya	-12394
lom	-12395
▁Ki	-12396
▁ug	-12397
hend	-12398
otal	-12399
rior	-12400
▁2.5	-12401
▁Ale	-12402
▁Bad	-12403
▁COP	-12404
▁FBI	-12405
▁Hur	-12406
▁Kat	-12407
▁Mun	-12408
▁Tig	-12409
▁mig	-12410
▁tie	-12411
oving	-12412
▁1994	-12413
▁Fear	-12414
▁bull	-12415
▁dece	-12416
▁omin	-12417
▁oust	-12418
▁stir	-12419
▁twin	-12420
fiscal	-12421
imalay	-12422
inable	-12423
▁1998,	-12424
▁Fifth	-12425
▁disse	-12426
▁embry	-12427
▁inner	-12428
▁swaps	-12429
serving	-12430
▁crunch	-12431
▁hearts	-12432
▁meters	-12433
▁suprem	-12434
▁taxing	-12435
iniscent	-12436
▁Challen	-12437
▁adapted	-12438
▁analogy	-12439
▁awarded	-12440
▁bonuses	-12441
▁cleaner	-12442
▁descend	-12443
▁endemic	-12444
▁lagging	-12445
▁realism	-12446
▁talents	-12447
urrencies	-12448
▁Mohammed	-12449
▁Rousseff	-12450
▁depended	-12451
▁enjoying	-12452
▁everyday	-12453
▁precious	-12454
▁Relations	-12455
▁decreased	-12456
▁Management	-12457
▁Resolution	-12458
▁compassion	-12459
▁enrollment	-12460
▁grassroots	-12461
▁imposition	-12462
▁pragmatism	-12463
▁simplistic	-12464
productivity	-12465
▁conferences	-12466
▁imperatives	-12467
▁resignation	-12468
▁Unemployment	-12469
▁artificially	-12470
▁discouraging	-12471
▁geographical	-12472
▁contradiction	-12473
▁disadvantaged	-12474
ED	-12475
ids	-12476
rot	-12477
sol	-12478
usp	-12479
▁Fl	-12480
from	-12481
okes	-12482
viol	-12483
▁2%.	-12484
▁DPJ	-12485
▁III	-12486
▁Jos	-12487
▁KGB	-12488
▁Koh	-12489
▁Len	-12490
▁fee	-12491
ierra	-12492
ivism	-12493
▁Bost	-12494
▁Camp	-12495
▁Deep	-12496
▁Self	-12497
▁dies	-12498
▁ende	-12499
▁epic	-12500
▁ruth	-12501
▁warn	-12502
asures	-12503
estyle	-12504
inston	-12505
isible	-12506
rehend	-12507
supply	-12508
▁drops	-12509
▁inexp	-12510
▁loses	-12511
▁pages	-12512
▁tacit	-12513
▁Strong	-12514
▁Target	-12515
▁Things	-12516
▁banker	-12517
▁broker	-12518
▁device	-12519
▁mature	-12520
▁ratify	-12521
▁traits	-12522
specific	-12523
▁Himalay	-12524
▁Paradox	-12525
▁Winston	-12526
▁crossed	-12527
▁decides	-12528
▁depress	-12529
▁hitting	-12530
▁hopeful	-12531
▁intract	-12532
▁locally	-12533
▁monarch	-12534
▁organic	-12535
▁outward	-12536
▁reactor	-12537
▁symbols	-12538
▁verdict	-12539
▁Services	-12540
▁catalyst	-12541
▁deepened	-12542
▁incoming	-12543
▁maturity	-12544
▁messages	-12545
▁rendered	-12546
▁visiting	-12547
▁alleviate	-12548
▁amendment	-12549
▁frequency	-12550
▁fulfilled	-12551
▁purchased	-12552
▁rebalance	-12553
▁Affordable	-12554
▁credential	-12555
▁divergence	-12556
▁irrigation	-12557
▁manageable	-12558
▁organizing	-12559
▁prevalence	-12560
▁regulating	-12561
▁incompatible	-12562
▁collaborative	-12563
▁distinguished	-12564
EP	-12565
EV	-12566
GH	-12567
00,	-12568
ais	-12569
dog	-12570
hon	-12571
pse	-12572
tra	-12573
▁Ji	-12574
....	-12575
What	-12576
arde	-12577
fast	-12578
greg	-12579
lict	-12580
▁Dom	-12581
▁GNP	-12582
▁Gra	-12583
▁Lux	-12584
▁Nap	-12585
▁Var	-12586
▁Zed	-12587
▁etc	-12588
▁hoc	-12589
ighed	-12590
onies	-12591
popul	-12592
umber	-12593
▁2050	-12594
▁Disc	-12595
▁FARC	-12596
▁bind	-12597
▁dose	-12598
▁skin	-12599
ourced	-12600
▁2018.	-12601
▁Domin	-12602
▁Osama	-12603
▁disen	-12604
▁penet	-12605
▁realm	-12606
▁riots	-12607
▁siege	-12608
arching	-12609
issance	-12610
▁Boston	-12611
▁Nature	-12612
▁Sierra	-12613
▁crowds	-12614
▁dubbed	-12615
▁havens	-12616
▁humili	-12617
▁listed	-12618
▁trauma	-12619
▁metrics	-12620
▁morning	-12621
▁obscure	-12622
▁volunte	-12623
▁Stiglitz	-12624
▁analyses	-12625
▁eligible	-12626
▁embodied	-12627
▁emission	-12628
▁monarchy	-12629
▁provoked	-12630
▁Alexander	-12631
▁Certainly	-12632
▁Framework	-12633
▁Northeast	-12634
▁colleague	-12635
▁disrupted	-12636
▁languages	-12637
▁paralyzed	-12638
▁peninsula	-12639
▁proximity	-12640
▁reformist	-12641
▁submitted	-12642
▁disposable	-12643
▁eighteenth	-12644
▁innovators	-12645
▁oppression	-12646
▁practition	-12647
▁translated	-12648
▁battlefield	-12649
▁constructed	-12650
▁illustrates	-12651
▁proceedings	-12652
▁consultation	-12653
▁transitional	-12654
▁accommodation	-12655
At	-12656
abe	-12657
ero	-12658
gar	-12659
▁29	-12660
▁Ur	-12661
agua	-12662
aund	-12663
mail	-12664
take	-12665
▁16%	-12666
▁Men	-12667
▁sta	-12668
ivest	-12669
maker	-12670
peace	-12671
quiry	-12672
steps	-12673
▁1.5%	-12674
▁Prad	-12675
▁diam	-12676
▁stro	-12677
idding	-12678
ledged	-12679
▁1994,	-12680
▁Nicar	-12681
▁curve	-12682
▁dirty	-12683
▁impul	-12684
▁meets	-12685
▁opted	-12686
▁paths	-12687
▁ruler	-12688
▁sanct	-12689
▁Darwin	-12690
▁afraid	-12691
▁athlet	-12692
▁buffer	-12693
▁embold	-12694
▁hugely	-12695
▁lawyer	-12696
military	-12697
▁Support	-12698
▁Volcker	-12699
▁clashes	-12700
▁coexist	-12701
▁divorce	-12702
▁proving	-12703
▁retains	-12704
▁segment	-12705
▁undergo	-12706
▁weakens	-12707
▁Democrat	-12708
▁Standard	-12709
▁meddling	-12710
▁murdered	-12711
▁psychiat	-12712
▁settings	-12713
▁treasury	-12714
▁avoidance	-12715
▁evidently	-12716
▁lifestyle	-12717
▁penalties	-12718
▁portrayed	-12719
▁resembles	-12720
▁unskilled	-12721
▁varieties	-12722
▁compromised	-12723
▁dismantling	-12724
▁exploration	-12725
▁preoccupied	-12726
▁reminiscent	-12727
▁constituency	-12728
▁enthusiastic	-12729
▁overcapacity	-12730
▁entertainment	-12731
▁extraordinarily	-12732
-6	-12733
MI	-12734
hot	-12735
mes	-12736
ora	-12737
chen	-12738
fits	-12739
imil	-12740
inea	-12741
upid	-12742
▁30-	-12743
▁9/1	-12744
▁Rad	-12745
▁Teh	-12746
luded	-12747
ouses	-12748
äuble	-12749
▁0.5%	-12750
▁Jeff	-12751
▁gift	-12752
▁guns	-12753
▁hect	-12754
▁soul	-12755
▁unsu	-12756
ancies	-12757
▁1992,	-12758
▁Barro	-12759
▁MILAN	-12760
▁bread	-12761
▁fines	-12762
▁naive	-12763
▁stuff	-12764
million	-12765
rection	-12766
sighted	-12767
urances	-12768
▁Warren	-12769
▁bypass	-12770
▁convey	-12771
▁infant	-12772
▁papers	-12773
▁pollut	-12774
▁uneven	-12775
▁unsett	-12776
▁Pradesh	-12777
▁arising	-12778
▁chooses	-12779
▁fertile	-12780
▁manages	-12781
▁repatri	-12782
▁Criminal	-12783
▁coercion	-12784
▁diaspora	-12785
▁elevated	-12786
▁exported	-12787
▁misunder	-12788
▁shopping	-12789
▁subordin	-12790
▁withdrew	-12791
▁Executive	-12792
▁commander	-12793
▁deterrent	-12794
▁disorders	-12795
▁occasions	-12796
▁proactive	-12797
▁procedure	-12798
▁slaughter	-12799
▁spillover	-12800
▁upholding	-12801
▁watershed	-12802
▁celebrated	-12803
▁circumvent	-12804
▁domination	-12805
▁extraction	-12806
▁indicating	-12807
▁literature	-12808
▁wealthiest	-12809
▁Information	-12810
▁diversified	-12811
▁integrating	-12812
▁outsourcing	-12813
▁specialists	-12814
▁strengthens	-12815
▁persistently	-12816
▁questionable	-12817
▁corresponding	-12818
▁demonstration	-12819
▁independently	-12820
▁fundamentalists	-12821
ez	-12822
ato	-12823
hea	-12824
EOUL	-12825
apid	-12826
iral	-12827
plan	-12828
▁Lou	-12829
▁cig	-12830
heric	-12831
rooms	-12832
track	-12833
ulent	-12834
wards	-12835
▁Shah	-12836
▁Tric	-12837
▁tape	-12838
Brazil	-12839
▁Early	-12840
▁Leone	-12841
▁SEOUL	-12842
▁repud	-12843
▁taxed	-12844
▁traum	-12845
▁Madrid	-12846
▁assign	-12847
▁coffee	-12848
▁column	-12849
▁myself	-12850
▁neglig	-12851
▁prolif	-12852
▁reiter	-12853
▁surged	-12854
▁Consequ	-12855
▁advised	-12856
▁orchest	-12857
▁sparked	-12858
reasuries	-12859
▁Schäuble	-12860
▁airports	-12861
▁aversion	-12862
▁bacteria	-12863
▁moreover	-12864
▁protects	-12865
▁Hollywood	-12866
▁Universal	-12867
▁chemicals	-12868
▁computing	-12869
▁designing	-12870
▁inflicted	-12871
▁jihadists	-12872
▁moderates	-12873
▁newcomers	-12874
▁particles	-12875
▁populated	-12876
▁qualities	-12877
▁Individual	-12878
▁classified	-12879
▁continuity	-12880
▁describing	-12881
▁developers	-12882
▁harassment	-12883
▁insurgents	-12884
▁interviews	-12885
▁professors	-12886
▁radicalism	-12887
▁intractable	-12888
▁imprisonment	-12889
▁uncomfortable	-12890
Ab	-12891
NC	-12892
IFA	-12893
aki	-12894
rik	-12895
dest	-12896
emia	-12897
even	-12898
gery	-12899
habi	-12900
▁17%	-12901
▁Ash	-12902
▁Lim	-12903
▁MPs	-12904
▁fur	-12905
▁spl	-12906
arest	-12907
ogene	-12908
▁Rica	-12909
▁Till	-12910
▁Urug	-12911
▁beef	-12912
▁chau	-12913
▁lags	-12914
▁mole	-12915
azeera	-12916
ittees	-12917
ulsion	-12918
▁JCPOA	-12919
▁Joint	-12920
▁endow	-12921
▁energ	-12922
▁faire	-12923
▁peers	-12924
▁rents	-12925
▁scram	-12926
▁widen	-12927
▁Milton	-12928
▁affirm	-12929
▁couldn	-12930
▁drones	-12931
▁endure	-12932
▁forged	-12933
▁incurs	-12934
▁opaque	-12935
▁weekly	-12936
icrobial	-12937
▁augment	-12938
▁beating	-12939
▁shelter	-12940
▁shorter	-12941
▁skyrock	-12942
▁staying	-12943
▁useless	-12944
▁virtues	-12945
▁volumes	-12946
▁Americas	-12947
▁Citizens	-12948
▁abstract	-12949
▁advocacy	-12950
▁divisive	-12951
▁engineer	-12952
▁graduate	-12953
▁jihadist	-12954
▁landmark	-12955
▁peculiar	-12956
▁reassert	-12957
▁senators	-12958
▁sequence	-12959
▁sizeable	-12960
▁taxpayer	-12961
▁Communism	-12962
▁accidents	-12963
▁amounting	-12964
▁exploring	-12965
▁hegemonic	-12966
▁radiation	-12967
▁synthetic	-12968
▁underpins	-12969
▁violating	-12970
▁Innovation	-12971
▁depressing	-12972
▁expressing	-12973
▁neoliberal	-12974
▁successors	-12975
▁Agriculture	-12976
▁acceleration	-12977
▁participated	-12978
▁technologically	-12979
BA	-12980
TT	-12981
can	-12982
ota	-12983
rup	-12984
Year	-12985
inge	-12986
kaku	-12987
tion	-12988
▁Cru	-12989
▁Pot	-12990
▁Slo	-12991
▁geo	-12992
Great	-12993
apego	-12994
craft	-12995
raged	-12996
▁1996	-12997
▁bets	-12998
▁myst	-12999
around	-13000
astics	-13001
ighbor	-13002
ixture	-13003
ouring	-13004
paying	-13005
▁Years	-13006
▁horse	-13007
▁motor	-13008
▁pilot	-13009
▁quota	-13010
▁reloc	-13011
fledged	-13012
instein	-13013
skilled	-13014
ulatory	-13015
▁Luxemb	-13016
▁Silvio	-13017
▁Warsaw	-13018
▁apolog	-13019
▁client	-13020
▁domain	-13021
▁elabor	-13022
▁gamble	-13023
▁glance	-13024
▁puzzle	-13025
▁racist	-13026
▁subtle	-13027
▁surviv	-13028
▁trades	-13029
▁Mueller	-13030
▁Uruguay	-13031
▁crowded	-13032
▁defines	-13033
▁dispers	-13034
▁heating	-13035
▁polling	-13036
▁pulling	-13037
▁rejects	-13038
▁utility	-13039
▁Austrian	-13040
▁composed	-13041
▁deprived	-13042
▁employee	-13043
▁takeover	-13044
▁tropical	-13045
generation	-13046
revolution	-13047
▁asserting	-13048
▁autocrats	-13049
▁defenders	-13050
▁epidemics	-13051
▁invention	-13052
▁logistics	-13053
▁reporters	-13054
▁spiritual	-13055
▁stringent	-13056
▁unfolding	-13057
▁algorithms	-13058
▁announcing	-13059
▁depositors	-13060
▁disorderly	-13061
▁multiplier	-13062
▁automobiles	-13063
▁campaigning	-13064
▁credentials	-13065
▁discoveries	-13066
▁macroeconom	-13067
▁orientation	-13068
▁prosecutors	-13069
▁restrictive	-13070
▁suppression	-13071
▁transmitted	-13072
▁incompetence	-13073
▁precautionary	-13074
ae	-13075
eh	-13076
200	-13077
▁45	-13078
aths	-13079
awat	-13080
grid	-13081
ihil	-13082
inqu	-13083
west	-13084
▁22%	-13085
▁28%	-13086
▁Adv	-13087
▁Beg	-13088
▁Cap	-13089
▁Rab	-13090
▁Rob	-13091
▁Ven	-13092
▁awa	-13093
▁lev	-13094
South	-13095
aware	-13096
icter	-13097
inate	-13098
▁Dist	-13099
▁Hass	-13100
▁Mitt	-13101
▁dust	-13102
▁owed	-13103
▁ruin	-13104
▁skew	-13105
▁sway	-13106
▁zeal	-13107
chenko	-13108
placed	-13109
▁Congo	-13110
▁Recon	-13111
▁Which	-13112
▁inequ	-13113
▁owner	-13114
▁recyc	-13115
▁scant	-13116
▁sleep	-13117
angered	-13118
benefit	-13119
hemical	-13120
seeking	-13121
▁10,000	-13122
▁Atomic	-13123
▁Bhutto	-13124
▁Rogoff	-13125
▁armies	-13126
▁caliph	-13127
▁covert	-13128
▁eating	-13129
▁framed	-13130
▁golden	-13131
▁laying	-13132
▁mantra	-13133
▁milest	-13134
▁portra	-13135
▁prosec	-13136
▁talked	-13137
▁uncond	-13138
▁varied	-13139
▁wisely	-13140
▁Armenia	-13141
▁Persian	-13142
▁analyze	-13143
▁beneath	-13144
▁cholera	-13145
▁erratic	-13146
▁impacts	-13147
▁impeded	-13148
▁millenn	-13149
▁moments	-13150
▁picking	-13151
▁squeeze	-13152
▁supreme	-13153
▁tripled	-13154
▁yielded	-13155
▁blessing	-13156
▁branches	-13157
▁brothers	-13158
▁duration	-13159
▁embarked	-13160
▁floating	-13161
▁retained	-13162
▁robotics	-13163
▁stricter	-13164
▁2008-2009	-13165
▁automated	-13166
▁dissatisf	-13167
▁comprehend	-13168
▁critically	-13169
▁imprisoned	-13170
▁liberation	-13171
▁suggestion	-13172
▁coincidence	-13173
▁geopolitics	-13174
▁modernizing	-13175
▁overwhelmed	-13176
▁disappointed	-13177
▁Enlightenment	-13178
▁multicultural	-13179
▁multinationals	-13180
▁experimentation	-13181
90	-13182
arb	-13183
een	-13184
▁Hy	-13185
▁LA	-13186
▁PP	-13187
-198	-13188
Chin	-13189
bing	-13190
game	-13191
hrop	-13192
icot	-13193
▁Pow	-13194
▁dra	-13195
appro	-13196
▁FIFA	-13197
▁Plen	-13198
▁Pres	-13199
▁disd	-13200
acking	-13201
estion	-13202
▁2000’	-13203
▁arena	-13204
▁boats	-13205
▁sorts	-13206
▁upris	-13207
Chinese	-13208
icament	-13209
inating	-13210
politik	-13211
setting	-13212
▁Carter	-13213
▁Little	-13214
▁agrees	-13215
▁boosts	-13216
▁heroic	-13217
▁licens	-13218
▁sacred	-13219
▁strang	-13220
▁submit	-13221
▁unimag	-13222
▁plastic	-13223
▁presupp	-13224
▁qualify	-13225
▁risking	-13226
▁shocked	-13227
president	-13228
▁Consumer	-13229
▁Emirates	-13230
▁combines	-13231
▁dividing	-13232
▁exciting	-13233
▁fortunes	-13234
▁handling	-13235
▁homeland	-13236
▁punished	-13237
▁rewarded	-13238
▁sanction	-13239
▁societal	-13240
▁tempting	-13241
▁Catholics	-13242
▁Nicaragua	-13243
▁Obamacare	-13244
▁civilized	-13245
▁collapses	-13246
▁donations	-13247
▁lucrative	-13248
▁polarized	-13249
▁resisting	-13250
▁screening	-13251
▁uprisings	-13252
▁victories	-13253
▁accordance	-13254
▁disclosure	-13255
▁engineered	-13256
▁functional	-13257
▁resurgence	-13258
▁sacrifices	-13259
▁observation	-13260
▁persistence	-13261
determination	-13262
▁accumulating	-13263
▁jeopardizing	-13264
▁prerequisite	-13265
▁inclusiveness	-13266
Ob	-13267
fl	-13268
ür	-13269
ado	-13270
ams	-13271
bes	-13272
mit	-13273
umi	-13274
▁OX	-13275
abao	-13276
ifts	-13277
lood	-13278
post	-13279
warf	-13280
▁18%	-13281
▁Nik	-13282
▁ans	-13283
▁bom	-13284
▁din	-13285
▁sab	-13286
arted	-13287
downs	-13288
erved	-13289
▁Case	-13290
▁glac	-13291
▁rede	-13292
▁swit	-13293
▁wood	-13294
▁1995,	-13295
▁Harry	-13296
▁Trust	-13297
▁lofty	-13298
▁magic	-13299
▁stamp	-13300
▁subdu	-13301
estyles	-13302
overing	-13303
▁Balkan	-13304
▁Diplom	-13305
▁Jiabao	-13306
▁Powell	-13307
▁Recogn	-13308
▁Taking	-13309
▁delays	-13310
▁heated	-13311
▁panels	-13312
▁repaid	-13313
▁theirs	-13314
commerce	-13315
▁Jazeera	-13316
▁Morales	-13317
▁blaming	-13318
▁ensured	-13319
▁forging	-13320
▁married	-13321
▁matched	-13322
▁precond	-13323
▁primacy	-13324
▁scapego	-13325
▁simpler	-13326
▁upgrade	-13327
▁vessels	-13328
▁visions	-13329
President	-13330
producing	-13331
▁answered	-13332
▁convened	-13333
▁deadline	-13334
▁delicate	-13335
▁horrific	-13336
▁remedies	-13337
▁servants	-13338
▁tailored	-13339
▁traveled	-13340
▁vigilant	-13341
▁vigorous	-13342
confidence	-13343
▁Currently	-13344
▁Governing	-13345
▁Tillerson	-13346
▁acquiring	-13347
▁apartheid	-13348
▁conceived	-13349
▁excluding	-13350
▁mercantil	-13351
▁modernity	-13352
▁northeast	-13353
▁tightened	-13354
engineering	-13355
▁influences	-13356
▁pesticides	-13357
▁recovering	-13358
▁advancement	-13359
▁devastation	-13360
▁manipulated	-13361
▁predicament	-13362
▁continuation	-13363
▁civilizations	-13364
▁unilateralism	-13365
▁notwithstanding	-13366
15	-13367
BM	-13368
TPP	-13369
bel	-13370
zai	-13371
▁75	-13372
▁Dr	-13373
▁Du	-13374
Shia	-13375
dent	-13376
iffs	-13377
ifty	-13378
ldom	-13379
olen	-13380
▁$30	-13381
▁85%	-13382
▁Wah	-13383
▁boy	-13384
▁hol	-13385
▁tip	-13386
auses	-13387
cribe	-13388
media	-13389
oters	-13390
▁Ryan	-13391
▁Shen	-13392
▁Sure	-13393
▁buck	-13394
▁cher	-13395
▁hasn	-13396
▁inad	-13397
▁stip	-13398
▁vari	-13399
▁wear	-13400
arming	-13401
fforts	-13402
▁Based	-13403
▁Croat	-13404
▁Larry	-13405
▁Local	-13406
▁Muham	-13407
▁Press	-13408
▁diarr	-13409
▁disgu	-13410
▁heter	-13411
▁lingu	-13412
▁slows	-13413
Semitic	-13414
akening	-13415
osexual	-13416
profile	-13417
▁Guinea	-13418
▁OXFORD	-13419
▁adoles	-13420
▁autumn	-13421
▁contra	-13422
▁fruits	-13423
▁galvan	-13424
▁occupy	-13425
▁pieces	-13426
▁plague	-13427
▁plunge	-13428
▁sister	-13429
▁strife	-13430
▁topics	-13431
aissance	-13432
▁Senkaku	-13433
▁drastic	-13434
▁emotion	-13435
▁fraught	-13436
▁jointly	-13437
▁militia	-13438
▁publish	-13439
▁railway	-13440
▁replied	-13441
continent	-13442
criptions	-13443
ilization	-13444
▁Millions	-13445
▁Orthodox	-13446
▁Slovakia	-13447
▁compound	-13448
▁develops	-13449
▁heritage	-13450
▁relating	-13451
▁retrench	-13452
antitative	-13453
fulfilling	-13454
imicrobial	-13455
▁Confucian	-13456
▁behaviors	-13457
▁encompass	-13458
▁hypocrisy	-13459
▁listening	-13460
▁pneumonia	-13461
▁possesses	-13462
▁referenda	-13463
▁religions	-13464
▁signaling	-13465
▁subsidize	-13466
▁committees	-13467
▁determines	-13468
▁hardliners	-13469
▁hypothesis	-13470
▁maximizing	-13471
▁meaningless	-13472
▁prosecution	-13473
▁underscored	-13474
▁administered	-13475
▁ratification	-13476
▁acknowledging	-13477
▁discretionary	-13478
da	-13479
és	-13480
-15	-13481
aya	-13482
bad	-13483
dep	-13484
iah	-13485
pie	-13486
thy	-13487
bott	-13488
iber	-13489
teen	-13490
tics	-13491
uana	-13492
▁190	-13493
▁Dif	-13494
▁GEN	-13495
▁lav	-13496
▁lov	-13497
birth	-13498
ivist	-13499
urned	-13500
▁1993	-13501
▁Amid	-13502
▁Karl	-13503
▁SWFs	-13504
▁axis	-13505
▁offs	-13506
▁sons	-13507
arctic	-13508
atists	-13509
eville	-13510
linked	-13511
ousing	-13512
parent	-13513
ronics	-13514
strong	-13515
▁Faced	-13516
▁carri	-13517
▁cheer	-13518
▁crony	-13519
▁dread	-13520
▁dwarf	-13521
▁grapp	-13522
▁merch	-13523
▁recal	-13524
▁shake	-13525
▁stars	-13526
▁stone	-13527
▁theft	-13528
feating	-13529
repared	-13530
▁Tehran	-13531
▁Zedong	-13532
▁famine	-13533
▁futile	-13534
▁intact	-13535
▁livest	-13536
▁spokes	-13537
▁strive	-13538
▁valued	-13539
▁wholes	-13540
▁wholly	-13541
business	-13542
▁Cypriot	-13543
▁Greater	-13544
▁appease	-13545
▁cronies	-13546
▁debacle	-13547
▁gesture	-13548
▁inertia	-13549
▁mixture	-13550
▁tipping	-13551
▁unequiv	-13552
Americans	-13553
▁Refugees	-13554
▁decarbon	-13555
▁enriched	-13556
▁expropri	-13557
▁friction	-13558
▁mandates	-13559
▁operated	-13560
▁populous	-13561
▁punitive	-13562
▁reassure	-13563
▁retirees	-13564
▁textbook	-13565
ranational	-13566
▁Colombian	-13567
▁Migration	-13568
▁assembled	-13569
▁audiences	-13570
▁brutality	-13571
▁combining	-13572
▁confronts	-13573
▁disparate	-13574
▁interrupt	-13575
▁viability	-13576
▁assurances	-13577
▁cyberspace	-13578
▁lifestyles	-13579
▁patriotism	-13580
▁properties	-13581
▁stabilized	-13582
▁unbalanced	-13583
▁valuations	-13584
▁worthwhile	-13585
▁investigate	-13586
▁mathematics	-13587
▁occupations	-13588
▁supervisory	-13589
▁interdependent	-13590
HC	-13591
Tr	-13592
cr	-13593
EVA	-13594
You	-13595
arn	-13596
zyń	-13597
▁37	-13598
▁Ap	-13599
▁MF	-13600
mert	-13601
othe	-13602
reli	-13603
ribe	-13604
sche	-13605
▁EMU	-13606
▁Fam	-13607
▁Moz	-13608
▁ton	-13609
▁von	-13610
There	-13611
intao	-13612
oment	-13613
▁Niet	-13614
▁blat	-13615
▁corn	-13616
▁evac	-13617
▁fans	-13618
▁ferv	-13619
▁hole	-13620
▁milk	-13621
▁sand	-13622
▁ugly	-13623
arther	-13624
modern	-13625
ulates	-13626
▁misal	-13627
▁recru	-13628
▁unamb	-13629
onsense	-13630
oshenko	-13631
versely	-13632
▁Cities	-13633
▁Deputy	-13634
▁Jintao	-13635
▁Kaczyń	-13636
▁allied	-13637
▁biases	-13638
▁brains	-13639
▁covers	-13640
▁flying	-13641
▁mirror	-13642
▁motive	-13643
▁prince	-13644
▁Academy	-13645
▁Protect	-13646
▁anymore	-13647
▁chaotic	-13648
▁dragged	-13649
▁fascism	-13650
▁stretch	-13651
Palestine	-13652
democracy	-13653
terrorism	-13654
▁Facility	-13655
▁Medicaid	-13656
▁counting	-13657
▁district	-13658
▁inconven	-13659
▁severity	-13660
▁supplier	-13661
▁tourists	-13662
▁variable	-13663
▁Antarctic	-13664
▁Strategic	-13665
▁assertion	-13666
▁basically	-13667
▁concludes	-13668
▁livestock	-13669
▁preceding	-13670
▁wealthier	-13671
▁fertilizer	-13672
▁financiers	-13673
▁helicopter	-13674
▁laboratory	-13675
▁multipolar	-13676
particularly	-13677
▁Environment	-13678
▁entitlement	-13679
▁legislature	-13680
▁preparation	-13681
▁sensitivity	-13682
▁experimental	-13683
▁mobilization	-13684
▁neighborhoods	-13685
▁conditionality	-13686
ET	-13687
New	-13688
aro	-13689
azi	-13690
ofi	-13691
ube	-13692
usk	-13693
xon	-13694
▁33	-13695
▁34	-13696
▁36	-13697
▁CF	-13698
ISIS	-13699
hour	-13700
itim	-13701
lant	-13702
yans	-13703
▁14%	-13704
▁FSB	-13705
▁Ill	-13706
▁Kyi	-13707
▁Ros	-13708
▁SDG	-13709
▁Sir	-13710
▁Taj	-13711
▁Way	-13712
▁lax	-13713
▁sed	-13714
asser	-13715
ibaba	-13716
lings	-13717
overe	-13718
setts	-13719
▁2.5%	-13720
▁Gore	-13721
▁SMEs	-13722
▁aven	-13723
▁lean	-13724
▁seed	-13725
▁song	-13726
▁tall	-13727
▁wire	-13728
Russia	-13729
ainted	-13730
collar	-13731
erates	-13732
return	-13733
tariff	-13734
▁2002.	-13735
▁2003.	-13736
▁Child	-13737
▁Guang	-13738
▁cling	-13739
▁films	-13740
▁highs	-13741
▁hosts	-13742
▁hotel	-13743
▁knock	-13744
▁overr	-13745
▁spoil	-13746
athetic	-13747
iscally	-13748
▁Olmert	-13749
▁breach	-13750
▁engulf	-13751
▁misses	-13752
▁shorts	-13753
▁Control	-13754
▁Lagarde	-13755
▁Tibetan	-13756
▁betting	-13757
▁escaped	-13758
▁hosting	-13759
▁intrins	-13760
▁rescued	-13761
▁teacher	-13762
▁toppled	-13763
▁updated	-13764
▁writers	-13765
itionally	-13766
ividually	-13767
organized	-13768
valuation	-13769
▁Muhammad	-13770
▁diplomat	-13771
▁unveiled	-13772
▁virtuous	-13773
▁Catalonia	-13774
▁abundance	-13775
▁candidacy	-13776
▁capturing	-13777
▁convicted	-13778
▁enforcing	-13779
▁fisheries	-13780
▁intensive	-13781
▁occupying	-13782
▁relatives	-13783
▁sidelines	-13784
▁untenable	-13785
▁campaigned	-13786
▁championed	-13787
▁depreciate	-13788
▁disability	-13789
▁incumbents	-13790
▁minimizing	-13791
▁prosecutor	-13792
▁separatist	-13793
▁underscore	-13794
▁contemplate	-13795
▁unregulated	-13796
▁guaranteeing	-13797
CK	-13798
NE	-13799
St	-13800
del	-13801
hew	-13802
opp	-13803
rea	-13804
unk	-13805
▁3,	-13806
▁Fe	-13807
▁Ib	-13808
achu	-13809
inde	-13810
▁$60	-13811
▁10.	-13812
▁JPM	-13813
▁Lev	-13814
▁Xin	-13815
▁hem	-13816
▁lin	-13817
alism	-13818
imony	-13819
mount	-13820
sters	-13821
▁Bure	-13822
▁Clos	-13823
▁Else	-13824
▁Zuma	-13825
▁detr	-13826
▁girl	-13827
▁kids	-13828
▁wart	-13829
hecked	-13830
▁Chern	-13831
▁Exxon	-13832
▁Glass	-13833
▁chick	-13834
▁downs	-13835
▁frame	-13836
▁rehab	-13837
▁twist	-13838
itating	-13839
keepers	-13840
ouncing	-13841
ricanes	-13842
taining	-13843
▁Columb	-13844
▁GENEVA	-13845
▁Rohing	-13846
▁abound	-13847
▁citing	-13848
▁divert	-13849
▁handed	-13850
▁redund	-13851
esterday	-13852
tradable	-13853
▁Snowden	-13854
▁Studies	-13855
▁curbing	-13856
▁dynasty	-13857
▁horrors	-13858
▁license	-13859
▁opposes	-13860
▁session	-13861
▁smarter	-13862
▁tyranny	-13863
achusetts	-13864
strategic	-13865
▁Mohammad	-13866
▁athletes	-13867
▁canceled	-13868
▁confirms	-13869
▁converge	-13870
▁fiscally	-13871
▁illiquid	-13872
▁infamous	-13873
▁inflated	-13874
▁requests	-13875
▁resolute	-13876
▁uniquely	-13877
▁Hurricane	-13878
▁Kaczyński	-13879
▁detriment	-13880
▁inspiring	-13881
▁nostalgia	-13882
▁readiness	-13883
▁supplying	-13884
▁unchecked	-13885
▁Employment	-13886
▁Securities	-13887
▁connecting	-13888
▁thoroughly	-13889
▁charismatic	-13890
▁marketplace	-13891
▁universally	-13892
▁deteriorated	-13893
▁isolationism	-13894
▁supranational	-13895
▁fundamentalist	-13896
di	-13897
-1.	-13898
aky	-13899
▁31	-13900
▁IA	-13901
-20,	-13902
Cold	-13903
This	-13904
airy	-13905
ardo	-13906
laus	-13907
rick	-13908
uber	-13909
▁$15	-13910
▁CIT	-13911
▁PLO	-13912
▁dup	-13913
isure	-13914
jiang	-13915
lical	-13916
onial	-13917
▁0.7%	-13918
▁José	-13919
▁Murd	-13920
▁Yush	-13921
▁bump	-13922
▁drow	-13923
▁eman	-13924
▁furn	-13925
▁ills	-13926
▁mode	-13927
▁rape	-13928
▁visa	-13929
ANFORD	-13930
etched	-13931
ewards	-13932
hengen	-13933
▁2025.	-13934
▁Amend	-13935
▁Aside	-13936
▁Dubai	-13937
▁Grand	-13938
▁Soros	-13939
▁Think	-13940
▁autoc	-13941
▁codes	-13942
▁decay	-13943
▁eleph	-13944
▁filed	-13945
▁grids	-13946
▁ingen	-13947
▁smoke	-13948
▁stops	-13949
▁strip	-13950
▁versa	-13951
ersonal	-13952
general	-13953
managed	-13954
western	-13955
working	-13956
▁Annual	-13957
▁Coming	-13958
▁Latvia	-13959
▁Napole	-13960
▁Taylor	-13961
▁bailed	-13962
▁blocks	-13963
▁contam	-13964
▁frozen	-13965
▁passes	-13966
▁routes	-13967
▁seldom	-13968
▁stayed	-13969
▁stolen	-13970
▁stupid	-13971
▁tumult	-13972
▁urging	-13973
▁200,000	-13974
▁Alibaba	-13975
▁Drawing	-13976
▁Getting	-13977
▁Suppose	-13978
▁Trichet	-13979
▁cheaply	-13980
▁devised	-13981
▁disdain	-13982
▁earners	-13983
▁fatigue	-13984
▁fearful	-13985
▁impetus	-13986
▁injured	-13987
▁inquiry	-13988
▁mergers	-13989
▁pursues	-13990
▁staunch	-13991
▁subdued	-13992
▁unambig	-13993
▁widened	-13994
establish	-13995
▁Bulgaria	-13996
▁Schengen	-13997
▁arsenals	-13998
▁commemor	-13999
▁exposing	-14000
▁likewise	-14001
▁pregnant	-14002
▁rainfall	-14003
▁shipping	-14004
▁adjusting	-14005
▁demograph	-14006
▁footprint	-14007
▁fortunate	-14008
▁invisible	-14009
▁lawmakers	-14010
▁operators	-14011
▁prevalent	-14012
▁Scientists	-14013
▁dissidents	-14014
▁endangered	-14015
▁prudential	-14016
▁squandered	-14017
▁starvation	-14018
▁xenophobic	-14019
conservative	-14020
▁criticizing	-14021
▁departments	-14022
▁deteriorate	-14023
▁disciplines	-14024
▁unanimously	-14025
▁voluntarily	-14026
▁consolidated	-14027
▁constituents	-14028
▁indebtedness	-14029
▁Massachusetts	-14030
▁disappearance	-14031
▁externalities	-14032
▁practitioners	-14033
MT	-14034
Os	-14035
ña	-14036
oko	-14037
▁4,	-14038
▁ma	-14039
▁“[	-14040
hent	-14041
isen	-14042
obyl	-14043
poor	-14044
shed	-14045
tery	-14046
▁95%	-14047
▁Bid	-14048
▁CDU	-14049
▁Cho	-14050
▁Sar	-14051
▁Suu	-14052
▁gig	-14053
▁lon	-14054
amber	-14055
asset	-14056
ilton	-14057
istry	-14058
opian	-14059
ustry	-14060
▁1945	-14061
▁1973	-14062
▁Hard	-14063
▁Matt	-14064
▁Test	-14065
▁carn	-14066
▁dent	-14067
▁icon	-14068
▁junt	-14069
▁mend	-14070
▁shop	-14071
atched	-14072
atemal	-14073
ducive	-14074
enders	-14075
izable	-14076
▁5,000	-14077
▁Along	-14078
▁Later	-14079
▁egreg	-14080
▁erupt	-14081
▁exhib	-14082
▁grain	-14083
▁looph	-14084
▁mouth	-14085
▁reads	-14086
▁slide	-14087
▁undes	-14088
banking	-14089
ettered	-14090
respect	-14091
ringing	-14092
▁Bernie	-14093
▁Hassan	-14094
▁babies	-14095
▁fairer	-14096
▁finger	-14097
▁landsl	-14098
▁noting	-14099
▁staged	-14100
▁tissue	-14101
▁troika	-14102
Atlantic	-14103
▁Century	-14104
▁Efforts	-14105
▁Murdoch	-14106
▁Stephen	-14107
▁fearing	-14108
▁instant	-14109
▁invoked	-14110
▁isolate	-14111
▁methane	-14112
▁nuanced	-14113
▁redress	-14114
▁reminds	-14115
▁riskier	-14116
▁wartime	-14117
▁Guatemal	-14118
▁STANFORD	-14119
▁bombings	-14120
▁deadlock	-14121
▁distract	-14122
▁escalate	-14123
▁founders	-14124
▁planners	-14125
▁prudence	-14126
▁Elsewhere	-14127
▁Taiwanese	-14128
▁alienated	-14129
▁brilliant	-14130
▁classical	-14131
▁contested	-14132
▁dismantle	-14133
▁employing	-14134
▁interfere	-14135
▁lingering	-14136
▁lobbyists	-14137
▁massively	-14138
▁parallels	-14139
▁reckoning	-14140
▁selective	-14141
▁signature	-14142
▁spotlight	-14143
▁transcend	-14144
▁Addressing	-14145
▁healthcare	-14146
▁injections	-14147
▁leveraging	-14148
▁possession	-14149
▁powerhouse	-14150
▁thoughtful	-14151
▁vigorously	-14152
▁vocational	-14153
▁xenophobia	-14154
▁celebration	-14155
▁nationality	-14156
▁proportions	-14157
▁Scandinavian	-14158
▁governmental	-14159
▁manipulating	-14160
▁similarities	-14161
▁disinformation	-14162
two	-14163
▁39	-14164
▁Il	-14165
▁€3	-14166
atan	-14167
only	-14168
▁$12	-14169
▁(19	-14170
▁2%,	-14171
▁Amb	-14172
▁bag	-14173
▁fly	-14174
▁nan	-14175
▁sor	-14176
arded	-14177
chner	-14178
elior	-14179
izumi	-14180
orous	-14181
▁$1.5	-14182
▁2019	-14183
▁Azer	-14184
▁Fall	-14185
▁Kofi	-14186
▁conj	-14187
▁lows	-14188
▁narc	-14189
▁teen	-14190
▁thro	-14191
ifting	-14192
ijuana	-14193
imates	-14194
losion	-14195
ometer	-14196
system	-14197
ularly	-14198
undrum	-14199
▁Abdel	-14200
▁Maced	-14201
▁Serge	-14202
▁Uribe	-14203
▁arose	-14204
▁burge	-14205
▁clubs	-14206
▁doses	-14207
▁franc	-14208
▁looms	-14209
▁shark	-14210
▁venge	-14211
natural	-14212
▁Chechn	-14213
▁Damasc	-14214
▁Daniel	-14215
▁Thirty	-14216
▁atomic	-14217
▁ironic	-14218
▁lament	-14219
▁organs	-14220
▁rocket	-14221
▁salary	-14222
▁spared	-14223
▁worlds	-14224
▁Czechos	-14225
▁Experts	-14226
▁Koizumi	-14227
▁Respons	-14228
▁Working	-14229
▁indices	-14230
▁inhibit	-14231
▁leisure	-14232
▁premise	-14233
▁revenge	-14234
▁secrecy	-14235
▁seekers	-14236
▁starkly	-14237
▁swiftly	-14238
▁unconsc	-14239
▁wrought	-14240
▁Rohingya	-14241
▁Salvador	-14242
▁assessed	-14243
▁catalyze	-14244
▁depleted	-14245
▁favoring	-14246
▁mosquito	-14247
▁rankings	-14248
▁reciproc	-14249
▁reinvent	-14250
▁tracking	-14251
▁ventures	-14252
▁worsened	-14253
▁Something	-14254
▁bloodshed	-14255
▁conducive	-14256
▁encounter	-14257
▁expecting	-14258
▁formulate	-14259
▁importing	-14260
▁petroleum	-14261
▁rehabilit	-14262
▁textbooks	-14263
▁unusually	-14264
▁wholesale	-14265
▁Luxembourg	-14266
▁attainment	-14267
▁authorized	-14268
▁completing	-14269
▁hurricanes	-14270
▁ideologies	-14271
▁implicitly	-14272
▁offsetting	-14273
▁stagnating	-14274
surprisingly	-14275
▁acquisition	-14276
▁convenience	-14277
▁endorsement	-14278
▁humiliating	-14279
▁incorporate	-14280
▁ministerial	-14281
▁overheating	-14282
▁refinancing	-14283
▁spearheaded	-14284
▁liberalizing	-14285
▁shortsighted	-14286
▁complications	-14287
▁consciousness	-14288
▁contradictions	-14289
wa	-14290
ét	-14291
COW	-14292
abs	-14293
aka	-14294
asm	-14295
ati	-14296
avi	-14297
iri	-14298
lla	-14299
▁ub	-14300
bond	-14301
bust	-14302
irus	-14303
lick	-14304
▁Row	-14305
▁eup	-14306
▁soy	-14307
-2015	-14308
cence	-14309
rical	-14310
▁$300	-14311
▁Dmit	-14312
▁Kohl	-14313
▁Norm	-14314
▁Sund	-14315
▁arts	-14316
▁fits	-14317
▁memo	-14318
▁scri	-14319
enegal	-14320
father	-14321
▁1980,	-14322
▁Armed	-14323
▁affil	-14324
▁notor	-14325
▁redef	-14326
▁steer	-14327
▁vivid	-14328
science	-14329
secular	-14330
▁Andrew	-14331
▁Income	-14332
▁Munich	-14333
▁Sovere	-14334
▁aiming	-14335
▁church	-14336
▁cleans	-14337
▁derive	-14338
▁fixing	-14339
▁trains	-14340
ourished	-14341
▁Estonia	-14342
▁Medical	-14343
▁Senegal	-14344
▁Soviets	-14345
▁amelior	-14346
▁designs	-14347
▁eroding	-14348
▁inflict	-14349
▁remarks	-14350
exporting	-14351
▁Chechnya	-14352
▁Needless	-14353
▁calculus	-14354
▁goodwill	-14355
▁inadvert	-14356
▁premiums	-14357
▁recourse	-14358
▁consuming	-14359
▁hierarchy	-14360
▁partition	-14361
▁separated	-14362
▁turbulent	-14363
▁utilities	-14364
▁warranted	-14365
▁broadening	-14366
▁curriculum	-14367
▁devastated	-14368
▁directions	-14369
▁positively	-14370
▁recoveries	-14371
[...]
