<pad>	0
<unk>	0
<s>	0
</s>	0
▁—	-0
经济	-1
美国	-2
国家	-3
▁但	-4
一个	-5
20	-6
我们	-7
中国	-8
政府	-9
▁这	-10
可能	-11
他们	-12
欧洲	-13
问题	-14
▁在	-15
世界	-16
可以	-17
全球	-18
政策	-19
政治	-20
▁。	-21
没有	-22
这一	-23
增长	-24
已经	-25
▁”	-26
主义	-27
需要	-28
其他	-29
▁,	-30
这些	-31
因为	-32
如果	-33
市场	-34
以及	-35
投资	-36
▁)	-37
必须	-38
社会	-39
银行	-40
金融	-41
欧盟	-42
发展	-43
国际	-44
支持	-45
▁而	-46
不是	-47
应该	-48
重要	-49
影响	-50
危机	-51
领导	-52
大的	-53
它们	-54
地区	-55
因此	-56
通过	-57
201	-58
200	-59
总统	-60
19	-61
货币	-62
事实	-63
所有	-64
认为	-65
贸易	-66
美元	-67
尽管	-68
▁%	-69
民主	-70
方面	-71
组织	-72
这样	-73
的是	-74
成为	-75
罗斯	-76
英国	-77
实现	-78
计划	-79
提供	-80
的人	-81
包括	-82
部分	-83
无法	-84
现在	-85
许多	-86
同时	-87
自己	-88
目标	-89
导致	-90
能够	-91
俄罗斯	-92
进行	-93
企业	-94
公司	-95
自由	-96
特朗	-97
情况	-98
解决	-99
改革	-100
增加	-101
正在	-102
特朗普	-103
就是	-104
▁如果	-105
开始	-106
如此	-107
德国	-108
▁但是	-109
欧元	-110
安全	-111
印度	-112
收入	-113
债务	-114
人们	-115
的一	-116
这个	-117
机构	-118
带来	-119
事实上	-120
的经济	-121
日本	-122
主要	-123
风险	-124
技术	-125
未来	-126
获得	-127
00	-128
▁当	-129
什么	-130
财政	-131
长期	-132
一些	-133
发生	-134
持续	-135
之间	-136
工作	-137
变化	-138
▁“	-139
任何	-140
要求	-141
关系	-142
结果	-143
基础	-144
行动	-145
世纪	-146
领导人	-147
存在	-148
那些	-149
斯坦	-150
目前	-151
伊朗	-152
研究	-153
资本	-154
生产	-155
▁事实上	-156
到了	-157
作为	-158
这种	-159
那么	-160
更加	-161
年的	-162
性的	-163
采取	-164
er	-165
an	-166
的国家	-167
▁我们	-168
▁此	-169
人的	-170
甚至	-171
不会	-172
利亚	-173
成功	-174
联合	-175
最近	-176
更多	-177
造成	-178
合作	-179
稳定	-180
过去	-181
保护	-182
比如	-183
特别	-184
也是	-185
国家的	-186
中的	-187
对于	-188
如何	-189
一直	-190
并不	-191
法国	-192
国内	-193
时间	-194
以来	-195
on	-196
决定	-197
建立	-198
利益	-199
规模	-200
一种	-201
新的	-202
▁因此	-203
不同	-204
十年	-205
价格	-206
▁美国	-207
挑战	-208
以色	-209
以色列	-210
公共	-211
教育	-212
这样的	-213
意味	-214
成员	-215
选择	-216
面临	-217
威胁	-218
力的	-219
如今	-220
严重	-221
产生	-222
战争	-223
反对	-224
历史	-225
继续	-226
▁此外	-227
能源	-228
协议	-229
希望	-230
行为	-231
水平	-232
只有	-233
意味着	-234
环境	-235
▁尽管	-236
成本	-237
提高	-238
措施	-239
西方	-240
气候	-241
作用	-242
▁不	-243
并且	-244
选举	-245
出现	-246
同样	-247
令人	-248
系统	-249
央行	-250
亿美元	-251
机会	-252
DP	-253
战略	-254
表明	-255
竞争	-256
他们的	-257
来说	-258
生活	-259
部门	-260
服务	-261
方案	-262
下降	-263
实施	-264
GDP	-265
利率	-266
他的	-267
最终	-268
实际	-269
非洲	-270
人民	-271
学家	-272
国的	-273
拥有	-274
似乎	-275
消费	-276
使用	-277
能力	-278
改变	-279
原因	-280
拉克	-281
谈判	-282
制度	-283
的问题	-284
仍然	-285
接受	-286
控制	-287
不能	-288
随着	-289
美国的	-290
ar	-291
一步	-292
多数	-293
还是	-294
为了	-295
欧元区	-296
上的	-297
基金	-298
承诺	-299
▁这一	-300
资产	-301
是否	-302
需求	-303
▁(	-304
关键	-305
联盟	-306
来自	-307
希腊	-308
方式	-309
▁这些	-310
非常	-311
特别是	-312
经济体	-313
管理	-314
外交	-315
和平	-316
不可	-317
亚洲	-318
降低	-319
其中	-320
冲突	-321
价值	-322
有效	-323
in	-324
时候	-325
en	-326
程度	-327
减少	-328
一样	-329
资源	-330
或者	-331
资金	-332
军事	-333
有可能	-334
巴马	-335
体系	-336
共同	-337
人口	-338
的政治	-339
伊斯	-340
奥巴马	-341
几乎	-342
从而	-343
阿拉	-344
委员	-345
即使	-346
大部分	-347
得到	-348
劳动	-349
监管	-350
受到	-351
伊斯兰	-352
是一个	-353
▁与	-354
移民	-355
的情况	-356
联合国	-357
项目	-358
▁中国	-359
出口	-360
就业	-361
和其他	-362
真正	-363
不仅	-364
叙利亚	-365
保持	-366
完全	-367
由于	-368
创造	-369
了一	-370
的最	-371
重新	-372
力量	-373
确保	-374
那样	-375
自己的	-376
提出	-377
而且	-378
因素	-379
而不是	-380
各国	-381
考虑	-382
类似	-383
委员会	-384
决策	-385
土耳	-386
破坏	-387
参与	-388
土耳其	-389
虽然	-390
阿拉伯	-391
之一	-392
相反	-393
数据	-394
还有	-395
不断	-396
▁他们	-397
年代	-398
者的	-399
一次	-400
平等	-401
变得	-402
伊拉克	-403
进一步	-404
设施	-405
也许	-406
观点	-407
自身	-408
▁他	-409
al	-410
避免	-411
▁从	-412
▁比如	-413
化的	-414
▁对	-415
越来	-416
基本	-417
帮助	-418
越来越	-419
利用	-420
领域	-421
制定	-422
朝鲜	-423
活动	-424
石油	-425
某些	-426
都是	-427
超过	-428
关注	-429
之间的	-430
ti	-431
城市	-432
赤字	-433
结构	-434
改善	-435
地方	-436
发达	-437
援助	-438
模式	-439
好的	-440
今天	-441
限制	-442
做出	-443
民族	-444
的新	-445
运动	-446
取得	-447
的大	-448
责任	-449
支出	-450
表现	-451
个人	-452
武器	-453
推动	-454
根本	-455
关于	-456
过程	-457
家庭	-458
贷款	-459
地位	-460
10	-461
在于	-462
民众	-463
条件	-464
权力	-465
or	-466
方法	-467
医疗	-468
通胀	-469
恐怖	-470
30	-471
共和	-472
起来	-473
法律	-474
公民	-475
状况	-476
现实	-477
50	-478
贫困	-479
中东	-480
相当	-481
000	-482
只是	-483
联储	-484
知道	-485
具有	-486
199	-487
努力	-488
应对	-489
传统	-490
首先	-491
失业	-492
的政策	-493
刺激	-494
可能会	-495
的话	-496
美联储	-497
规则	-498
发展中	-499
创新	-500
信息	-501
危险	-502
大量	-503
很多	-504
中国的	-505
独立	-506
将会	-507
相关	-508
预算	-509
结束	-510
▁最	-511
至少	-512
的影响	-513
是在	-514
▁当然	-515
▁我	-516
私人	-517
革命	-518
新兴	-519
克兰	-520
普京	-521
重要的	-522
两个	-523
健康	-524
巴勒	-525
▁欧洲	-526
气候变化	-527
显然	-528
巴勒斯坦	-529
乌克兰	-530
基础设施	-531
成员国	-532
就会	-533
全世界	-534
时代	-535
会议	-536
巨大的	-537
指出	-538
而言	-539
人类	-540
发现	-541
当前	-542
可持续	-543
维持	-544
事件	-545
上述	-546
报告	-547
确定	-548
整个	-549
第二	-550
制造	-551
意大	-552
▁其	-553
尤其	-554
尼亚	-555
税收	-556
意大利	-557
直接	-558
试图	-559
es	-560
日益	-561
繁荣	-562
代表	-563
之后	-564
压力	-565
上升	-566
成了	-567
之前	-568
用于	-569
▁有	-570
错误	-571
相对	-572
经济增长	-573
及其	-574
选民	-575
我们的	-576
而是	-577
平衡	-578
投资者	-579
机制	-580
2008	-581
此同时	-582
陷入	-583
数字	-584
根据	-585
媒体	-586
必要	-587
极端	-588
公众	-589
所谓	-590
▁如今	-591
证明	-592
进步	-593
但是	-594
才能	-595
债券	-596
政权	-597
不再	-598
的情况下	-599
交易	-600
商品	-601
科学	-602
标准	-603
扩大	-604
▁S	-605
▁它	-606
后果	-607
产品	-608
官员	-609
巴基	-610
巴基斯坦	-611
识到	-612
外国	-613
总理	-614
明确	-615
商业	-616
理解	-617
难民	-618
或许	-619
预测	-620
是一	-621
爆发	-622
依赖	-623
针对	-624
担心	-625
金融危机	-626
经济的	-627
劳动力	-628
唯一	-629
解释	-630
失败	-631
依然	-632
协定	-633
后的	-634
融资	-635
文化	-636
进入	-637
经济学家	-638
流动	-639
意义	-640
拒绝	-641
今年	-642
衰退	-643
主权	-644
核心	-645
政府的	-646
现代	-647
不可能	-648
年轻	-649
个月	-650
权利	-651
来的	-652
大规模	-653
难以	-654
相信	-655
的全球	-656
十分	-657
埃及	-658
理由	-659
反应	-660
达到	-661
大多数	-662
更多的	-663
趋势	-664
儿童	-665
▁一	-666
伙伴	-667
工业	-668
穆斯	-669
有所	-670
不平等	-671
达成	-672
视为	-673
并没有	-674
损失	-675
这一点	-676
穆斯林	-677
准备	-678
工资	-679
有的	-680
了一个	-681
不足	-682
期间	-683
排放	-684
积极	-685
应当	-686
行的	-687
网络	-688
问题的	-689
手段	-690
承认	-691
大学	-692
引发	-693
面对	-694
领袖	-695
每年	-696
然而	-697
复杂	-698
▁C	-699
分子	-700
并非	-701
广泛	-702
正确	-703
暴力	-704
更为	-705
▁相反	-706
阻止	-707
共和党	-708
调整	-709
容易	-710
缺乏	-711
行业	-712
讨论	-713
正如	-714
内部	-715
议会	-716
财富	-717
只能	-718
重大	-719
布什	-720
比亚	-721
年前	-722
干预	-723
主义者	-724
往往	-725
▁与此同时	-726
年来	-727
灾难	-728
愿意	-729
宣布	-730
时期	-731
知识	-732
充分	-733
的时候	-734
MF	-735
去年	-736
开发	-737
无论	-738
储蓄	-739
不到	-740
开放	-741
短期	-742
经历	-743
数量	-744
▁虽然	-745
宗教	-746
吸引	-747
统治	-748
加入	-749
复苏	-750
▁首先	-751
大幅	-752
韩国	-753
建设	-754
政策的	-755
这是	-756
沙特	-757
范围	-758
,000	-759
IMF	-760
带来的	-761
允许	-762
削减	-763
汇率	-764
仅仅	-765
原则	-766
毫无	-767
主义的	-768
代价	-769
投票	-770
形成	-771
也不	-772
平均	-773
巴西	-774
自然	-775
下的	-776
发展中国家	-777
迅速	-778
高的	-779
el	-780
方面的	-781
经常	-782
联邦	-783
基于	-784
调查	-785
ic	-786
▁:	-787
th	-788
▁现在	-789
赢得	-790
▁随着	-791
将在	-792
第三	-793
墨西	-794
墨西哥	-795
促进	-796
12	-797
过度	-798
恢复	-799
女性	-800
最大的	-801
另一	-802
▁201	-803
出了	-804
的支持	-805
收益	-806
卫生	-807
袭击	-808
地区的	-809
进程	-810
集团	-811
联系	-812
工人	-813
条约	-814
预期	-815
失去	-816
主席	-817
形式	-818
11	-819
民粹	-820
助于	-821
纽约	-822
80	-823
购买	-824
足够	-825
感到	-826
批评	-827
反映	-828
国会	-829
政党	-830
有利	-831
并不是	-832
在一	-833
好处	-834
▁该	-835
的美国	-836
办法	-837
阿富	-838
它们的	-839
is	-840
▁更	-841
通常	-842
阿富汗	-843
欧洲央行	-844
▁A	-845
进口	-846
一致	-847
快速	-848
腐败	-849
部长	-850
合理	-851
死亡	-852
支付	-853
潜在	-854
疾病	-855
道德	-856
实际上	-857
之外	-858
除了	-859
妇女	-860
治理	-861
中央	-862
▁然而	-863
▁P	-864
显示	-865
某种	-866
欧洲的	-867
70	-868
正是	-869
合法	-870
市场的	-871
承担	-872
紧缩	-873
保证	-874
生产率	-875
有关	-876
目的	-877
多的	-878
加强	-879
工具	-880
优势	-881
60	-882
第一	-883
经验	-884
农业	-885
再次	-886
态度	-887
巨大	-888
tion	-889
曾经	-890
分析	-891
即便	-892
鼓励	-893
中心	-894
▁这种	-895
困难	-896
肯定	-897
角色	-898
所以	-899
it	-900
的主要	-901
立场	-902
确实	-903
寻求	-904
引起	-905
储备	-906
宪法	-907
崩溃	-908
任务	-909
苏联	-910
也会	-911
另一个	-912
扩张	-913
其他国家	-914
▁M	-915
简单	-916
执行	-917
思想	-918
国际货币	-919
打击	-920
评估	-921
程度上	-922
公开	-923
为什么	-924
的信	-925
货币政策	-926
伦敦	-927
表示	-928
强调	-929
人都	-930
15	-931
西班	-932
美国和	-933
转移	-934
西班牙	-935
的不	-936
的社会	-937
.5	-938
处于	-939
集中	-940
有助于	-941
经济学	-942
效果	-943
两国	-944
一场	-945
建议	-946
基金组织	-947
框架	-948
理论	-949
遏制	-950
决策者	-951
看到	-952
制裁	-953
毕竟	-954
本身	-955
人员	-956
的目标	-957
om	-958
全面	-959
想要	-960
25	-961
▁特朗普	-962
速度	-963
的那样	-964
的风险	-965
公平	-966
群体	-967
il	-968
供应	-969
效率	-970
例如	-971
福利	-972
精神	-973
at	-974
军队	-975
re	-976
完成	-977
实力	-978
秩序	-979
全球经济	-980
崛起	-981
例子	-982
分配	-983
是因为	-984
的方式	-985
外部	-986
只要	-987
生物	-988
▁目前	-989
生命	-990
▁》	-991
所谓的	-992
美国总统	-993
▁就	-994
削弱	-995
全球化	-996
百万	-997
▁的	-998
am	-999
▁发	-1000
的增长	-1001
坚持	-1002
执政	-1003
专家	-1004
▁而且	-1005
民主党	-1006
▁为了	-1007
担忧	-1008
大约	-1009
发达国家	-1010
事情	-1011
转变	-1012
认识到	-1013
候选	-1014
强化	-1015
退出	-1016
比例	-1017
它的	-1018
核武器	-1019
40	-1020
成立	-1021
策略	-1022
▁由于	-1023
证据	-1024
的政府	-1025
加剧	-1026
保险	-1027
▁即使	-1028
放弃	-1029
▁也	-1030
很大	-1031
同意	-1032
追求	-1033
▁这样	-1034
防止	-1035
情绪	-1036
明显	-1037
北约	-1038
动荡	-1039
和经济	-1040
国民	-1041
满足	-1042
90	-1043
克里	-1044
种族	-1045
保守	-1046
▁、	-1047
▁因为	-1048
少数	-1049
东西	-1050
燃料	-1051
技能	-1052
更大的	-1053
做法	-1054
相比	-1055
的结果	-1056
怀疑	-1057
这场	-1058
的一个	-1059
常常	-1060
都会	-1061
补贴	-1062
▁一个	-1063
可能性	-1064
使得	-1065
其实	-1066
转型	-1067
逐渐	-1068
处理	-1069
新闻	-1070
▁发自	-1071
找到	-1072
负债	-1073
真正的	-1074
治疗	-1075
问题上	-1076
消费者	-1077
犹太	-1078
国际社会	-1079
国际货币基金组织	-1080
造成的	-1081
贬值	-1082
▁毕竟	-1083
巴黎	-1084
▁许多	-1085
很难	-1086
统一	-1087
天然	-1088
▁但在	-1089
状态	-1090
波兰	-1091
意识	-1092
一定	-1093
当局	-1094
人权	-1095
增长的	-1096
也在	-1097
as	-1098
基因	-1099
系列	-1100
组成	-1101
▁但这	-1102
▁对于	-1103
解决方案	-1104
冲击	-1105
正式	-1106
▁欧盟	-1107
值得	-1108
分裂	-1109
政客	-1110
观察	-1111
和政治	-1112
当时	-1113
胜利	-1114
关税	-1115
具体	-1116
大选	-1117
▁它们	-1118
前景	-1119
糟糕	-1120
该国	-1121
普遍	-1122
各种	-1123
ro	-1124
▁自	-1125
共产	-1126
总体	-1127
也有	-1128
进展	-1129
峰会	-1130
一位	-1131
恶化	-1132
美国人	-1133
▁200	-1134
回报	-1135
利润	-1136
▁最后	-1137
▁结果	-1138
区域	-1139
出的	-1140
岗位	-1141
年中	-1142
竞选	-1143
左右	-1144
永远	-1145
即将	-1146
盟友	-1147
严重的	-1148
一切	-1149
现象	-1150
▁以	-1151
膨胀	-1152
注意	-1153
清楚	-1154
ac	-1155
独裁	-1156
的欧洲	-1157
▁同样	-1158
失业率	-1159
设计	-1160
局面	-1161
负责	-1162
立法	-1163
▁R	-1164
强大的	-1165
的世界	-1166
▁G	-1167
的能力	-1168
为止	-1169
将是	-1170
至关	-1171
贡献	-1172
的原因	-1173
▁要	-1174
事务	-1175
宽松	-1176
远远	-1177
和社会	-1178
二十	-1179
并未	-1180
2015	-1181
民粹主义	-1182
了解	-1183
方针	-1184
▁世界	-1185
角度	-1186
停滞	-1187
的关键	-1188
精英	-1189
负担	-1190
马斯	-1191
的重要	-1192
规定	-1193
华盛	-1194
华盛顿	-1195
道路	-1196
阶级	-1197
▁B	-1198
体制	-1199
也没有	-1200
空间	-1201
需要的	-1202
提升	-1203
人民币	-1204
年以来	-1205
的国际	-1206
的高	-1207
质量	-1208
迫使	-1209
不得	-1210
激励	-1211
▁F	-1212
▁T	-1213
人士	-1214
俄国	-1215
重要的是	-1216
脆弱	-1217
2010	-1218
为何	-1219
发挥	-1220
方向	-1221
争论	-1222
最高	-1223
个国家	-1224
势力	-1225
宏观	-1226
障碍	-1227
ol	-1228
可以在	-1229
增长率	-1230
互联	-1231
团结	-1232
得多	-1233
很快	-1234
而非	-1235
▁这是	-1236
几十年	-1237
在美国	-1238
见的	-1239
提供了	-1240
万亿美元	-1241
18	-1242
斗争	-1243
取决	-1244
最大	-1245
学生	-1246
效应	-1247
的对	-1248
▁那么	-1249
取决于	-1250
一项	-1251
真实	-1252
也将	-1253
社区	-1254
不但	-1255
土地	-1256
候选人	-1257
情况下	-1258
阶段	-1259
天然气	-1260
投入	-1261
欧盟的	-1262
想象	-1263
债权	-1264
不同的	-1265
▁包括	-1266
科技	-1267
ent	-1268
多边	-1269
官方	-1270
内的	-1271
工程	-1272
and	-1273
年轻人	-1274
符合	-1275
不管	-1276
▁19	-1277
▁所有	-1278
退休	-1279
双方	-1280
看来	-1281
汽车	-1282
则是	-1283
消息	-1284
食品	-1285
尤其是	-1286
不过	-1287
忽视	-1288
有效的	-1289
攻击	-1290
计算	-1291
依靠	-1292
显著	-1293
多少	-1294
下跌	-1295
▁特别是	-1296
类似的	-1297
右翼	-1298
最后	-1299
通货	-1300
从未	-1301
替代	-1302
信心	-1303
教训	-1304
ation	-1305
主导	-1306
身份	-1307
过程中	-1308
总是	-1309
接近	-1310
产业	-1311
孩子	-1312
▁正如	-1313
和美国	-1314
尔德	-1315
面临着	-1316
有人	-1317
信任	-1318
否则	-1319
正常	-1320
武装	-1321
欢迎	-1322
领土	-1323
相互	-1324
变革	-1325
就像	-1326
外交政策	-1327
共识	-1328
泡沫	-1329
之中	-1330
停止	-1331
在过去	-1332
银行的	-1333
局势	-1334
禁止	-1335
有着	-1336
▁新	-1337
法院	-1338
克尔	-1339
取代	-1340
ad	-1341
le	-1342
更好	-1343
都在	-1344
结构性	-1345
直到	-1346
民族主义	-1347
还要	-1348
人和	-1349
前的	-1350
预计	-1351
考虑到	-1352
新兴市场	-1353
马克	-1354
彻底	-1355
本国	-1356
金融市场	-1357
盈余	-1358
不仅仅	-1359
取消	-1360
当选	-1361
地球	-1362
呼吁	-1363
推进	-1364
流动性	-1365
的基础	-1366
最近的	-1367
竞争力	-1368
这样做	-1369
而不	-1370
分之一	-1371
伤害	-1372
对其	-1373
紧张	-1374
互联网	-1375
充满	-1376
警告	-1377
转向	-1378
幸的是	-1379
自由贸易	-1380
一体	-1381
100	-1382
面临的	-1383
2009	-1384
旨在	-1385
现有	-1386
摆脱	-1387
遭到	-1388
后者	-1389
当今	-1390
有限	-1391
的机会	-1392
真的	-1393
称为	-1394
大大	-1395
克林	-1396
双边	-1397
▁据	-1398
更大	-1399
透明	-1400
被迫	-1401
学校	-1402
塞尔	-1403
▁D	-1404
▁通过	-1405
强烈	-1406
估计	-1407
这类	-1408
▁政府	-1409
多样	-1410
对此	-1411
差异	-1412
采用	-1413
信用	-1414
未能	-1415
破产	-1416
概念	-1417
1.	-1418
是对	-1419
而易	-1420
边境	-1421
阿根	-1422
ed	-1423
自我	-1424
消除	-1425
阿根廷	-1426
协调	-1427
发表	-1428
致力	-1429
不确定	-1430
就能	-1431
氧化	-1432
▁这个	-1433
更好的	-1434
一直在	-1435
除非	-1436
指责	-1437
正确的	-1438
质疑	-1439
周期	-1440
波动	-1441
来源	-1442
保障	-1443
但却	-1444
指标	-1445
▁人们	-1446
▁根据	-1447
▁没有	-1448
自身的	-1449
习近	-1450
层面	-1451
当地	-1452
寻找	-1453
首相	-1454
相当于	-1455
ch	-1456
约束	-1457
言论	-1458
▁英国	-1459
习近平	-1460
普通	-1461
带来了	-1462
▁类似	-1463
致力于	-1464
激进	-1465
上涨	-1466
对手	-1467
签署	-1468
分歧	-1469
▁以及	-1470
出现了	-1471
举行	-1472
低于	-1473
供给	-1474
萧条	-1475
适应	-1476
并在	-1477
单一	-1478
批准	-1479
ou	-1480
大国	-1481
有些	-1482
▁作为	-1483
格兰	-1484
包容	-1485
地产	-1486
▁例如	-1487
比较	-1488
发动	-1489
报道	-1490
的反	-1491
说法	-1492
▁德国	-1493
差距	-1494
阻碍	-1495
程序	-1496
的一部分	-1497
以上	-1498
左翼	-1499
2012	-1500
of	-1501
巴嫩	-1502
随后	-1503
也可以	-1504
黎巴嫩	-1505
2013	-1506
受益	-1507
年后	-1508
性和	-1509
今天的	-1510
▁.	-1511
有利于	-1512
担任	-1513
痛苦	-1514
的观点	-1515
▁I	-1516
那里	-1517
2014	-1518
▁其中	-1519
将其	-1520
▁-	-1521
学习	-1522
生存	-1523
的行为	-1524
利比亚	-1525
假设	-1526
提振	-1527
长的	-1528
增加了	-1529
地缘	-1530
可持续发展	-1531
的研究	-1532
机器	-1533
ter	-1534
过于	-1535
重点	-1536
怎样	-1537
▁E	-1538
争议	-1539
发布	-1540
得到了	-1541
的投资	-1542
▁是	-1543
安倍	-1544
属于	-1545
的前	-1546
通货膨胀	-1547
重组	-1548
制造业	-1549
几个	-1550
严格	-1551
粮食	-1552
相同	-1553
答案	-1554
▁无论	-1555
尔多	-1556
开支	-1557
团体	-1558
疫苗	-1559
集体	-1560
这意味着	-1561
内容	-1562
疑问	-1563
遭受	-1564
高达	-1565
二氧化	-1566
捍卫	-1567
混乱	-1568
显而易	-1569
获得了	-1570
冷战	-1571
有一	-1572
污染	-1573
世界的	-1574
造成了	-1575
议院	-1576
▁th	-1577
三个	-1578
瑞拉	-1579
背景	-1580
增强	-1581
得以	-1582
股票	-1583
量的	-1584
世界上	-1585
委内	-1586
影响力	-1587
2011	-1588
委内瑞拉	-1589
具备	-1590
在这	-1591
放缓	-1592
该地区	-1593
▁将	-1594
告诉	-1595
尔兰	-1596
要么	-1597
发达经济体	-1598
让我们	-1599
恐怖主义	-1600
所带来的	-1601
乐观	-1602
可靠	-1603
爱尔兰	-1604
安排	-1605
不得不	-1606
哈马斯	-1607
导致了	-1608
扮演	-1609
198	-1610
在未来	-1611
▁为	-1612
之下	-1613
定义	-1614
强大	-1615
成就	-1616
法案	-1617
发生的	-1618
▁但如果	-1619
邻国	-1620
生活在	-1621
的财政	-1622
是不	-1623
▁一些	-1624
▁印度	-1625
二氧化碳	-1626
倾向	-1627
司法	-1628
国有	-1629
德里	-1630
药物	-1631
取得了	-1632
▁类似地	-1633
可以通过	-1634
那就是	-1635
出来	-1636
然后	-1637
价值观	-1638
美洲	-1639
明白	-1640
缺少	-1641
二战	-1642
在其	-1643
大陆	-1644
当然	-1645
意愿	-1646
记录	-1647
▁纽约	-1648
宣称	-1649
构建	-1650
至于	-1651
变暖	-1652
成果	-1653
危机的	-1654
鉴于	-1655
另外	-1656
克林顿	-1657
前所	-1658
思维	-1659
辩论	-1660
监督	-1661
形态	-1662
这项	-1663
的发展	-1664
加速	-1665
ing	-1666
地缘政治	-1667
时刻	-1668
的可能性	-1669
者和	-1670
重建	-1671
全国	-1672
困境	-1673
都有	-1674
不应该	-1675
帝国	-1676
部队	-1677
▁不管	-1678
升值	-1679
日程	-1680
房地产	-1681
可能是	-1682
凯恩	-1683
指数	-1684
全部	-1685
▁不幸的是	-1686
▁俄罗斯	-1687
脱欧	-1688
衡量	-1689
特朗普的	-1690
的同时	-1691
▁到	-1692
克服	-1693
农民	-1694
账户	-1695
才是	-1696
由此	-1697
高于	-1698
发生了	-1699
定的	-1700
我的	-1701
持有	-1702
潜力	-1703
病毒	-1704
反对派	-1705
2016	-1706
富裕	-1707
最为	-1708
2007	-1709
理想	-1710
缓慢	-1711
▁同时	-1712
年间	-1713
对美国	-1714
量化	-1715
管制	-1716
下去	-1717
沙特阿拉伯	-1718
南非	-1719
温和	-1720
意识到	-1721
▁of	-1722
的金融	-1723
会在	-1724
思考	-1725
预防	-1726
▁只有	-1727
的改革	-1728
许多人	-1729
伊斯兰教	-1730
深刻	-1731
实行	-1732
专业	-1733
官僚	-1734
明智	-1735
者们	-1736
艾滋	-1737
访问	-1738
矛盾	-1739
展开	-1740
的计划	-1741
至关重要	-1742
很少	-1743
拯救	-1744
逊尼	-1745
意识形态	-1746
示威	-1747
缺陷	-1748
足以	-1749
电视	-1750
萨德	-1751
▁全球	-1752
产生的	-1753
都不	-1754
的工作	-1755
中央银行	-1756
与其	-1757
走向	-1758
os	-1759
的长期	-1760
▁H	-1761
启动	-1762
科学家	-1763
默克尔	-1764
党派	-1765
对抗	-1766
说服	-1767
▁最近	-1768
公投	-1769
驱动	-1770
表现出	-1771
信贷	-1772
恐惧	-1773
毫无疑问	-1774
同样的	-1775
▁并	-1776
刚刚	-1777
描述	-1778
特征	-1779
产阶级	-1780
所需要的	-1781
21	-1782
妥协	-1783
统计	-1784
是一种	-1785
的未来	-1786
世界银行	-1787
基地	-1788
抗议	-1789
认识	-1790
0.	-1791
安理	-1792
抵制	-1793
犯罪	-1794
贫穷	-1795
就必须	-1796
理念	-1797
给予	-1798
遭遇	-1799
ri	-1800
众多	-1801
毫不	-1802
各地	-1803
加上	-1804
所需	-1805
尝试	-1806
结论	-1807
▁其次	-1808
传播	-1809
升级	-1810
培训	-1811
▁也许	-1812
实验	-1813
▁在这	-1814
的核心	-1815
经历了	-1816
us	-1817
按照	-1818
操纵	-1819
入侵	-1820
议员	-1821
前所未	-1822
这些国家	-1823
损害	-1824
化石	-1825
国外	-1826
更高	-1827
能否	-1828
掌握	-1829
资本主义	-1830
之处	-1831
整体	-1832
历史上	-1833
et	-1834
一代	-1835
任期	-1836
导弹	-1837
感觉	-1838
几年	-1839
用来	-1840
私人部门	-1841
占据	-1842
的民主	-1843
传染	-1844
喜欢	-1845
究竟	-1846
的作用	-1847
足够的	-1848
第一次	-1849
说明	-1850
促使	-1851
▁日本	-1852
逊尼派	-1853
了这一	-1854
中产阶级	-1855
实体	-1856
恰恰	-1857
尊重	-1858
什叶	-1859
她们	-1860
灵活	-1861
维亚	-1862
▁这意味着	-1863
表达	-1864
美国在	-1865
17	-1866
主张	-1867
平台	-1868
起到	-1869
两大	-1870
税率	-1871
公司的	-1872
2.	-1873
这么	-1874
500	-1875
提出的	-1876
体现	-1877
宣传	-1878
巩固	-1879
推翻	-1880
香港	-1881
197	-1882
▁尽管如此	-1883
举措	-1884
扩散	-1885
而这	-1886
跨国	-1887
危险的	-1888
14	-1889
政府和	-1890
宏观经济	-1891
农村	-1892
条款	-1893
奇怪	-1894
引入	-1895
绿色	-1896
也就是	-1897
的人口	-1898
智能	-1899
时的	-1900
现状	-1901
还没有	-1902
世界经济	-1903
产出	-1904
国防	-1905
月份	-1906
化石燃料	-1907
低的	-1908
出于	-1909
动物	-1910
屠杀	-1911
反映了	-1912
就可以	-1913
回归	-1914
外汇	-1915
早期	-1916
涉及	-1917
尔多安	-1918
中间	-1919
▁除了	-1920
2000	-1921
变得更加	-1922
新兴经济体	-1923
不受	-1924
抑制	-1925
纳德	-1926
▁L	-1927
几个月	-1928
组织的	-1929
伙伴关系	-1930
油价	-1931
诸多	-1932
第一个	-1933
孤立	-1934
斯科	-1935
杠杆	-1936
维护	-1937
故事	-1938
权的	-1939
森林	-1940
荷兰	-1941
因为它	-1942
5%	-1943
▁d	-1944
对话	-1945
愤怒	-1946
中国和	-1947
伊朗的	-1948
安理会	-1949
te	-1950
边界	-1951
▁20	-1952
更高的	-1953
问题是	-1954
金融机构	-1955
来看	-1956
研发	-1957
构成	-1958
我们必须	-1959
人在	-1960
兄弟	-1961
情报	-1962
凯恩斯	-1963
数百万	-1964
股市	-1965
自动	-1966
评论	-1967
什叶派	-1968
牺牲	-1969
著名	-1970
行长	-1971
被视为	-1972
句话	-1973
承受	-1974
劳动力市场	-1975
巨额	-1976
心理	-1977
违约	-1978
一体化	-1979
阿萨德	-1980
其它	-1981
之路	-1982
大型	-1983
成功的	-1984
的承诺	-1985
减税	-1986
占领	-1987
规划	-1988
包含	-1989
受害	-1990
约翰	-1991
事会	-1992
仍在	-1993
内战	-1994
幸运	-1995
所在	-1996
性别	-1997
库尔德	-1998
量化宽松	-1999
看法	-2000
ur	-2001
中所	-2002
有一个	-2003
回到	-2004
结合	-2005
▁法国	-2006
埃尔多安	-2007
▁而在	-2008
▁《	-2009
▁即	-2010
▁和	-2011
但在	-2012
俄罗斯的	-2013
13	-2014
一起	-2015
强硬	-2016
他在	-2017
再生	-2018
流入	-2019
用的	-2020
很可能	-2021
支持者	-2022
稳定的	-2023
进行了	-2024
采取行动	-2025
▁K	-2026
▁比	-2027
边缘	-2028
看起来	-2029
目前为止	-2030
▁如	-2031
模型	-2032
澳大	-2033
也是如此	-2034
一旦	-2035
惩罚	-2036
对待	-2037
有时	-2038
也无法	-2039
已经在	-2040
▁实际上	-2041
伊斯兰国	-2042
声称	-2043
未来的	-2044
▁the	-2045
不用	-2046
缅甸	-2047
▁伦敦	-2048
不可避免	-2049
形势	-2050
记者	-2051
加沙	-2052
现金	-2053
职业	-2054
西洋	-2055
▁甚至	-2056
和金融	-2057
在一起	-2058
无疑	-2059
特殊	-2060
绝对	-2061
释放	-2062
不愿	-2063
两种	-2064
标志	-2065
ers	-2066
▁奥巴马	-2067
很大程度上	-2068
一点	-2069
相似	-2070
非法	-2071
澳大利亚	-2072
回应	-2073
亿美元的	-2074
16	-2075
尚未	-2076
测试	-2077
高度	-2078
的威胁	-2079
是个	-2080
▁f	-2081
极大	-2082
加拿	-2083
所面临的	-2084
▁换	-2085
▁并且	-2086
还需要	-2087
各国政府	-2088
居民	-2089
法庭	-2090
欧洲人	-2091
不太	-2092
营养	-2093
▁第二	-2094
交通	-2095
员工	-2096
达到了	-2097
错误的	-2098
做的	-2099
医生	-2100
资格	-2101
2%	-2102
以前	-2103
早已	-2104
过渡	-2105
改革的	-2106
▁..	-2107
▁过去	-2108
大西洋	-2109
的地区	-2110
ul	-2111
产量	-2112
▁...	-2113
un	-2114
义务	-2115
以后	-2116
变成	-2117
拉丁	-2118
首次	-2119
太平	-2120
各自	-2121
消失	-2122
纳税	-2123
不满	-2124
动力	-2125
强制	-2126
被认为	-2127
极为	-2128
生态	-2129
必要的	-2130
提出了	-2131
付出	-2132
意见	-2133
渴望	-2134
▁今天	-2135
的挑战	-2136
姆林	-2137
在欧洲	-2138
作出	-2139
更有	-2140
计划的	-2141
借贷	-2142
参加	-2143
还会	-2144
阿尔	-2145
不利	-2146
想法	-2147
贝尔	-2148
试验	-2149
▁上述	-2150
▁简	-2151
月的	-2152
原因是	-2153
合法性	-2154
最重要的	-2155
资产负债	-2156
顾问	-2157
和中国	-2158
政治家	-2159
oo	-2160
决心	-2161
紧急	-2162
债权人	-2163
任命	-2164
逻辑	-2165
在经济	-2166
太平洋	-2167
民主的	-2168
▁N	-2169
▁W	-2170
哥伦	-2171
循环	-2172
瑞典	-2173
之所以	-2174
企业的	-2175
id	-2176
不要	-2177
正义	-2178
不仅仅是	-2179
▁让	-2180
一般	-2181
海洋	-2182
消灭	-2183
强劲	-2184
在全球	-2185
哥伦比亚	-2186
和投资	-2187
下来	-2188
有了	-2189
紧密	-2190
▁即便	-2191
▁第三	-2192
将继续	-2193
▁and	-2194
资产负债表	-2195
比率	-2196
组合	-2197
给了	-2198
与美国	-2199
可再生	-2200
打破	-2201
这次	-2202
▁在美国	-2203
优先	-2204
例外	-2205
超越	-2206
巴拉克	-2207
于是	-2208
人数	-2209
位于	-2210
▁去年	-2211
一下	-2212
紧迫	-2213
的中国	-2214
产权	-2215
住房	-2216
退欧	-2217
采取了	-2218
协助	-2219
离开	-2220
选举中	-2221
这个问题	-2222
怎么	-2223
斯特	-2224
超级	-2225
PP	-2226
万人	-2227
要比	-2228
突然	-2229
加拿大	-2230
实现了	-2231
目前的	-2232
指导	-2233
艾滋病	-2234
兴趣	-2235
违反	-2236
已经开始	-2237
不久	-2238
尼斯	-2239
格鲁	-2240
激烈	-2241
名义	-2242
基督	-2243
是美国	-2244
的需求	-2245
em	-2246
全民	-2247
必然	-2248
限于	-2249
▁其他	-2250
受到了	-2251
所有的	-2252
的贸易	-2253
命运	-2254
垄断	-2255
覆盖	-2256
失衡	-2257
穷人	-2258
而在	-2259
议程	-2260
一系列	-2261
低收入	-2262
的战略	-2263
公正	-2264
期望	-2265
产生了	-2266
民主国家	-2267
这一目标	-2268
数十	-2269
特别是在	-2270
不够	-2271
业务	-2272
论坛	-2273
也不会	-2274
的行动	-2275
建筑	-2276
推行	-2277
获益	-2278
遵守	-2279
共产主义	-2280
太阳	-2281
海外	-2282
诚然	-2283
人均	-2284
百分	-2285
身上	-2286
电力	-2287
▁或者	-2288
和服务	-2289
的军事	-2290
克里姆林	-2291
保留	-2292
北京	-2293
摧毁	-2294
支撑	-2295
结核	-2296
要素	-2297
都将	-2298
是如此	-2299
的时间	-2300
公约	-2301
言之	-2302
镇压	-2303
都没有	-2304
尼日	-2305
的努力	-2306
ob	-2307
能在	-2308
过来	-2309
的措施	-2310
保护主义	-2311
否认	-2312
目的是	-2313
2005	-2314
发行	-2315
高级	-2316
拉丁美洲	-2317
ag	-2318
个体	-2319
约旦	-2320
▁今年	-2321
▁可以	-2322
li	-2323
放在	-2324
解放	-2325
的方法	-2326
之为	-2327
之时	-2328
以往	-2329
每个	-2330
越南	-2331
同时也	-2332
我们需要	-2333
▁近	-2334
份额	-2335
加拉	-2336
忽略	-2337
本地	-2338
西亚	-2339
语言	-2340
的生活	-2341
ce	-2342
人道	-2343
至今	-2344
仅仅是	-2345
支持的	-2346
▁她	-2347
只会	-2348
声明	-2349
应用	-2350
的地方	-2351
常规	-2352
患者	-2353
持久	-2354
发生在	-2355
的历史	-2356
到的	-2357
各方	-2358
迹象	-2359
随之	-2360
▁还有	-2361
成功地	-2362
的成本	-2363
已经成为	-2364
布鲁	-2365
年龄	-2366
通缩	-2367
在内的	-2368
领导的	-2369
化和	-2370
▁他的	-2371
的利益	-2372
绝大多数	-2373
廉价	-2374
马克龙	-2375
互相	-2376
让人	-2377
逆转	-2378
全球变暖	-2379
一年	-2380
▁诚然	-2381
让他们	-2382
最新	-2383
都要	-2384
注意力	-2385
的环境	-2386
陷入了	-2387
人物	-2388
阶层	-2389
▁问题	-2390
机构的	-2391
以此	-2392
经营	-2393
▁那些	-2394
的理由	-2395
▁所有这些	-2396
暴露	-2397
演讲	-2398
短缺	-2399
谨慎	-2400
半岛	-2401
哪些	-2402
共和国	-2403
投资于	-2404
的唯一	-2405
的技术	-2406
另一方面	-2407
大会	-2408
艰难	-2409
东盟	-2410
主流	-2411
准确	-2412
谴责	-2413
的领导	-2414
加坡	-2415
纳入	-2416
绝非	-2417
经济发展	-2418
▁你	-2419
战斗	-2420
亿欧元	-2421
的市场	-2422
所造成的	-2423
召开	-2424
是有	-2425
气体	-2426
疲软	-2427
脱离	-2428
经常项目	-2429
沙尔	-2430
是为了	-2431
▁在过去	-2432
欧盟委员会	-2433
上去	-2434
ab	-2435
之上	-2436
修正	-2437
可信	-2438
法治	-2439
经过	-2440
的安全	-2441
的银行	-2442
中期	-2443
不平等性	-2444
了对	-2445
最低	-2446
留在	-2447
多元	-2448
额外	-2449
发起	-2450
马里	-2451
▁显然	-2452
段时间	-2453
终于	-2454
在政治	-2455
手中	-2456
逐步	-2457
存在的	-2458
不确定性	-2459
罗马	-2460
证券	-2461
▁In	-2462
金正	-2463
增长和	-2464
的做法	-2465
借款	-2466
拉美	-2467
指控	-2468
整合	-2469
所有人	-2470
的公共	-2471
二十世纪	-2472
可能导致	-2473
台湾	-2474
恐慌	-2475
可再生能源	-2476
一半	-2477
判断	-2478
存款	-2479
浪费	-2480
收入的	-2481
的自由	-2482
建立一个	-2483
化为	-2484
扭曲	-2485
运作	-2486
操作	-2487
1990	-2488
▁大	-2489
莫迪	-2490
获胜	-2491
设备	-2492
▁只要	-2493
为基础	-2494
对中国	-2495
犹太人	-2496
的决定	-2497
我们可以	-2498
使其	-2499
国务	-2500
一部分	-2501
巴勒斯坦人	-2502
度的	-2503
都能	-2504
美国经济	-2505
温室	-2506
阵营	-2507
的权利	-2508
积累	-2509
选票	-2510
的东西	-2511
的例子	-2512
集中在	-2513
突破	-2514
恐怖分子	-2515
以下	-2516
区别	-2517
抓住	-2518
柏林	-2519
第四	-2520
负面	-2521
资助	-2522
的变化	-2523
克里姆林宫	-2524
▁p	-2525
东亚	-2526
但它	-2527
密切	-2528
渠道	-2529
理性	-2530
ve	-2531
放松	-2532
偿还	-2533
出售	-2534
朋友	-2535
疟疾	-2536
194	-2537
的债务	-2538
▁换句话	-2539
▁s	-2540
两者	-2541
平民	-2542
抵消	-2543
前所未有的	-2544
形象	-2545
永久	-2546
重塑	-2547
称之为	-2548
尼日利亚	-2549
许多国家	-2550
以便	-2551
式的	-2552
电子	-2553
良好	-2554
唐纳德	-2555
巴沙尔	-2556
的最佳	-2557
利班	-2558
费用	-2559
的选择	-2560
不良	-2561
动机	-2562
壁垒	-2563
文章	-2564
私营	-2565
还在	-2566
部署	-2567
麻烦	-2568
的价格	-2569
的关系	-2570
货币联盟	-2571
▁;	-2572
做好	-2573
分之	-2574
排除	-2575
人们对	-2576
失去了	-2577
▁但这一	-2578
2001	-2579
客户	-2580
性质	-2581
男性	-2582
▁这就是	-2583
五年	-2584
还能	-2585
举行的	-2586
不如	-2587
无力	-2588
缓解	-2589
股东	-2590
▁上	-2591
悲剧	-2592
man	-2593
当前的	-2594
he	-2595
多年	-2596
196	-2597
也应该	-2598
回答	-2599
更快	-2600
清洁	-2601
art	-2602
教育和	-2603
拉夫	-2604
此前	-2605
每天	-2606
▁鉴于	-2607
人们的	-2608
根源	-2609
不用说	-2610
减轻	-2611
是由	-2612
流行	-2613
降低了	-2614
3%	-2615
功能	-2616
吸引力	-2617
的一些	-2618
的经济增长	-2619
⁄4	-2620
复兴	-2621
塔利班	-2622
可怕	-2623
深远	-2624
警察	-2625
▁不过	-2626
▁以色列	-2627
减速	-2628
医学	-2629
认定	-2630
距离	-2631
人口的	-2632
美元的	-2633
世俗	-2634
层次	-2635
以及其他	-2636
幸运的是	-2637
温室气体	-2638
本质	-2639
共产党	-2640
观念	-2641
销售	-2642
▁伊朗	-2643
进行的	-2644
部门的	-2645
匈牙	-2646
南亚	-2647
情形	-2648
没能	-2649
匈牙利	-2650
有能力	-2651
愿景	-2652
煽动	-2653
一直是	-2654
他们在	-2655
受害者	-2656
社会的	-2657
超过了	-2658
信号	-2659
古巴	-2660
吉亚	-2661
完美	-2662
活力	-2663
终结	-2664
那种	-2665
人认为	-2666
范围内	-2667
很有可能	-2668
长期以来	-2669
米尔	-2670
专注	-2671
其在	-2672
升高	-2673
国债	-2674
抵押	-2675
智利	-2676
殖民	-2677
空气	-2678
职位	-2679
致命	-2680
合理的	-2681
很容易	-2682
丧失	-2683
导致的	-2684
广泛的	-2685
2006	-2686
困扰	-2687
感染	-2688
2017	-2689
格鲁吉亚	-2690
一条	-2691
争取	-2692
南部	-2693
实质	-2694
歧视	-2695
在一个	-2696
信仰	-2697
化学	-2698
多么	-2699
失望	-2700
是最	-2701
的资金	-2702
所得	-2703
拉斯	-2704
日渐	-2705
本人	-2706
材料	-2707
服务业	-2708
ec	-2709
实践	-2710
获取	-2711
黄金	-2712
的数据	-2713
开展	-2714
纳粹	-2715
国家和	-2716
的最新	-2717
经济和	-2718
▁换句话说	-2719
不了	-2720
专制	-2721
事业	-2722
细胞	-2723
政府在	-2724
的人们	-2725
年度	-2726
接触	-2727
ir	-2728
导向	-2729
施加	-2730
背景下	-2731
从来	-2732
养老	-2733
某个	-2734
可能的	-2735
都必须	-2736
▁华盛顿	-2737
3.	-2738
兑现	-2739
共享	-2740
动作	-2741
方说	-2742
中国在	-2743
会导致	-2744
的任务	-2745
也能	-2746
这一问题	-2747
办公	-2748
加以	-2749
德拉	-2750
反过来	-2751
形式的	-2752
低估	-2753
当中	-2754
基金会	-2755
越来越多	-2756
尔的	-2757
意料	-2758
1%	-2759
NA	-2760
对外	-2761
林斯	-2762
解体	-2763
关系的	-2764
两位	-2765
发电	-2766
接着	-2767
认真	-2768
近期	-2769
的事实	-2770
肯尼亚	-2771
预算赤字	-2772
某种程度上	-2773
一名	-2774
东欧	-2775
原本	-2776
她的	-2777
的后果	-2778
英格兰	-2779
诺贝尔	-2780
一家	-2781
否决	-2782
昂贵	-2783
物质	-2784
震惊	-2785
十年代	-2786
引发了	-2787
德国的	-2788
良好的	-2789
固定	-2790
塔尼亚	-2791
国家安全	-2792
人工	-2793
但这	-2794
到底	-2795
敌人	-2796
规范	-2797
财务	-2798
参与者	-2799
负责任	-2800
临时	-2801
团队	-2802
私有	-2803
行政	-2804
技术的	-2805
中国经济	-2806
▁可	-2807
上了	-2808
权威	-2809
群众	-2810
10%	-2811
领域的	-2812
SD	-2813
纷纷	-2814
起了	-2815
企业家	-2816
的速度	-2817
专利	-2818
印尼	-2819
文明	-2820
立刻	-2821
过剩	-2822
饱受	-2823
2030	-2824
中有	-2825
急剧	-2826
暂时	-2827
工业化	-2828
▁for	-2829
金融体系	-2830
律宾	-2831
授权	-2832
面前	-2833
将成为	-2834
投资的	-2835
菲律宾	-2836
▁这样的	-2837
没有任何	-2838
社交	-2839
葡萄	-2840
青年	-2841
企业和	-2842
现代化	-2843
急需	-2844
游戏	-2845
真相	-2846
经合	-2847
▁c	-2848
声音	-2849
深度	-2850
▁希腊	-2851
大萧条	-2852
太阳能	-2853
ig	-2854
蔓延	-2855
不足以	-2856
也必须	-2857
十年的	-2858
孟加拉	-2859
因为他们	-2860
丰富	-2861
抛弃	-2862
的危险	-2863
的成功	-2864
位置	-2865
大战	-2866
显得	-2867
创造了	-2868
权力的	-2869
ev	-2870
世贸	-2871
觉得	-2872
讽刺	-2873
会议上	-2874
的战争	-2875
▁马	-2876
从事	-2877
全力	-2878
法官	-2879
用户	-2880
▁当时	-2881
仍然是	-2882
的所有	-2883
ov	-2884
冒险	-2885
途径	-2886
首席	-2887
ity	-2888
好消息	-2889
世界各地	-2890
仍有	-2891
征收	-2892
前任	-2893
剑桥	-2894
契约	-2895
拿出	-2896
考验	-2897
▁所以	-2898
时代的	-2899
更好地	-2900
▁199	-2901
内塔尼亚	-2902
布鲁塞尔	-2903
的重要性	-2904
7%	-2905
也门	-2906
分别	-2907
季度	-2908
日本的	-2909
的态度	-2910
三分之一	-2911
内塔尼亚胡	-2912
僵局	-2913
坚定	-2914
引导	-2915
的要求	-2916
成熟	-2917
物价	-2918
迫切	-2919
也不是	-2920
也可能	-2921
长时间	-2922
2004	-2923
这个国家	-2924
op	-2925
一轮	-2926
不需要	-2927
百分点	-2928
▁中国的	-2929
不可持续	-2930
所有人都	-2931
到来	-2932
审查	-2933
密集	-2934
自由化	-2935
显而易见	-2936
越来越多的	-2937
为此	-2938
哈拉	-2939
改进	-2940
政变	-2941
赋予	-2942
的最大	-2943
ra	-2944
严厉	-2945
却是	-2946
合同	-2947
工会	-2948
没人	-2949
主义和	-2950
和欧洲	-2951
▁联合国	-2952
▁幸运的是	-2953
主宰	-2954
吸收	-2955
小的	-2956
点是	-2957
一开始	-2958
只不过	-2959
这两个	-2960
财政政策	-2961
24	-2962
产能	-2963
以外	-2964
助长	-2965
投机	-2966
其他人	-2967
明确的	-2968
结核病	-2969
▁但我们	-2970
分享	-2971
落后	-2972
训练	-2973
多年来	-2974
▁l	-2975
干涉	-2976
最初	-2977
武力	-2978
流向	-2979
秘密	-2980
运转	-2981
十年中	-2982
▁另一个	-2983
几十年来	-2984
出生	-2985
或是	-2986
注入	-2987
▁经济	-2988
的力量	-2989
2020	-2990
白宫	-2991
▁他们的	-2992
▁简言之	-2993
道理	-2994
里的	-2995
不稳定	-2996
发展的	-2997
应该是	-2998
形成了	-2999
不少	-3000
何种	-3001
比重	-3002
设立	-3003
防御	-3004
3⁄4	-3005
印度的	-3006
还必须	-3007
主权债务	-3008
清晰	-3009
的收入	-3010
下滑	-3011
严峻	-3012
变为	-3013
忧虑	-3014
特定	-3015
药品	-3016
高效	-3017
很多人	-3018
的人民	-3019
的压力	-3020
财政部长	-3021
显而易见的	-3022
两年	-3023
加大	-3024
完整	-3025
选项	-3026
所有这些	-3027
政策制定	-3028
的领导人	-3029
不安	-3030
各个	-3031
▁最终	-3032
协议的	-3033
新加坡	-3034
两次	-3035
乔治	-3036
决议	-3037
北部	-3038
反而	-3039
害怕	-3040
小时	-3041
深入	-3042
融合	-3043
的权力	-3044
不上	-3045
出资	-3046
圣战	-3047
小组	-3048
雄心	-3049
办公室	-3050
▁但这些	-3051
▁美联储	-3052
基础设施投资	-3053
亿人	-3054
动员	-3055
融入	-3056
▁如此	-3057
▁西方	-3058
相对较	-3059
系统的	-3060
利息	-3061
外围	-3062
巴斯	-3063
TPP	-3064
的货币	-3065
就在	-3066
期待	-3067
补偿	-3068
ion	-3069
有力的	-3070
全球化的	-3071
后来	-3072
担保	-3073
毁灭	-3074
专注于	-3075
庞大的	-3076
苏格兰	-3077
适用于	-3078
学院	-3079
领先	-3080
▁不仅	-3081
的反应	-3082
的方案	-3083
强势	-3084
明年	-3085
生素	-3086
纪念	-3087
要想	-3088
在中国	-3089
看上去	-3090
ment	-3091
▁考虑到	-3092
压倒	-3093
扭转	-3094
更具	-3095
这将	-3096
这样一个	-3097
了其	-3098
定居	-3099
问责	-3100
和安全	-3101
的信息	-3102
重要性	-3103
35	-3104
享受	-3105
作物	-3106
克斯	-3107
才会	-3108
提议	-3109
此次	-3110
300	-3111
的公司	-3112
的法律	-3113
能力的	-3114
全球金融危机	-3115
一份	-3116
合适	-3117
更多地	-3118
理事会	-3119
的问题是	-3120
人群	-3121
制约	-3122
剥夺	-3123
总值	-3124
敏感	-3125
母亲	-3126
迄今	-3127
▁普京	-3128
和国际	-3129
水平的	-3130
英国的	-3131
外汇储备	-3132
eb	-3133
大多	-3134
的确	-3135
▁in	-3136
▁国际	-3137
低利率	-3138
下了	-3139
意外	-3140
教授	-3141
煤炭	-3142
现任	-3143
看似	-3144
影响到	-3145
的责任	-3146
金正恩	-3147
um	-3148
信誉	-3149
表面	-3150
象征	-3151
▁至少	-3152
为其	-3153
的无	-3154
能让	-3155
艺术	-3156
葡萄牙	-3157
经合组织	-3158
响应	-3159
诊断	-3160
运用	-3161
首脑	-3162
▁非洲	-3163
2003	-3164
欧洲国家	-3165
1,	-3166
地说	-3167
富有	-3168
弱势	-3169
相应	-3170
移动	-3171
了美国	-3172
目标的	-3173
不在	-3174
为例	-3175
花费	-3176
监管者	-3177
▁土耳其	-3178
to	-3179
印象	-3180
在线	-3181
监控	-3182
▁而这	-3183
倾向于	-3184
工作的	-3185
相关的	-3186
以色列的	-3187
im	-3188
医院	-3189
学术	-3190
席位	-3191
所说	-3192
讲话	-3193
那个	-3194
马拉	-3195
战争的	-3196
是什么	-3197
▁在这方面	-3198
发展中国家的	-3199
习惯	-3200
充足	-3201
布莱	-3202
沦为	-3203
防务	-3204
主要是	-3205
建立在	-3206
与此同时	-3207
几乎没有	-3208
估算	-3209
但其	-3210
做到	-3211
前进	-3212
瑞士	-3213
ational	-3214
人才	-3215
修改	-3216
关心	-3217
关闭	-3218
庇护	-3219
提供的	-3220
的角色	-3221
突尼斯	-3222
运行	-3223
领导层	-3224
▁2008	-3225
▁?	-3226
太多	-3227
年底	-3228
无关	-3229
机遇	-3230
盈利	-3231
纠正	-3232
野心	-3233
首要	-3234
下降到	-3235
举动	-3236
制药	-3237
和解	-3238
多大	-3239
奥斯	-3240
也不能	-3241
世界其他	-3242
布什政府	-3243
8%	-3244
▁O	-3245
▁用	-3246
军方	-3247
悲观	-3248
更是	-3249
补充	-3250
多样性	-3251
组成的	-3252
商品价格	-3253
成员国的	-3254
特朗普政府	-3255
oh	-3256
女孩	-3257
彼此	-3258
癌症	-3259
真主	-3260
的增加	-3261
的说法	-3262
研究所	-3263
赢得了	-3264
不应	-3265
北美	-3266
参议院	-3267
基督教	-3268
存在着	-3269
的水平	-3270
一个国家	-3271
卡梅	-3272
填补	-3273
▁有些	-3274
唯一的	-3275
出台	-3276
罗姆	-3277
这位	-3278
陷阱	-3279
出现在	-3280
建立了	-3281
提高了	-3282
的好处	-3283
转化为	-3284
中国政府	-3285
容忍	-3286
沃尔	-3287
ill	-3288
有效地	-3289
莫斯科	-3290
过去的	-3291
欧盟成员国	-3292
发明	-3293
斯基	-3294
步骤	-3295
签订	-3296
▁除非	-3297
不存在	-3298
他们所	-3299
以至于	-3300
保守派	-3301
和日本	-3302
投资和	-3303
倒闭	-3304
分散	-3305
影响的	-3306
得不到	-3307
总统的	-3308
恐怖袭击	-3309
这些问题	-3310
侵犯	-3311
审判	-3312
工厂	-3313
披露	-3314
泰国	-3315
等待	-3316
相对于	-3317
美国政府	-3318
▁如果我们	-3319
中国领导人	-3320
▁由	-3321
保罗	-3322
先进	-3323
哪里	-3324
富人	-3325
无可	-3326
滥用	-3327
背后	-3328
零售	-3329
大学的	-3330
是否会	-3331
目标是	-3332
真主党	-3333
▁美国的	-3334
▁m	-3335
加快	-3336
定价	-3337
并将	-3338
拉里	-3339
波斯	-3340
消极	-3341
申请	-3342
纳税人	-3343
予以	-3344
可行	-3345
普及	-3346
极其	-3347
苏丹	-3348
让步	-3349
与其他	-3350
也需要	-3351
做出了	-3352
所需的	-3353
的最后	-3354
第二次	-3355
就业岗位	-3356
总额	-3357
推迟	-3358
衰落	-3359
ich	-3360
▁于是	-3361
时间里	-3362
背后的	-3363
并不意味着	-3364
至关重要的	-3365
▁每	-3366
情景	-3367
来讲	-3368
游说	-3369
起诉	-3370
还将	-3371
利益的	-3372
很大的	-3373
是一场	-3374
▁本	-3375
沉重	-3376
总需求	-3377
的基本	-3378
av	-3379
一国	-3380
在内	-3381
立即	-3382
站在	-3383
认可	-3384
在这个	-3385
公布	-3386
履行	-3387
排名	-3388
电脑	-3389
继任	-3390
高昂	-3391
▁就像	-3392
生产力	-3393
都无法	-3394
就业机会	-3395
自然资源	-3396
保健	-3397
单位	-3398
和对	-3399
物种	-3400
与中国	-3401
和全球	-3402
的事情	-3403
▁像	-3404
就将	-3405
战后	-3406
残酷	-3407
毒品	-3408
养老金	-3409
只有在	-3410
主教	-3411
人力	-3412
宣言	-3413
萨达	-3414
的效果	-3415
oc	-3416
介入	-3417
延续	-3418
路线	-3419
必须在	-3420
的一种	-3421
自由的	-3422
还可以	-3423
证据表明	-3424
伯特	-3425
幅度	-3426
救助	-3427
无人	-3428
爆炸	-3429
十年前	-3430
变成了	-3431
世贸组织	-3432
▁平	-3433
一套	-3434
最佳	-3435
民意	-3436
些时候	-3437
债务的	-3438
撒哈拉	-3439
开发银行	-3440
财政赤字	-3441
资产价格	-3442
从中	-3443
工党	-3444
抵抗	-3445
综合	-3446
说是	-3447
ard	-3448
国务卿	-3449
透明度	-3450
知识产权	-3451
在很大程度上	-3452
可持续发展目标	-3453
ay	-3454
延长	-3455
薪酬	-3456
记忆	-3457
的一项	-3458
的代价	-3459
破坏了	-3460
▁也就是	-3461
▁欧元区	-3462
自由贸易协定	-3463
催生	-3464
将军	-3465
报纸	-3466
而被	-3467
萨尔	-3468
评级	-3469
金砖	-3470
▁巴黎	-3471
依赖于	-3472
构成了	-3473
肯定会	-3474
使命	-3475
口号	-3476
引擎	-3477
梦想	-3478
类型	-3479
重视	-3480
长达	-3481
财政部	-3482
实现这一目标	-3483
严肃	-3484
活跃	-3485
热情	-3486
而论	-3487
复杂的	-3488
▁欧洲央行	-3489
4%	-3490
乃至	-3491
人为	-3492
提醒	-3493
里根	-3494
雇主	-3495
▁在此	-3496
意义的	-3497
后代	-3498
地理	-3499
就越	-3500
系统性	-3501
获得的	-3502
角度看	-3503
▁毫无疑问	-3504
ran	-3505
▁任何	-3506
了一场	-3507
就需要	-3508
改变了	-3509
因为它们	-3510
更不用说	-3511
▁J	-3512
▁前	-3513
交换	-3514
弱点	-3515
推广	-3516
电影	-3517
萎靡	-3518
几年来	-3519
威胁到	-3520
已经被	-3521
人工智能	-3522
▁总	-3523
会对	-3524
伟大	-3525
压制	-3526
大于	-3527
很有	-3528
恰当	-3529
所作	-3530
最好	-3531
榜样	-3532
继承	-3533
落实	-3534
ert	-3535
基本上	-3536
已成为	-3537
▁大部分	-3538
的经济体	-3539
威尔	-3540
学者	-3541
里斯	-3542
和技术	-3543
安全的	-3544
起作用	-3545
人道主义	-3546
的大规模	-3547
6%	-3548
互动	-3549
展示	-3550
配置	-3551
鼓吹	-3552
参议员	-3553
是一项	-3554
22	-3555
不必	-3556
中等	-3557
同事	-3558
家族	-3559
截然	-3560
所能	-3561
隔离	-3562
取得的	-3563
的现实	-3564
让美国	-3565
社交媒体	-3566
▁除	-3567
夏天	-3568
巴尔	-3569
暗示	-3570
确认	-3571
秘书	-3572
都被	-3573
对欧洲	-3574
的一切	-3575
都需要	-3576
中共	-3577
劳工	-3578
周边	-3579
布雷	-3580
智慧	-3581
案例	-3582
的小	-3583
缺口	-3584
传染病	-3585
破坏性	-3586
公共部门	-3587
的影响力	-3588
▁这是一个	-3589
借助	-3590
创业	-3591
南欧	-3592
开启	-3593
饥饿	-3594
也同样	-3595
我们在	-3596
遭到了	-3597
都可以	-3598
没有什么	-3599
ge	-3600
偿付	-3601
难题	-3602
ook	-3603
了一项	-3604
抗生素	-3605
的价值	-3606
的基础上	-3607
qu	-3608
中美	-3609
内阁	-3610
幸福	-3611
特里	-3612
而已	-3613
课程	-3614
高速	-3615
也许是	-3616
风险的	-3617
迄今为止	-3618
▁b	-3619
凸显	-3620
物理	-3621
追随	-3622
冲突的	-3623
削弱了	-3624
加剧了	-3625
大屠杀	-3626
排放量	-3627
的总统	-3628
▁在这样的	-3629
勃勃	-3630
多种	-3631
大众	-3632
实在	-3633
身体	-3634
马来	-3635
包容性	-3636
引起了	-3637
便是	-3638
典型	-3639
切尔	-3640
在此	-3641
时机	-3642
注定	-3643
科索	-3644
舞台	-3645
▁一旦	-3646
和政府	-3647
和环境	-3648
第二个	-3649
计算机	-3650
可持续性	-3651
▁问题在于	-3652
结构性改革	-3653
ap	-3654
仇恨	-3655
哈佛	-3656
地带	-3657
士兵	-3658
失所	-3659
换取	-3660
检查	-3661
焦点	-3662
纠纷	-3663
重重	-3664
不再是	-3665
众议院	-3666
可行的	-3667
几乎所有	-3668
地方政府	-3669
穆巴拉克	-3670
外界	-3671
强的	-3672
数千	-3673
无所	-3674
谷歌	-3675
足球	-3676
间的	-3677
颠覆	-3678
再一次	-3679
可能在	-3680
极大的	-3681
的条件	-3682
行为的	-3683
争端	-3684
深化	-3685
电话	-3686
维奇	-3687
跨境	-3688
食物	-3689
马上	-3690
20%	-3691
科索沃	-3692
下台	-3693
之际	-3694
出版	-3695
卡塔	-3696
居住	-3697
慷慨	-3698
战胜	-3699
手机	-3700
保守党	-3701
卡梅伦	-3702
另一种	-3703
心而论	-3704
控制的	-3705
转移到	-3706
非政府	-3707
审慎	-3708
效益	-3709
敦促	-3710
鼓舞	-3711
制度的	-3712
更容易	-3713
甚至是	-3714
生产总值	-3715
上台	-3716
发出	-3717
多个	-3718
米亚	-3719
街头	-3720
独立的	-3721
让人们	-3722
证明了	-3723
自由主义	-3724
▁阿	-3725
三大	-3726
日的	-3727
生育	-3728
适合	-3729
也包括	-3730
以确保	-3731
体系的	-3732
并不能	-3733
的地位	-3734
▁比方说	-3735
IS	-3736
一再	-3737
仍是	-3738
低迷	-3739
暴跌	-3740
证实	-3741
年代的	-3742
金融稳定	-3743
丑闻	-3744
代理	-3745
分离	-3746
反弹	-3747
愿望	-3748
房价	-3749
报复	-3750
诱惑	-3751
阻挠	-3752
.5%	-3753
能够在	-3754
被称为	-3755
基地组织	-3756
ak	-3757
▁那	-3758
会有	-3759
做得	-3760
和新	-3761
巨头	-3762
提案	-3763
早就	-3764
时任	-3765
的海	-3766
要在	-3767
193	-3768
到来的	-3769
核计划	-3770
两倍	-3771
依据	-3772
提名	-3773
知的	-3774
神经	-3775
缩小	-3776
进而	-3777
23	-3778
减排	-3779
律师	-3780
阵线	-3781
尽可能	-3782
的企业	-3783
这些人	-3784
27	-3785
哪怕	-3786
寿命	-3787
实施了	-3788
的必要	-3789
▁在这个	-3790
伦理	-3791
塞浦	-3792
路斯	-3793
世纪的	-3794
因为这	-3795
每一个	-3796
绝不是	-3797
非常规	-3798
1980	-3799
绝大部分	-3800
▁"	-3801
不论	-3802
丹麦	-3803
以南	-3804
借口	-3805
均衡	-3806
慈善	-3807
我在	-3808
更少	-3809
监狱	-3810
盟国	-3811
自愿	-3812
▁的确	-3813
不愿意	-3814
出来的	-3815
国家都	-3816
将导致	-3817
法国和	-3818
的欧盟	-3819
的能源	-3820
石油和	-3821
塞浦路斯	-3822
免疫	-3823
日常	-3824
沮丧	-3825
纪录	-3826
西欧	-3827
遗产	-3828
风暴	-3829
▁要想	-3830
下降了	-3831
各国的	-3832
的协议	-3833
重大的	-3834
世界大战	-3835
伊拉克的	-3836
联合国安理会	-3837
事故	-3838
危害	-3839
好像	-3840
废除	-3841
英镑	-3842
软件	-3843
出现的	-3844
实现的	-3845
石油价格	-3846
到目前为止	-3847
偏好	-3848
北欧	-3849
掩盖	-3850
ess	-3851
▁或许	-3852
传统的	-3853
商品和服务	-3854
ow	-3855
▁·	-3856
会谈	-3857
其对	-3858
年到	-3859
斯大	-3860
绝望	-3861
连续	-3862
可以从	-3863
批评者	-3864
的反对	-3865
糟糕的是	-3866
今后	-3867
成长	-3868
沟通	-3869
ate	-3870
以及对	-3871
十年来	-3872
接受的	-3873
是通过	-3874
水资源	-3875
银行家	-3876
克里米亚	-3877
年金融危机	-3878
4.	-3879
老龄	-3880
钢铁	-3881
机器人	-3882
解释了	-3883
合作伙伴	-3884
我们应该	-3885
组成部分	-3886
ia	-3887
tu	-3888
千年	-3889
发放	-3890
同一	-3891
有望	-3892
模糊	-3893
▁这就	-3894
28	-3895
地中	-3896
果断	-3897
裁决	-3898
价值的	-3899
反映出	-3900
最好的	-3901
的共同	-3902
该地区的	-3903
转移支付	-3904
▁平心而论	-3905
何时	-3906
流离	-3907
伴随着	-3908
民粹主义者	-3909
▁再	-3910
争夺	-3911
切实	-3912
可谓	-3913
大宗	-3914
姿态	-3915
年初	-3916
比以往	-3917
生活的	-3918
成为一个	-3919
29	-3920
动摇	-3921
妨碍	-3922
美军	-3923
成为了	-3924
这一切	-3925
个百分点	-3926
也就	-3927
他对	-3928
北方	-3929
华尔	-3930
挪威	-3931
病人	-3932
减少了	-3933
在国际	-3934
政权的	-3935
银行和	-3936
阿拉伯国家	-3937
区分	-3938
哈根	-3939
庞大	-3940
日元	-3941
缓和	-3942
他们对	-3943
华尔街	-3944
所面临	-3945
退休金	-3946
2018	-3947
在这方面	-3948
阿拉伯世界	-3949
CC	-3950
nd	-3951
之春	-3952
反复	-3953
已有	-3954
心的	-3955
源自	-3956
理应	-3957
走上	-3958
其中的	-3959
IP	-3960
专门	-3961
交流	-3962
完善	-3963
所赐	-3964
游行	-3965
著作	-3966
频繁	-3967
没有人	-3968
独裁者	-3969
塞尔维亚	-3970
流离失所	-3971
▁我们需要	-3972
pe	-3973
几周	-3974
哥本	-3975
就要	-3976
授予	-3977
旅游	-3978
网站	-3979
罪行	-3980
认同	-3981
运输	-3982
遗传	-3983
韦斯	-3984
危机中	-3985
技术和	-3986
的担忧	-3987
▁这也是	-3988
哥本哈根	-3989
动态	-3990
同情	-3991
挽救	-3992
▁政治	-3993
斯大林	-3994
来自于	-3995
的和平	-3996
萨达姆	-3997
转变为	-3998
国有企业	-3999
ew	-4000
侵略	-4001
处在	-4002
广告	-4003
建造	-4004
狂热	-4005
和国家	-4006
教育的	-4007
软实力	-4008
2002	-4009
以为	-4010
奥运	-4011
尼克	-4012
拖累	-4013
的自	-4014
识别	-4015
较低	-4016
统治者	-4017
中东地区	-4018
▁都	-4019
周年	-4020
地利	-4021
极权	-4022
生的	-4023
竭尽	-4024
艰巨	-4025
也因此	-4026
深层次	-4027
任何时候	-4028
生态系统	-4029
这种情况	-4030
▁年	-4031
伯克	-4032
做了	-4033
全新	-4034
掌权	-4035
收紧	-4036
满意	-4037
▁至于	-4038
▁这将	-4039
不平衡	-4040
天主教	-4041
德国和	-4042
研究表明	-4043
被认为是	-4044
便利	-4045
免费	-4046
刑事	-4047
始于	-4048
征税	-4049
毕业	-4050
狭隘	-4051
飙升	-4052
▁有人	-4053
不扩散	-4054
中获益	-4055
供应链	-4056
国集团	-4057
地中海	-4058
查韦斯	-4059
▁意大利	-4060
生活水平	-4061
四个	-4062
就有	-4063
撒冷	-4064
连任	-4065
霸权	-4066
amp	-4067
▁关于	-4068
几年中	-4069
奥地利	-4070
的一次	-4071
贸易战	-4072
路撒冷	-4073
在政治上	-4074
非洲国家	-4075
ah	-4076
日子	-4077
看作	-4078
西斯	-4079
达尔	-4080
间接	-4081
令人惊	-4082
是如何	-4083
灾难性	-4084
的一半	-4085
作为一个	-4086
提供资金	-4087
耶路撒冷	-4088
上限	-4089
剧烈	-4090
务实	-4091
弥补	-4092
即使是	-4093
我们对	-4094
的谈判	-4095
解决办法	-4096
达成一致	-4097
但也	-4098
围绕	-4099
将被	-4100
引人	-4101
收集	-4102
面积	-4103
页岩	-4104
▁国家	-4105
但他们	-4106
收益率	-4107
行动的	-4108
下一	-4109
中小	-4110
企图	-4111
国王	-4112
▁直到	-4113
之一是	-4114
极大地	-4115
民众的	-4116
▁尤其是	-4117
不太可能	-4118
公共债务	-4119
博拉	-4120
堪称	-4121
总量	-4122
核电	-4123
漏洞	-4124
难度	-4125
首都	-4126
伟大的	-4127
分之二	-4128
政治的	-4129
贸易伙伴	-4130
你的	-4131
公路	-4132
哈尼	-4133
培养	-4134
大使	-4135
抵御	-4136
收缩	-4137
死于	-4138
种植	-4139
细节	-4140
设定	-4141
财产	-4142
▁但如今	-4143
发言	-4144
叛乱	-4145
抱怨	-4146
未必	-4147
民调	-4148
迎来	-4149
飞机	-4150
▁这场	-4151
不知道	-4152
严格的	-4153
二十一	-4154
但它们	-4155
创新的	-4156
积极的	-4157
美国对	-4158
仔细	-4159
抨击	-4160
和教育	-4161
的选举	-4162
的支持者	-4163
南海	-4164
按揭	-4165
此类	-4166
肯尼	-4167
400	-4168
万美元	-4169
今年的	-4170
很好的	-4171
明显的	-4172
的机构	-4173
简单的	-4174
谈判的	-4175
▁叙利亚	-4176
毫不奇怪	-4177
的俄罗斯	-4178
贸易赤字	-4179
ep	-4180
▁反	-4181
接种	-4182
无视	-4183
最多	-4184
清算	-4185
特的	-4186
变得更	-4187
政策和	-4188
环境下	-4189
的巨大	-4190
的竞争	-4191
极端主义	-4192
依旧	-4193
偏见	-4194
在不	-4195
姆斯	-4196
将对	-4197
强迫	-4198
民间	-4199
的推	-4200
耐药	-4201
股权	-4202
迈向	-4203
工人的	-4204
布莱尔	-4205
有机会	-4206
三分之二	-4207
世界贸易	-4208
经济复苏	-4209
▁另一方面	-4210
CD	-4211
之急	-4212
之道	-4213
创建	-4214
所为	-4215
等等	-4216
铁路	-4217
1.5	-4218
▁相比	-4219
人民的	-4220
受欢迎	-4221
埃博拉	-4222
有关的	-4223
危机爆发	-4224
45	-4225
不及	-4226
他人	-4227
十九	-4228
同性	-4229
太大	-4230
婴儿	-4231
探讨	-4232
最有	-4233
高企	-4234
195	-4235
以上的	-4236
前总统	-4237
实施的	-4238
现在的	-4239
的时代	-4240
的资本	-4241
索马里	-4242
2050	-4243
▁为什么	-4244
库尔德人	-4245
财政刺激	-4246
之以	-4247
低碳	-4248
卡扎	-4249
意图	-4250
消耗	-4251
论文	-4252
身为	-4253
辛格	-4254
每个人	-4255
通胀率	-4256
▁我们必须	-4257
26	-4258
东京	-4259
加利	-4260
大胆	-4261
特勒	-4262
议题	-4263
金钱	-4264
中国人	-4265
卡塔尔	-4266
有什么	-4267
的印度	-4268
▁The	-4269
主题	-4270
会被	-4271
将来	-4272
死刑	-4273
▁on	-4274
▁必须	-4275
希拉里	-4276
我们所	-4277
而言之	-4278
尤其是在	-4279
贸易协定	-4280
即将到来的	-4281
▁U	-4282
局限	-4283
强国	-4284
海军	-4285
焦虑	-4286
的有	-4287
误导	-4288
赢家	-4289
采购	-4290
ell	-4291
▁亚洲	-4292
▁另外	-4293
▁由此	-4294
的立场	-4295
▁无论如何	-4296
对立	-4297
干扰	-4298
灭绝	-4299
聪明	-4300
能为	-4301
主要的	-4302
卡扎菲	-4303
▁在这一	-4304
四分之一	-4305
问题上的	-4306
▁两	-4307
地震	-4308
并为	-4309
撤军	-4310
萨科	-4311
赞成	-4312
连接	-4313
适当	-4314
驱逐	-4315
ber	-4316
▁否则	-4317
▁接着	-4318
历史的	-4319
根本上	-4320
观察家	-4321
高收入	-4322
鲁哈尼	-4323
马来西亚	-4324
ne	-4325
▁a	-4326
别无	-4327
崩盘	-4328
忘记	-4329
生涯	-4330
那时	-4331
40%	-4332
ist	-4333
伯克利	-4334
的形式	-4335
罗伯特	-4336
和西班牙	-4337
法国总统	-4338
结构改革	-4339
撒哈拉以南	-4340
▁正	-4341
先例	-4342
着眼	-4343
再分配	-4344
再平衡	-4345
标志着	-4346
的税收	-4347
激发	-4348
高管	-4349
80%	-4350
务之急	-4351
清楚地	-4352
奥巴马政府	-4353
ik	-4354
od	-4355
亦然	-4356
前提	-4357
双重	-4358
受过	-4359
呈现	-4360
数百	-4361
源于	-4362
眼下	-4363
▁St	-4364
▁确实	-4365
单方面	-4366
在国内	-4367
地位的	-4368
短期内	-4369
西方的	-4370
取得成功	-4371
极有可能	-4372
的问题上	-4373
其他国家的	-4374
压迫	-4375
只占	-4376
将让	-4377
提到	-4378
树立	-4379
父母	-4380
认知	-4381
轻易	-4382
50%	-4383
下一个	-4384
的国内	-4385
都应该	-4386
全球贸易	-4387
政府债券	-4388
9%	-4389
TA	-4390
充斥	-4391
前往	-4392
却在	-4393
大概	-4394
年人	-4395
环保	-4396
穆尔	-4397
ine	-4398
一些人	-4399
和发展	-4400
希特勒	-4401
欧洲和	-4402
的信号	-4403
的状况	-4404
的经验	-4405
非正式	-4406
▁IMF	-4407
公共卫生	-4408
公民社会	-4409
工作岗位	-4410
▁被	-4411
哪个	-4412
埃塞	-4413
恶性	-4414
星期	-4415
福祉	-4416
竞赛	-4417
邀请	-4418
不仅是	-4419
会带来	-4420
的一份	-4421
第一步	-4422
结果是	-4423
肯尼迪	-4424
一些国家	-4425
三年	-4426
加州	-4427
势头	-4428
它在	-4429
归咎	-4430
性地	-4431
法规	-4432
详细	-4433
和伊朗	-4434
意义上	-4435
类似于	-4436
▁经济学家	-4437
阿拉伯之春	-4438
不容	-4439
入了	-4440
地的	-4441
左派	-4442
捐助	-4443
教师	-4444
Mar	-4445
所得税	-4446
的外交	-4447
著名的	-4448
发达国家的	-4449
▁w	-4450
中最	-4451
商界	-4452
威慑	-4453
预料	-4454
即使在	-4455
和就业	-4456
埃塞俄	-4457
就无法	-4458
死亡率	-4459
领导力	-4460
一段时间	-4461
非政府组织	-4462
▁到目前为止	-4463
动用	-4464
各大	-4465
得出	-4466
无数	-4467
既然	-4468
西岸	-4469
面的	-4470
影响力的	-4471
早些时候	-4472
埃塞俄比亚	-4473
CE	-4474
党的	-4475
厌恶	-4476
坚决	-4477
很高	-4478
放任	-4479
敌意	-4480
根深	-4481
重振	-4482
150	-4483
似乎是	-4484
接受了	-4485
不堪	-4486
之势	-4487
写道	-4488
布里	-4489
排斥	-4490
路径	-4491
预言	-4492
劳动者	-4493
安全和	-4494
新技术	-4495
的实际	-4496
的概念	-4497
起到了	-4498
非洲的	-4499
共和党人	-4500
一天	-4501
万亿	-4502
会晤	-4503
修订	-4504
斯蒂	-4505
棘手	-4506
起义	-4507
▁金融	-4508
年代初	-4509
应该在	-4510
来解决	-4511
现有的	-4512
的其他	-4513
的真正	-4514
竭尽全力	-4515
st	-4516
一道	-4517
带着	-4518
有过	-4519
朗德	-4520
案件	-4521
电网	-4522
这笔	-4523
选战	-4524
▁对此	-4525
共同的	-4526
就不会	-4527
年代末	-4528
归咎于	-4529
的城市	-4530
继任者	-4531
一体化的	-4532
也被	-4533
修复	-4534
凝聚	-4535
原子	-4536
的名	-4537
蒂固	-4538
不管是	-4539
可以让	-4540
的下降	-4541
这也是	-4542
孟加拉国	-4543
更有可能	-4544
这是一个	-4545
伊拉克战争	-4546
ff	-4547
不起	-4548
免受	-4549
发射	-4550
尊严	-4551
平价	-4552
推高	-4553
提前	-4554
摩洛	-4555
父亲	-4556
组建	-4557
诸如	-4558
运营	-4559
遵循	-4560
tic	-4561
可以为	-4562
国际法	-4563
定居点	-4564
服务的	-4565
根本性	-4566
1997	-4567
根深蒂固	-4568
吉尔	-4569
对比	-4570
扼杀	-4571
更低	-4572
海湾	-4573
能量	-4574
长远	-4575
预见	-4576
90%	-4577
▁当前	-4578
可靠的	-4579
在世界	-4580
增长模式	-4581
灾难性的	-4582
资本市场	-4583
温室气体排放	-4584
大力	-4585
指挥	-4586
方的	-4587
核能	-4588
浪潮	-4589
航空	-4590
邪恶	-4591
雇员	-4592
顽固	-4593
▁从而	-4594
力量的	-4595
对经济	-4596
极右翼	-4597
的关注	-4598
的德国	-4599
人民银行	-4600
民主制度	-4601
变得越来越	-4602
不出	-4603
公决	-4604
协会	-4605
因而	-4606
愚蠢	-4607
打造	-4608
的事	-4609
行事	-4610
转而	-4611
奥朗德	-4612
政治和	-4613
自由派	-4614
告诉我们	-4615
恰恰相反	-4616
英国退欧	-4617
一路	-4618
体育	-4619
兰克	-4620
卡尔	-4621
在了	-4622
幻想	-4623
的年	-4624
置于	-4625
谈论	-4626
的信心	-4627
至少在	-4628
该国的	-4629
运动的	-4630
和俄罗斯	-4631
和平进程	-4632
快速增长	-4633
经常账户	-4634
这一观点	-4635
穆斯林兄弟	-4636
▁更糟糕的是	-4637
兴起	-4638
制衡	-4639
地下	-4640
它是	-4641
敌对	-4642
文件	-4643
穷国	-4644
纯粹	-4645
结盟	-4646
通讯	-4647
高等	-4648
变化的	-4649
有必要	-4650
移民的	-4651
当务之急	-4652
西方国家	-4653
二氧化碳排放	-4654
一边	-4655
也要	-4656
但他	-4657
南克	-4658
同盟	-4659
塔赫	-4660
差别	-4661
自杀	-4662
限度	-4663
uro	-4664
▁埃及	-4665
▁巴西	-4666
东南亚	-4667
但如果	-4668
大量的	-4669
存在于	-4670
引发的	-4671
董事会	-4672
跨太平洋	-4673
二十一世纪	-4674
美国和欧洲	-4675
仅有	-4676
倡议	-4677
攀升	-4678
收购	-4679
教旨	-4680
此后	-4681
贾德	-4682
辩护	-4683
通往	-4684
est	-4685
合作的	-4686
在这一	-4687
巴尔干	-4688
民主和	-4689
的新兴	-4690
秘书长	-4691
程度的	-4692
穆尔西	-4693
这一事实	-4694
▁2010	-4695
北非	-4696
效仿	-4697
犹豫	-4698
瘫痪	-4699
邓小	-4700
重申	-4701
飓风	-4702
30%	-4703
上个月	-4704
多年的	-4705
本质上	-4706
法塔赫	-4707
看到了	-4708
所作所为	-4709
英格兰银行	-4710
6.	-4711
ud	-4712
优惠	-4713
分布	-4714
弗里	-4715
探索	-4716
旅行	-4717
晋三	-4718
疗法	-4719
ern	-4720
▁de	-4721
▁朝鲜	-4722
原教旨	-4723
收入和	-4724
活力的	-4725
而这些	-4726
邓小平	-4727
大规模的	-4728
uc	-4729
▁或	-4730
亚太	-4731
人所	-4732
信念	-4733
全体	-4734
勇气	-4735
它将	-4736
尔斯	-4737
特点	-4738
缩减	-4739
罕默	-4740
与伊朗	-4741
内贾德	-4742
加利福	-4743
在今年	-4744
最贫困	-4745
机构和	-4746
安倍晋三	-4747
所产生的	-4748
竞争力的	-4749
英国脱欧	-4750
跨大西洋	-4751
领导人的	-4752
不变	-4753
不大	-4754
分化	-4755
宣扬	-4756
常态	-4757
德斯	-4758
本月	-4759
杀害	-4760
烟草	-4761
的核	-4762
自治	-4763
远离	-4764
ohn	-4765
▁Ch	-4766
不公平	-4767
公司和	-4768
来实现	-4769
环境中	-4770
自由和	-4771
富裕国家	-4772
最高法院	-4773
▁可以肯定	-4774
QE	-4775
会上	-4776
击败	-4777
名为	-4778
天气	-4779
沉默	-4780
白人	-4781
等于	-4782
适用	-4783
随时	-4784
下来的	-4785
和欧盟	-4786
失败的	-4787
对全球	-4788
摩洛哥	-4789
的使用	-4790
高质量	-4791
aceb	-4792
加利福尼亚	-4793
传递	-4794
大家	-4795
对象	-4796
扩展	-4797
有害	-4798
灾害	-4799
目睹	-4800
管道	-4801
考察	-4802
萎缩	-4803
解读	-4804
过了	-4805
-20	-4806
了一份	-4807
很重要	-4808
罕默德	-4809
都不会	-4810
▁我们的	-4811
▁2015	-4812
acebook	-4813
份子	-4814
政坛	-4815
效的	-4816
特权	-4817
不那么	-4818
克斯坦	-4819
的一大	-4820
军事行动	-4821
两党	-4822
充当	-4823
卢旺	-4824
反恐	-4825
有权	-4826
设置	-4827
遥远	-4828
使用的	-4829
充满了	-4830
就已经	-4831
普林斯	-4832
生产商	-4833
医疗保健	-4834
经济政策	-4835
自由市场	-4836
▁V	-4837
博弈	-4838
太过	-4839
学会	-4840
很好	-4841
支柱	-4842
目光	-4843
看待	-4844
许可	-4845
远比	-4846
60%	-4847
600	-4848
个世纪	-4849
和他的	-4850
联盟的	-4851
亚洲国家	-4852
1/	-4853
ry	-4854
▁说	-4855
东部	-4856
乐部	-4857
会让	-4858
千万	-4859
子女	-4860
待遇	-4861
指引	-4862
破裂	-4863
计价	-4864
诞生	-4865
逃离	-4866
ens	-4867
不久前	-4868
俱乐部	-4869
卢旺达	-4870
密集型	-4871
现实的	-4872
阿尔及	-4873
阿巴斯	-4874
1989	-4875
令人震惊	-4876
是正确的	-4877
ot	-4878
ub	-4879
中亚	-4880
再度	-4881
力和	-4882
加深	-4883
小心	-4884
展现	-4885
房屋	-4886
逮捕	-4887
▁但它	-4888
储蓄率	-4889
工作者	-4890
的传统	-4891
的程度	-4892
的胜利	-4893
结束了	-4894
该计划	-4895
做好准备	-4896
其中包括	-4897
之间的关系	-4898
生产率增长	-4899
减弱	-4900
力度	-4901
本土	-4902
长久	-4903
增加到	-4904
就业和	-4905
新一轮	-4906
的控制	-4907
以色列和	-4908
根本没有	-4909
出人	-4910
流失	-4911
炸弹	-4912
缺失	-4913
人民党	-4914
伯南克	-4915
对这些	-4916
峰会上	-4917
年开始	-4918
日本和	-4919
的移民	-4920
繁荣的	-4921
伊拉克和	-4922
发展目标	-4923
普林斯顿	-4924
欧洲议会	-4925
货币政策的	-4926
IC	-4927
ip	-4928
他所	-4929
出色	-4930
收支	-4931
日内	-4932
触发	-4933
诉讼	-4934
▁具体	-4935
充斥着	-4936
的冲突	-4937
的合作	-4938
的趋势	-4939
货币的	-4940
平均水平	-4941
金融部门	-4942
银行系统	-4943
石油和天然气	-4944
你们	-4945
信服	-4946
到达	-4947
指望	-4948
毛泽	-4949
辞职	-4950
却没有	-4951
小布什	-4952
是可以	-4953
毛泽东	-4954
的危机	-4955
▁但他们	-4956
强有力的	-4957
直接投资	-4958
In	-4959
不住	-4960
不止	-4961
优秀	-4962
可见	-4963
子孙	-4964
当年	-4965
曾在	-4966
有多	-4967
涌入	-4968
维尔	-4969
走出	-4970
这里	-4971
鲜明	-4972
70%	-4973
▁面对	-4974
是中国	-4975
普京的	-4976
活动的	-4977
的规模	-4978
的资源	-4979
私有化	-4980
其他地方	-4981
EC	-4982
临床	-4983
勒庞	-4984
反抗	-4985
含义	-4986
股价	-4987
英雄	-4988
aul	-4989
可以用	-4990
在许多	-4991
显然是	-4992
本世纪	-4993
1999	-4994
tern	-4995
不断增加	-4996
▁美国总统	-4997
▁最重要的是	-4998
为时	-4999
便宜	-5000
和不	-5001
好事	-5002
强力	-5003
是以	-5004
激增	-5005
熟悉	-5006
疫情	-5007
的低	-5008
进化	-5009
遇到	-5010
附近	-5011
ial	-5012
omm	-5013
印度和	-5014
并因此	-5015
相结合	-5016
选择了	-5017
上海	-5018
不前	-5019
友好	-5020
否定	-5021
意志	-5022
来到	-5023
看看	-5024
什么样	-5025
反对者	-5026
多样化	-5027
沙拉夫	-5028
疾病的	-5029
的报告	-5030
的监管	-5031
随之而	-5032
onom	-5033
国家主席	-5034
竞争对手	-5035
紧张局势	-5036
美国国会	-5037
雄心勃勃	-5038
▁相比之下	-5039
穆斯林兄弟会	-5040
不顾	-5041
忠诚	-5042
掌控	-5043
无限	-5044
时报	-5045
轰炸	-5046
通信	-5047
SDG	-5048
北朝鲜	-5049
同性恋	-5050
的制度	-5051
的办法	-5052
的道路	-5053
确定性	-5054
英国人	-5055
还包括	-5056
都不是	-5057
ence	-5058
▁第二个	-5059
奥巴马的	-5060
并非如此	-5061
我们已经	-5062
穆沙拉夫	-5063
采取措施	-5064
aw	-5065
不惜	-5066
为首	-5067
农场	-5068
少的	-5069
态势	-5070
揭示	-5071
数以	-5072
浓缩	-5073
▁to	-5074
▁就连	-5075
奥运会	-5076
的信任	-5077
的需要	-5078
老龄化	-5079
▁乌克兰	-5080
了一系列	-5081
令人担忧	-5082
大肆	-5083
宝贵	-5084
教徒	-5085
理事	-5086
祖国	-5087
重启	-5088
或其他	-5089
暴力的	-5090
法国的	-5091
▁从这个	-5092
只不过是	-5093
在叙利亚	-5094
总体而言	-5095
2,	-5096
侵蚀	-5097
减免	-5098
反思	-5099
古老	-5100
必需	-5101
改造	-5102
明证	-5103
梅内	-5104
突出	-5105
自信	-5106
▁按照	-5107
也已经	-5108
只需要	-5109
史以来	-5110
在没有	-5111
日内瓦	-5112
稳定和	-5113
罗斯福	-5114
行业的	-5115
领导者	-5116
核不扩散	-5117
全球经济的	-5118
作家	-5119
医保	-5120
定期	-5121
有点	-5122
沃斯	-5123
给出	-5124
▁某些	-5125
与欧盟	-5126
外国人	-5127
理论上	-5128
的前提	-5129
▁在这种	-5130
也有可能	-5131
不可避免的	-5132
阿尔及利亚	-5133
促成	-5134
克鲁	-5135
果真	-5136
的那	-5137
虐待	-5138
豁免	-5139
重复	-5140
会发生	-5141
决不能	-5142
就没有	-5143
最新的	-5144
的任何	-5145
的局面	-5146
的最高	-5147
项目的	-5148
▁大多数	-5149
德国总理	-5150
替代方案	-5151
社会主义	-5152
经济衰退	-5153
财富基金	-5154
通胀目标	-5155
经常项目赤字	-5156
一小	-5157
主动	-5158
作者	-5159
对付	-5160
干旱	-5161
戈尔	-5162
成绩	-5163
或缺	-5164
推出	-5165
权衡	-5166
架构	-5167
设法	-5168
转换	-5169
轻松	-5170
这条	-5171
和企业	-5172
它们在	-5173
实力的	-5174
斯科尼	-5175
世界各国	-5176
和土耳其	-5177
所有国家	-5178
欧盟国家	-5179
营养不良	-5180
解决问题	-5181
地将	-5182
寡头	-5183
年内	-5184
折磨	-5185
挣扎	-5186
本来	-5187
海啸	-5188
议定	-5189
追溯	-5190
亚洲的	-5191
的讨论	-5192
银行业	-5193
充分就业	-5194
很可能会	-5195
的一系列	-5196
的过程中	-5197
经济危机	-5198
▁2014	-5199
up	-5200
主持	-5201
件事	-5202
叙事	-5203
富国	-5204
渐进	-5205
准备好	-5206
在某些	-5207
潜在的	-5208
的策略	-5209
进入了	-5210
▁198	-5211
不可或缺	-5212
撒哈拉以南非洲	-5213
他将	-5214
冻结	-5215
大有	-5216
奥尔	-5217
布尔	-5218
年将	-5219
广场	-5220
更广	-5221
极度	-5222
症状	-5223
芬兰	-5224
衍生	-5225
▁应该	-5226
不相同	-5227
尼克松	-5228
比其他	-5229
的创新	-5230
的家庭	-5231
的资产	-5232
▁在欧洲	-5233
抵押贷款	-5234
私营部门	-5235
联邦政府	-5236
▁2011	-5237
俄罗斯总统	-5238
和其他国家	-5239
▁坎	-5240
之比	-5241
产物	-5242
享有	-5243
岁的	-5244
成分	-5245
玻利	-5246
精力	-5247
行列	-5248
中获得	-5249
些什么	-5250
哈梅内	-5251
得多的	-5252
的新闻	-5253
的比例	-5254
▁但尽管	-5255
▁Part	-5256
65	-5257
欺骗	-5258
短暂	-5259
让他	-5260
边际	-5261
风格	-5262
▁re	-5263
▁其实	-5264
了这些	-5265
全球性	-5266
再加上	-5267
在最近	-5268
的教育	-5269
角度讲	-5270
央行行长	-5271
欧元区的	-5272
自由民主	-5273
这一趋势	-5274
金砖国家	-5275
金融系统	-5276
不对	-5277
打开	-5278
挂钩	-5279
易事	-5280
本应	-5281
注重	-5282
稳步	-5283
职责	-5284
附加	-5285
▁已经	-5286
公众对	-5287
其经济	-5288
在这些	-5289
布里奇	-5290
的因素	-5291
的进步	-5292
着眼于	-5293
碳排放	-5294
资本流	-5295
马克思	-5296
别无选择	-5297
历史学家	-5298
政府必须	-5299
资本流入	-5300
气候变化的	-5301
一无	-5302
判决	-5303
南方	-5304
名单	-5305
提及	-5306
比赛	-5307
缓冲	-5308
而对	-5309
谋杀	-5310
共同体	-5311
其自身	-5312
国内的	-5313
很简单	-5314
我们将	-5315
最高的	-5316
结束后	-5317
行动方	-5318
投资者的	-5319
政府支出	-5320
吞并	-5321
寻常	-5322
尤为	-5323
强加	-5324
提交	-5325
支配	-5326
流程	-5327
测量	-5328
混合	-5329
的总	-5330
第五	-5331
累积	-5332
超出	-5333
转折	-5334
正常化	-5335
根本无法	-5336
波斯尼亚	-5337
▁2012	-5338
5.	-5339
倒台	-5340
大气	-5341
模仿	-5342
而又	-5343
苹果	-5344
警惕	-5345
隐私	-5346
▁布什	-5347
他们将	-5348
其实是	-5349
出口国	-5350
去杠杆	-5351
可怕的	-5352
的规则	-5353
等国家	-5354
议定书	-5355
▁结果是	-5356
所提出的	-5357
言论自由	-5358
进一步恶化	-5359
CA	-5360
ut	-5361
不想	-5362
单边	-5363
奇迹	-5364
年和	-5365
形容	-5366
显现	-5367
最小	-5368
谎言	-5369
阴谋	-5370
高出	-5371
二十年	-5372
增长了	-5373
政治上	-5374
是一位	-5375
法西斯	-5376
朝鲜半岛	-5377
的货币政策	-5378
买入	-5379
准则	-5380
小型	-5381
就职	-5382
已久	-5383
已是	-5384
开采	-5385
接收	-5386
着手	-5387
贝卢	-5388
▁社会	-5389
局限于	-5390
成本的	-5391
排除在	-5392
提高到	-5393
有理由	-5394
演变为	-5395
让它们	-5396
令人信服	-5397
单一市场	-5398
子孙后代	-5399
年增长率	-5400
政策制定者	-5401
▁国际货币基金组织	-5402
几天	-5403
描绘	-5404
有益	-5405
的中	-5406
行使	-5407
诚实	-5408
近乎	-5409
anc	-5410
▁事实	-5411
令人瞩	-5412
在去年	-5413
所有权	-5414
撒切尔	-5415
的严重	-5416
1998	-5417
▁如果你	-5418
中等收入	-5419
贝卢斯科尼	-5420
iv	-5421
不知	-5422
创立	-5423
命令	-5424
年时	-5425
挑衅	-5426
救援	-5427
施压	-5428
注册	-5429
筹集	-5430
部落	-5431
雷曼	-5432
2.5	-5433
▁自从	-5434
▁这项	-5435
了大量	-5436
但我们	-5437
健康的	-5438
新政府	-5439
更广泛	-5440
欧元的	-5441
灵活性	-5442
的个人	-5443
的决策	-5444
的选民	-5445
罗姆尼	-5446
自动化	-5447
警告说	-5448
需要在	-5449
好消息是	-5450
▁更重要的是	-5451
之地	-5452
会给	-5453
低下	-5454
免于	-5455
听到	-5456
周围	-5457
在与	-5458
恶劣	-5459
杂志	-5460
爱国	-5461
禁令	-5462
种子	-5463
虚假	-5464
面向	-5465
会产生	-5466
和文化	-5467
外交官	-5468
就开始	-5469
1991	-5470
▁不管是	-5471
▁即使在	-5472
医疗保险	-5473
叙利亚的	-5474
最严重的	-5475
监管机构	-5476
联合国的	-5477
西班牙和	-5478
国内生产总值	-5479
美国总统奥巴马	-5480
三倍	-5481
多次	-5482
就连	-5483
拖延	-5484
机关	-5485
正统	-5486
精确	-5487
降至	-5488
25%	-5489
▁各国	-5490
是否能	-5491
电视台	-5492
工业革命	-5493
奥巴马总统	-5494
Al	-5495
公私	-5496
回合	-5497
失灵	-5498
宗派	-5499
州和	-5500
影子	-5501
彼得	-5502
短短	-5503
稀缺	-5504
舆论	-5505
雇用	-5506
黑暗	-5507
▁中东	-5508
▁新的	-5509
▁通常	-5510
的民众	-5511
稳定性	-5512
脆弱性	-5513
阻碍了	-5514
▁墨西哥	-5515
从根本上	-5516
发展援助	-5517
石油公司	-5518
私人投资	-5519
住宅	-5520
修建	-5521
和高	-5522
大脑	-5523
建国	-5524
当代	-5525
有意	-5526
的非	-5527
▁未来	-5528
下一次	-5529
依然是	-5530
和印度	-5531
大幅度	-5532
对那些	-5533
市场上	-5534
的建议	-5535
莫过于	-5536
达沃斯	-5537
这么做	-5538
世界上最	-5539
哈梅内伊	-5540
新兴国家	-5541
极端贫困	-5542
▁2009	-5543
▁坎布里奇	-5544
Ch	-5545
▁中	-5546
一词	-5547
举办	-5548
会使	-5549
多尔	-5550
失误	-5551
奖励	-5552
归根	-5553
教皇	-5554
气温	-5555
纪律	-5556
跨越	-5557
son	-5558
助长了	-5559
和政策	-5560
对他们	-5561
来源于	-5562
的第一	-5563
全民公决	-5564
很快就会	-5565
欧洲经济	-5566
美国总统特朗普	-5567
az	-5568
匹配	-5569
占了	-5570
数学	-5571
无能	-5572
温度	-5573
盖茨	-5574
节约	-5575
苦难	-5576
配额	-5577
颇为	-5578
▁一位	-5579
二战后	-5580
忽略了	-5581
深刻的	-5582
生产的	-5583
的标准	-5584
的领域	-5585
▁全世界	-5586
乌克兰的	-5587
军事干预	-5588
化学武器	-5589
这些措施	-5590
的经济学家	-5591
事关	-5592
仍将	-5593
关联	-5594
宪章	-5595
年里	-5596
忍受	-5597
来为	-5598
漫长	-5599
较为	-5600
ear	-5601
▁然后	-5602
以及在	-5603
伊朗核	-5604
内部的	-5605
大银行	-5606
已不再	-5607
支持率	-5608
此之外	-5609
独立性	-5610
规则的	-5611
近年来	-5612
不可能的	-5613
无法获得	-5614
穆罕默德	-5615
贸易和投资	-5616
Facebook	-5617
之内	-5618
以致	-5619
埔寨	-5620
基准	-5621
收回	-5622
无从	-5623
正好	-5624
留下	-5625
这两	-5626
采纳	-5627
lob	-5628
▁但他	-5629
充分的	-5630
又一次	-5631
和能源	-5632
基本面	-5633
扩大的	-5634
柬埔寨	-5635
模式的	-5636
采取的	-5637
1000	-5638
▁即使是	-5639
极端分子	-5640
低收入国家	-5641
经济增长的	-5642
▁多	-5643
也更	-5644
儿子	-5645
凭借	-5646
创始	-5647
后续	-5648
始终	-5649
布拉	-5650
引用	-5651
生效	-5652
自豪	-5653
预示	-5654
一方面	-5655
代表了	-5656
制定了	-5657
工程师	-5658
德国人	-5659
痛苦的	-5660
的错误	-5661
医疗服务	-5662
十九世纪	-5663
总统选举	-5664
超级大国	-5665
达成协议	-5666
长期利率	-5667
美联储主席	-5668
领导人必须	-5669
SA	-5670
倡导	-5671
出手	-5672
及时	-5673
将使	-5674
打算	-5675
比尔	-5676
里亚	-5677
顺差	-5678
马尔	-5679
Rob	-5680
▁一种	-5681
▁可能	-5682
上升到	-5683
不利于	-5684
也许会	-5685
占据了	-5686
危机前	-5687
反应堆	-5688
和平的	-5689
和监管	-5690
在英国	-5691
布雷顿	-5692
注意到	-5693
金融业	-5694
▁但这种	-5695
出人意料	-5696
市场经济	-5697
并不一定	-5698
知识分子	-5699
诺贝尔奖	-5700
▁不仅如此	-5701
中国和印度	-5702
欧元区国家	-5703
▁很	-5704
不去	-5705
代替	-5706
家园	-5707
成千	-5708
更新	-5709
涵盖	-5710
绑架	-5711
iss	-5712
中国对	-5713
就应该	-5714
政府对	-5715
的争论	-5716
观察者	-5717
购买力	-5718
1970	-5719
与俄罗斯	-5720
永远不会	-5721
社会保障	-5722
空气污染	-5723
▁2013	-5724
▁谁	-5725
元素	-5726
屈服	-5727
异常	-5728
推特	-5729
数的	-5730
核武	-5731
用水	-5732
自主	-5733
ati	-5734
▁答案	-5735
与欧洲	-5736
付出的	-5737
前苏联	-5738
实验室	-5739
德拉吉	-5740
有一些	-5741
格林斯	-5742
的商业	-5743
的大部分	-5744
作战	-5745
初级	-5746
卜杜	-5747
卫星	-5748
很低	-5749
执法	-5750
指向	-5751
捐赠	-5752
政体	-5753
经理	-5754
迫害	-5755
价格的	-5756
伊朗和	-5757
做出的	-5758
大选中	-5759
必不可	-5760
是全球	-5761
的大量	-5762
而美国	-5763
表面上	-5764
追随者	-5765
▁但美国	-5766
其他地区	-5767
是错误的	-5768
格林斯潘	-5769
的美国人	-5770
在某种程度上	-5771
75	-5772
回忆	-5773
增值	-5774
将为	-5775
疯狂	-5776
身处	-5777
过多	-5778
▁但对	-5779
周期性	-5780
在这里	-5781
政府将	-5782
有限的	-5783
法国人	-5784
▁Pro	-5785
民族国家	-5786
▁巴基斯坦	-5787
很大一部分	-5788
og	-5789
不振	-5790
临近	-5791
呼声	-5792
哲学	-5793
小国	-5794
杀戮	-5795
界限	-5796
范畴	-5797
遗憾	-5798
▁当今	-5799
▁很多	-5800
▁是的	-5801
▁这也	-5802
两国的	-5803
也存在	-5804
体现在	-5805
可以被	-5806
多元化	-5807
成千上	-5808
无人机	-5809
最大化	-5810
没什么	-5811
第三个	-5812
Paul	-5813
提高利率	-5814
经济活动	-5815
不可避免地	-5816
生物多样性	-5817
ey	-5818
一方	-5819
其反	-5820
出席	-5821
奠定	-5822
尖锐	-5823
年在	-5824
得益	-5825
捷克	-5826
解除	-5827
野蛮	-5828
雇佣	-5829
高层	-5830
▁银行	-5831
加入了	-5832
和公共	-5833
扩大了	-5834
的人均	-5835
贸易和	-5836
长期的	-5837
了这一点	-5838
经济表现	-5839
布雷顿森林	-5840
主权财富基金	-5841
▁斯	-5842
众所	-5843
停火	-5844
前者	-5845
叛军	-5846
种种	-5847
秘鲁	-5848
经典	-5849
评价	-5850
输家	-5851
这让	-5852
阿里	-5853
顶层	-5854
高估	-5855
ton	-5856
决定了	-5857
和平与	-5858
和英国	-5859
因为他	-5860
在中东	-5861
持有的	-5862
理性的	-5863
的数量	-5864
的目的	-5865
统一的	-5866
还应该	-5867
预见的	-5868
▁让我们	-5869
一个新的	-5870
双边关系	-5871
唯一一个	-5872
成员资格	-5873
与之	-5874
像是	-5875
区的	-5876
土壤	-5877
它所	-5878
应付	-5879
德曼	-5880
是将	-5881
比利	-5882
补助	-5883
难道	-5884
ank	-5885
▁这次	-5886
不断地	-5887
也开始	-5888
创造出	-5889
反对党	-5890
并最终	-5891
接近于	-5892
时期的	-5893
是对的	-5894
相同的	-5895
需求的	-5896
evel	-5897
lobal	-5898
提供了一个	-5899
合作伙伴关系	-5900
▁三	-5901
▁无	-5902
公债	-5903
切断	-5904
同等	-5905
声誉	-5906
庆祝	-5907
当作	-5908
意思	-5909
抑郁	-5910
拨款	-5911
推向	-5912
新型	-5913
期限	-5914
根除	-5915
概率	-5916
派的	-5917
科尔	-5918
级别	-5919
过分	-5920
▁也是	-5921
▁需要	-5922
任总统	-5923
众所周	-5924
困难的	-5925
引人注	-5926
归根结	-5927
的暴力	-5928
国防部长	-5929
民意调查	-5930
io	-5931
▁若	-5932
体验	-5933
兰卡	-5934
内在	-5935
减缓	-5936
号召	-5937
城镇	-5938
族裔	-5939
植物	-5940
海岸	-5941
置疑	-5942
花了	-5943
西部	-5944
设想	-5945
风能	-5946
160	-5947
700	-5948
制造商	-5949
的数字	-5950
能带来	-5951
▁Con	-5952
归根结底	-5953
技术进步	-5954
欧洲大陆	-5955
的人来说	-5956
的方式来	-5957
财政紧缩	-5958
▁特朗普的	-5959
堕胎	-5960
塑造	-5961
步伐	-5962
洪水	-5963
清洗	-5964
裁军	-5965
赞助	-5966
还不	-5967
DNA	-5968
会造成	-5969
年前的	-5970
忽视了	-5971
是非常	-5972
的预测	-5973
秩序的	-5974
转基因	-5975
▁伯克利	-5976
▁新德里	-5977
人力资本	-5978
任何一个	-5979
停滞不前	-5980
就是一个	-5981
的解决方案	-5982
Robert	-5983
▁拉	-5984
京都	-5985
伴随	-5986
列为	-5987
各州	-5988
场合	-5989
大了	-5990
杀死	-5991
紧要	-5992
过早	-5993
过的	-5994
隐藏	-5995
▁基于	-5996
保持着	-5997
已开始	-5998
的手段	-5999
的英国	-6000
都认为	-6001
就有可能	-6002
urope	-6003
事态	-6004
以使	-6005
化了	-6006
圣地	-6007
增税	-6008
大党	-6009
席卷	-6010
弗拉	-6011
掠夺	-6012
机械	-6013
猜测	-6014
西藏	-6015
起着	-6016
隐含	-6017
SDR	-6018
▁第一	-6019
产品的	-6020
和宗教	-6021
引起的	-6022
所指出	-6023
明智的	-6024
根本不	-6025
而不能	-6026
远低于	-6027
追溯到	-6028
加入欧盟	-6029
发挥作用	-6030
政府债务	-6031
玻利维亚	-6032
7.	-6033
军备	-6034
前沿	-6035
原油	-6036
成效	-6037
撤出	-6038
既得	-6039
是其	-6040
检察	-6041
民选	-6042
约为	-6043
维和	-6044
萨默	-6045
话题	-6046
逃避	-6047
音乐	-6048
魅力	-6049
▁Al	-6050
▁他说	-6051
▁第四	-6052
创新和	-6053
办法是	-6054
势力的	-6055
在印度	-6056
影响了	-6057
推动了	-6058
数十年	-6059
的一致	-6060
的过程	-6061
衍生品	-6062
1945	-6063
▁欧洲的	-6064
国际贸易	-6065
有所下降	-6066
阿拉伯人	-6067
的全球经济	-6068
这些国家的	-6069
比以往任何时候	-6070
ug	-6071
▁Y	-6072
▁举	-6073
东道	-6074
倒退	-6075
分担	-6076
和非	-6077
咨询	-6078
商务	-6079
复制	-6080
将从	-6081
成的	-6082
朝着	-6083
每一	-6084
港口	-6085
破灭	-6086
红利	-6087
误解	-6088
oun	-6089
▁但我	-6090
传统上	-6091
低成本	-6092
可以说	-6093
感受到	-6094
显示出	-6095
的依赖	-6096
被广泛	-6097
高科技	-6098
▁在一个	-6099
▁而不是	-6100
所导致的	-6101
雷曼兄弟	-6102
世界其他国家	-6103
也让	-6104
交给	-6105
剩余	-6106
加哥	-6107
暴行	-6108
曝光	-6109
有力	-6110
汲取	-6111
荒谬	-6112
进了	-6113
颇具	-6114
CEO	-6115
ord	-6116
▁人类	-6117
一样的	-6118
找不到	-6119
持续的	-6120
的儿童	-6121
芝加哥	-6122
被证明	-6123
里兰卡	-6124
1979	-6125
不是一个	-6126
俄罗斯和	-6127
性别平等	-6128
税收收入	-6129
1,000	-6130
政治领导人	-6131
民族主义者	-6132
五个	-6133
会面	-6134
内政	-6135
国界	-6136
在他	-6137
基石	-6138
市长	-6139
总结	-6140
战术	-6141
新鲜	-6142
无辜	-6143
本位	-6144
热衷	-6145
用途	-6146
眼中	-6147
职务	-6148
高涨	-6149
ain	-6150
end	-6151
▁原因	-6152
▁随后	-6153
之外的	-6154
会出现	-6155
可以将	-6156
地认为	-6157
建立起	-6158
所造成	-6159
放弃了	-6160
的土地	-6161
的持续	-6162
的组织	-6163
的项目	-6164
签署了	-6165
John	-6166
各成员国	-6167
现在已经	-6168
经济和社会	-6169
ly	-6170
切地	-6171
品牌	-6172
土重	-6173
尼古	-6174
所做	-6175
抱有	-6176
故意	-6177
最具	-6178
标签	-6179
此外	-6180
病例	-6181
软弱	-6182
,20	-6183
▁不论	-6184
▁实现	-6185
▁正在	-6186
克鲁格	-6187
副作用	-6188
涉及到	-6189
的时期	-6190
第二大	-6191
里斯本	-6192
▁今天的	-6193
▁这样做	-6194
商业银行	-6195
欧洲领导人	-6196
ie	-6197
ld	-6198
主管	-6199
之争	-6200
也为	-6201
也对	-6202
勇敢	-6203
卫队	-6204
四年	-6205
大体	-6206
学科	-6207
巴布	-6208
延伸	-6209
房子	-6210
搜索	-6211
格尔	-6212
歇尔	-6213
牛津	-6214
论者	-6215
赫尔	-6216
趋同	-6217
▁他在	-6218
包括了	-6219
卷土重	-6220
哲学家	-6221
城市的	-6222
女性的	-6223
定义为	-6224
应该被	-6225
强化了	-6226
无论是	-6227
的前景	-6228
的原则	-6229
的推移	-6230
管理者	-6231
能获得	-6232
资本外	-6233
▁但中国	-6234
前所未有	-6235
国内政治	-6236
土耳其的	-6237
数百万人	-6238
货币贬值	-6239
中学	-6240
储量	-6241
前途	-6242
加纳	-6243
吸取	-6244
地图	-6245
将给	-6246
情愿	-6247
深深	-6248
瓦尔	-6249
美中	-6250
要让	-6251
道而	-6252
阴影	-6253
▁Ec	-6254
任理事	-6255
供应商	-6256
基础上	-6257
所做的	-6258
是我们	-6259
有一天	-6260
的部分	-6261
谈判中	-6262
那样的	-6263
如果没有	-6264
时间的推移	-6265
千年发展目标	-6266
亚努	-6267
卡特	-6268
君主	-6269
平面	-6270
必将	-6271
恐怕	-6272
成百	-6273
掉了	-6274
暂停	-6275
燃烧	-6276
都对	-6277
FTA	-6278
▁来自	-6279
以来的	-6280
体现了	-6281
借款人	-6282
同时又	-6283
完成了	-6284
想象的	-6285
的想法	-6286
贷款人	-6287
▁197	-6288
▁马德里	-6289
国家利益	-6290
有史以来	-6291
紧缩政策	-6292
近几年来	-6293
迫切需要	-6294
重要作用	-6295
国家主席习近平	-6296
年全球金融危机	-6297
不难	-6298
低了	-6299
储存	-6300
回事	-6301
因于	-6302
天的	-6303
并对	-6304
很小	-6305
机场	-6306
溢价	-6307
特区	-6308
致死	-6309
记住	-6310
ron	-6311
▁与此	-6312
▁有时	-6313
去年的	-6314
和债务	-6315
和长期	-6316
往往会	-6317
的希望	-6318
的斗争	-6319
的激励	-6320
耐药性	-6321
萨默斯	-6322
要求的	-6323
视而不	-6324
违反了	-6325
1995	-6326
▁第一个	-6327
其中一个	-6328
实体经济	-6329
所有人的	-6330
这一比例	-6331
会计	-6332
准入	-6333
将于	-6334
德尔	-6335
情感	-6336
提款	-6337
新增	-6338
独特	-6339
现行	-6340
空中	-6341
维克	-6342
耗费	-6343
▁几乎	-6344
▁柏林	-6345
事件的	-6346
代表着	-6347
副总统	-6348
及其他	-6349
并且在	-6350
的意愿	-6351
美国将	-6352
萨科齐	-6353
表现得	-6354
资源的	-6355
限制了	-6356
中小企业	-6357
储备货币	-6358
委员会的	-6359
有所不同	-6360
罗马尼亚	-6361
外交政策的	-6362
恐怖主义的	-6363
3,	-6364
IT	-6365
▁向	-6366
但对	-6367
分割	-6368
受损	-6369
审视	-6370
家们	-6371
就此	-6372
戏剧	-6373
早在	-6374
最快	-6375
的可	-6376
耗尽	-6377
若干	-6378
麦肯	-6379
▁如何	-6380
▁韩国	-6381
一个人	-6382
公司税	-6383
受益者	-6384
对欧盟	-6385
总量的	-6386
成百上	-6387
或许是	-6388
最近在	-6389
该组织	-6390
教育程度	-6391
能够获得	-6392
艾滋病毒	-6393
英国退出	-6394
负面影响	-6395
资本流动	-6396
▁好消息是	-6397
金融市场的	-6398
▁巴	-6399
塑料	-6400
多久	-6401
杀伤	-6402
束缚	-6403
萨斯	-6404
贪婪	-6405
起草	-6406
▁民主	-6407
世界中	-6408
和地区	-6409
归因于	-6410
战争中	-6411
最重要	-6412
独一无	-6413
的潜在	-6414
科维奇	-6415
主导地位	-6416
令人不安	-6417
令人失望	-6418
克鲁格曼	-6419
全世界的	-6420
公共投资	-6421
军事力量	-6422
试图通过	-6423
跨国公司	-6424
联系在一起	-6425
经常项目盈余	-6426
代人	-6427
价还	-6428
借钱	-6429
兴奋	-6430
单独	-6431
大臣	-6432
手术	-6433
拉动	-6434
放眼	-6435
更能	-6436
溢出	-6437
等国	-6438
策划	-6439
胜出	-6440
适得	-6441
逆差	-6442
▁认为	-6443
▁还是	-6444
从而使	-6445
他们会	-6446
几年前	-6447
和贸易	-6448
城市化	-6449
基因组	-6450
感兴趣	-6451
成立了	-6452
有很多	-6453
的表现	-6454
的道德	-6455
邻国的	-6456
▁但随着	-6457
以色列人	-6458
独一无二	-6459
生活方式	-6460
适得其反	-6461
▁世界银行	-6462
▁普林斯顿	-6463
的经济发展	-6464
的经济政策	-6465
evelop	-6466
从前	-6467
借此	-6468
升息	-6469
半年	-6470
协作	-6471
如同	-6472
是要	-6473
是让	-6474
美好	-6475
草案	-6476
鲁莽	-6477
ive	-6478
▁Re	-6479
▁我的	-6480
全新的	-6481
前总理	-6482
占全球	-6483
因为在	-6484
挑战的	-6485
条件下	-6486
的不同	-6487
的利率	-6488
的崛起	-6489
的比重	-6490
的石油	-6491
调整的	-6492
过去了	-6493
▁Sch	-6494
与美国的	-6495
他们认为	-6496
似乎已经	-6497
外交部长	-6498
巴黎气候	-6499
当选总统	-6500
所取得的	-6501
甚至可能	-6502
▁把	-6503
上市	-6504
不像	-6505
信奉	-6506
克制	-6507
几十	-6508
协商	-6509
对方	-6510
对策	-6511
封闭	-6512
心脏	-6513
悬崖	-6514
想到	-6515
800	-6516
▁Ac	-6517
▁在我	-6518
▁大约	-6519
之前的	-6520
关注的	-6521
合适的	-6522
基督徒	-6523
完全是	-6524
性武器	-6525
的人类	-6526
研究者	-6527
被用于	-6528
贡献了	-6529
都知道	-6530
阻止了	-6531
麦肯锡	-6532
▁上个月	-6533
大幅下降	-6534
应对措施	-6535
成千上万	-6536
政治制度	-6537
消费者的	-6538
美国国债	-6539
问题在于	-6540
▁国际社会	-6541
▁毫不奇怪	-6542
政治和经济	-6543
不清	-6544
光明	-6545
哈里	-6546
境内	-6547
增进	-6548
失控	-6549
布朗	-6550
并无	-6551
慕尼	-6552
批判	-6553
揭露	-6554
收到	-6555
极限	-6556
民兵	-6557
潮流	-6558
竭力	-6559
管辖	-6560
赞同	-6561
起点	-6562
这份	-6563
进攻	-6564
追踪	-6565
ani	-6566
不信任	-6567
不过是	-6568
价还价	-6569
公共和	-6570
拒绝了	-6571
来进行	-6572
的出口	-6573
的故事	-6574
而中国	-6575
脆弱的	-6576
还不到	-6577
还不如	-6578
人均收入	-6579
讨价还价	-6580
一片	-6581
不复	-6582
两岸	-6583
事物	-6584
估值	-6585
广播	-6586
方便	-6587
正当	-6588
的更	-6589
着陆	-6590
耐心	-6591
聚集	-6592
股份	-6593
肥胖	-6594
背叛	-6595
输出	-6596
迎接	-6597
选区	-6598
阿布	-6599
从而让	-6600
压力的	-6601
增加的	-6602
就可能	-6603
恢复力	-6604
控制权	-6605
斯拉夫	-6606
是欧洲	-6607
正确地	-6608
美国家	-6609
规模的	-6610
2025	-6611
中央政府	-6612
半个世纪	-6613
在阿富汗	-6614
凯恩斯主义	-6615
欧元区成员国	-6616
两极	-6617
书中	-6618
伤亡	-6619
但仍	-6620
作品	-6621
制止	-6622
境况	-6623
妻子	-6624
尽快	-6625
建制	-6626
搜集	-6627
编辑	-6628
血腥	-6629
过时	-6630
错了	-6631
▁历史	-6632
为自己	-6633
做什么	-6634
全面的	-6635
复杂性	-6636
将面临	-6637
很快就	-6638
慕尼黑	-6639
是世界	-6640
是无法	-6641
更愿意	-6642
阿卜杜	-6643
▁习近平	-6644
为基础的	-6645
大宗商品	-6646
将在未来	-6647
最低工资	-6648
果真如此	-6649
种族灭绝	-6650
视而不见	-6651
亚努科维奇	-6652
收入不平等	-6653
联合国大会	-6654
▁Econom	-6655
ternational	-6656
一倍	-6657
中止	-6658
人对	-6659
卷入	-6660
商人	-6661
地点	-6662
定位	-6663
家长	-6664
总部	-6665
政界	-6666
派遣	-6667
源泉	-6668
热带	-6669
真理	-6670
稳健	-6671
稳固	-6672
简直	-6673
而其	-6674
这也	-6675
饥荒	-6676
▁主要	-6677
▁但当	-6678
不在于	-6679
中东和	-6680
和商业	-6681
和民主	-6682
在亚洲	-6683
如此之	-6684
并不会	-6685
恶化的	-6686
更低的	-6687
的不满	-6688
起来的	-6689
较低的	-6690
达成了	-6691
这就是	-6692
限制在	-6693
随后的	-6694
1994	-6695
▁伊拉克	-6696
▁但现在	-6697
▁这一点	-6698
借贷成本	-6699
如何应对	-6700
常任理事	-6701
拒绝接受	-6702
是否能够	-6703
的另一个	-6704
ts	-6705
一支	-6706
不已	-6707
十二	-6708
大批	-6709
容克	-6710
微妙	-6711
总裁	-6712
撤销	-6713
撰写	-6714
氛围	-6715
波多	-6716
的老	-6717
里夫	-6718
▁另一	-6719
个人的	-6720
付出了	-6721
在整个	-6722
在非洲	-6723
往往是	-6724
承诺的	-6725
的思想	-6726
组织和	-6727
货币和	-6728
资产的	-6729
预示着	-6730
▁在中国	-6731
就是明证	-6732
弗里德曼	-6733
收入分配	-6734
正在经历	-6735
特别提款	-6736
ement	-6737
安倍经济学	-6738
的不确定性	-6739
以巴	-6740
依存	-6741
和谐	-6742
宽容	-6743
平息	-6744
据说	-6745
斯洛	-6746
生计	-6747
论点	-6748
邻居	-6749
阻力	-6750
麦克	-6751
250	-6752
▁欧元	-6753
但这些	-6754
吸引了	-6755
少数派	-6756
尼西亚	-6757
带一路	-6758
波多黎	-6759
的批评	-6760
的非洲	-6761
英国和	-6762
表明了	-6763
通过了	-6764
金本位	-6765
九十年代	-6766
如果我们	-6767
经济体的	-6768
选举结果	-6769
▁2007	-6770
总统候选人	-6771
最重要的是	-6772
8.	-6773
▁高	-6774
伐克	-6775
入盟	-6776
动乱	-6777
各样	-6778
名字	-6779
场所	-6780
多哈	-6781
奏效	-6782
安抚	-6783
州的	-6784
想起	-6785
手里	-6786
无需	-6787
汽油	-6788
浮动	-6789
直觉	-6790
直面	-6791
缴纳	-6792
股本	-6793
臭名	-6794
蓬勃	-6795
远见	-6796
金额	-6797
三十年	-6798
人死亡	-6799
会议员	-6800
俄国的	-6801
津巴布	-6802
温和的	-6803
的失败	-6804
的教训	-6805
的迹象	-6806
示威者	-6807
糟糕的	-6808
从来没有	-6809
波多黎各	-6810
都是如此	-6811
▁美国剑桥	-6812
evelopment	-6813
ex	-6814
几百	-6815
分支	-6816
回顾	-6817
头上	-6818
想想	-6819
把它	-6820
接管	-6821
教科	-6822
王朝	-6823
的重	-6824
这就	-6825
采访	-6826
▁此后	-6827
▁解决	-6828
低估了	-6829
在其他	-6830
在欧盟	-6831
威胁的	-6832
文化的	-6833
移民和	-6834
约旦河	-6835
詹姆斯	-6836
债务危机	-6837
充分利用	-6838
在伊拉克	-6839
对美国的	-6840
恶性循环	-6841
成为世界	-6842
津巴布韦	-6843
MD	-6844
上加	-6845
其所	-6846
别人	-6847
回避	-6848
夺走	-6849
弹性	-6850
蛋白	-6851
论证	-6852
错的	-6853
und	-6854
▁市场	-6855
不安全	-6856
与西方	-6857
保持在	-6858
惊人的	-6859
的存在	-6860
的损失	-6861
的方向	-6862
的最低	-6863
运动员	-6864
高风险	-6865
俄罗斯人	-6866
持续下去	-6867
政府应该	-6868
根本性的	-6869
清洁能源	-6870
互换	-6871
开端	-6872
报酬	-6873
携带	-6874
撤离	-6875
收获	-6876
更强	-6877
更深	-6878
有其	-6879
流血	-6880
电动	-6881
英语	-6882
范式	-6883
▁不久	-6884
▁关键	-6885
▁就在	-6886
会成为	-6887
刺激了	-6888
因素是	-6889
国大党	-6890
妇女和	-6891
家庭的	-6892
希腊的	-6893
所必须	-6894
日本人	-6895
演讲中	-6896
的内容	-6897
的联系	-6898
竞争性	-6899
财政和	-6900
选举的	-6901
只是一个	-6902
帝国主义	-6903
研究人员	-6904
▁巴勒斯坦	-6905
▁简而言之	-6906
CP	-6907
ES	-6908
军官	-6909
婚姻	-6910
实用	-6911
尼泊	-6912
居高	-6913
战场	-6914
揽子	-6915
整整	-6916
无意	-6917
此举	-6918
深陷	-6919
清理	-6920
清醒	-6921
照顾	-6922
理所	-6923
瓦解	-6924
等同	-6925
终极	-6926
羞辱	-6927
而后	-6928
远未	-6929
顶尖	-6930
顶峰	-6931
中心的	-6932
中间派	-6933
和世界	-6934
和创新	-6935
对伊朗	-6936
承诺要	-6937
殖民地	-6938
的难民	-6939
臭名昭	-6940
边缘化	-6941
1992	-6942
▁000	-6943
不受欢迎	-6944
取得进展	-6945
既得利益	-6946
这方面的	-6947
▁2016	-6948
经济和政治	-6949
不多	-6950
丧生	-6951
亲密	-6952
变迁	-6953
增速	-6954
房产	-6955
指令	-6956
有序	-6957
海地	-6958
监禁	-6959
等到	-6960
经受	-6961
轨道	-6962
较高	-6963
首尔	-6964
sti	-6965
发挥了	-6966
回报率	-6967
在那里	-6968
将这些	-6969
已经从	-6970
建立的	-6971
把自己	-6972
接下来	-6973
的看法	-6974
▁但即便	-6975
▁比如说	-6976
债务负担	-6977
就不可能	-6978
成为现实	-6979
这一结果	-6980
gr	-6981
上帝	-6982
偏离	-6983
出发	-6984
初衷	-6985
到期	-6986
境地	-6987
奉行	-6988
宇宙	-6989
展望	-6990
惠及	-6991
未知	-6992
花钱	-6993
雷斯	-6994
威胁要	-6995
恰恰是	-6996
执政的	-6997
执行官	-6998
比美国	-6999
活动家	-7000
海平面	-7001
的出现	-7002
萨尔科	-7003
▁而如果	-7004
与以色列	-7005
几十年的	-7006
劳动力的	-7007
卷土重来	-7008
恐怖组织	-7009
特朗普在	-7010
,2008	-7011
▁发自纽约	-7012
AR	-7013
任职	-7014
名的	-7015
和反	-7016
坚挺	-7017
垃圾	-7018
外包	-7019
小学	-7020
开罗	-7021
慢性	-7022
戴维	-7023
明星	-7024
波罗	-7025
海上	-7026
生意	-7027
申科	-7028
电池	-7029
短视	-7030
罕见	-7031
营造	-7032
蒙受	-7033
视角	-7034
迁徙	-7035
世纪初	-7036
了一些	-7037
了许多	-7038
制定的	-7039
和市场	-7040
和资本	-7041
很好地	-7042
控制着	-7043
有意义	-7044
桑德斯	-7045
比利时	-7046
的人数	-7047
的有效	-7048
的证据	-7049
精神病	-7050
2019	-7051
ance	-7052
▁在这些	-7053
▁许多人	-7054
从一开始	-7055
从而导致	-7056
增长放缓	-7057
年代以来	-7058
总统大选	-7059
斯里兰卡	-7060
的领导下	-7061
行动起来	-7062
FD	-7063
一如	-7064
上任	-7065
中欧	-7066
加密	-7067
劣势	-7068
可观	-7069
头脑	-7070
弗朗	-7071
归功	-7072
惊人	-7073
留给	-7074
真空	-7075
神圣	-7076
诉求	-7077
赌注	-7078
较少	-7079
▁为何	-7080
▁香港	-7081
修正案	-7082
双方都	-7083
召开的	-7084
安全网	-7085
必然会	-7086
我认为	-7087
权利的	-7088
生育率	-7089
的文化	-7090
的现象	-7091
算不上	-7092
这表明	-7093
▁一方面	-7094
投资银行	-7095
无关紧要	-7096
核武器的	-7097
竞选活动	-7098
臭名昭著	-7099
越来越大	-7100
带来巨大的	-7101
首相安倍晋三	-7102
uropean	-7103
北美自由贸易协定	-7104
An	-7105
上演	-7106
各类	-7107
哪种	-7108
囚犯	-7109
奢侈	-7110
检测	-7111
硅谷	-7112
自从	-7113
被人	-7114
阅读	-7115
颁布	-7116
骚乱	-7117
ort	-7118
不足道	-7119
世界最	-7120
为美国	-7121
对这一	-7122
归功于	-7123
成年人	-7124
核电站	-7125
毕业生	-7126
的健康	-7127
的分析	-7128
的大幅	-7129
的工具	-7130
▁共和党	-7131
专业人士	-7132
卫生组织	-7133
国际合作	-7134
并不是说	-7135
有足够的	-7136
stitu	-7137
不可持续的	-7138
的基础设施	-7139
越来越多地	-7140
NP	-7141
业的	-7142
之举	-7143
巨型	-7144
旁观	-7145
有趣	-7146
检验	-7147
河流	-7148
派别	-7149
王国	-7150
的水	-7151
糖尿	-7152
罪魁	-7153
致使	-7154
队伍	-7155
顺利	-7156
代表的	-7157
坏消息	-7158
建设性	-7159
生物学	-7160
的事件	-7161
的恐惧	-7162
的科学	-7163
而没有	-7164
规则和	-7165
都已经	-7166
不幸的是	-7167
公共支出	-7168
农村地区	-7169
同时也是	-7170
少数族裔	-7171
微不足道	-7172
更进一步	-7173
的全球化	-7174
远远不够	-7175
▁我们应该	-7176
▁9	-7177
▁卡	-7178
事项	-7179
会将	-7180
伯格	-7181
关押	-7182
冷静	-7183
则在	-7184
哈萨	-7185
多德	-7186
多重	-7187
安德	-7188
对他	-7189
招募	-7190
无情	-7191
月初	-7192
杜罗	-7193
杰夫	-7194
演说	-7195
版本	-7196
牵涉	-7197
特拉	-7198
确立	-7199
科夫	-7200
细菌	-7201
维也	-7202
警方	-7203
野生	-7204
▁为此	-7205
▁改革	-7206
▁正是	-7207
一个更	-7208
找到了	-7209
替代品	-7210
的产品	-7211
的生产	-7212
的预期	-7213
韩国的	-7214
预计将	-7215
国家政府	-7216
死亡人数	-7217
联合政府	-7218
苏联解体	-7219
迹象表明	-7220
难民危机	-7221
高等教育	-7222
总统巴沙尔	-7223
更重要的是	-7224
▁Party	-7225
if	-7226
▁所	-7227
不幸	-7228
不相	-7229
侯赛	-7230
其余	-7231
够的	-7232
小说	-7233
已故	-7234
平静	-7235
村庄	-7236
格拉	-7237
派系	-7238
清除	-7239
火箭	-7240
算法	-7241
虚拟	-7242
该党	-7243
赫鲁	-7244
造就	-7245
all	-7246
▁长期	-7247
不清楚	-7248
世界杯	-7249
丘吉尔	-7250
但没有	-7251
信息和	-7252
和支持	-7253
层面上	-7254
弗拉基	-7255
方法是	-7256
的一年	-7257
的人道	-7258
的理论	-7259
的限制	-7260
选民的	-7261
多边主义	-7262
经济改革	-7263
▁他们认为	-7264
▁我们可以	-7265
▁这些国家	-7266
之间的联系	-7267
意味着什么	-7268
世界贸易组织	-7269
▁Development	-7270
▁!	-7271
一段	-7272
交道	-7273
人心	-7274
光是	-7275
包围	-7276
单纯	-7277
原始	-7278
又是	-7279
在对	-7280
外来	-7281
存活	-7282
富豪	-7283
抬头	-7284
节省	-7285
葛兰	-7286
ary	-7287
iti	-7288
lim	-7289
ore	-7290
争议的	-7291
参与了	-7292
可不是	-7293
在一定	-7294
如果你	-7295
核试验	-7296
的人群	-7297
的生命	-7298
不负责任	-7299
产能过剩	-7300
做些什么	-7301
工作人员	-7302
得到解决	-7303
英国首相	-7304
这些政策	-7305
这场危机	-7306
金融服务	-7307
中位	-7308
体面	-7309
公里	-7310
史上	-7311
在新	-7312
奴隶	-7313
得起	-7314
权益	-7315
欧亚	-7316
神话	-7317
精心	-7318
让它	-7319
论调	-7320
饮食	-7321
ind	-7322
▁俄国	-7323
▁每年	-7324
价值链	-7325
凝聚力	-7326
国务院	-7327
在哪里	-7328
媒体的	-7329
有两个	-7330
来应对	-7331
正处于	-7332
流行的	-7333
温和派	-7334
的信誉	-7335
糖尿病	-7336
革命的	-7337
▁多年来	-7338
全球金融	-7339
和以色列	-7340
是不够的	-7341
社会福利	-7342
京都议定书	-7343
弗拉基米尔	-7344
民族主义的	-7345
随之而来的	-7346
首席执行官	-7347
Th	-7348
不当	-7349
为期	-7350
乌干	-7351
亚马	-7352
住了	-7353
假定	-7354
入学	-7355
分为	-7356
告终	-7357
和大	-7358
固然	-7359
埃尔	-7360
已被	-7361
底层	-7362
得主	-7363
桥梁	-7364
正规	-7365
沿海	-7366
纽黑	-7367
要为	-7368
解雇	-7369
选出	-7370
防卫	-7371
▁Le	-7372
乌干达	-7373
决定性	-7374
准备金	-7375
创纪录	-7376
发生过	-7377
受影响	-7378
听起来	-7379
和管理	-7380
回到了	-7381
希望的	-7382
得到的	-7383
无法在	-7384
是不可	-7385
有多少	-7386
站不住	-7387
纽黑文	-7388
给我们	-7389
能够让	-7390
道导弹	-7391
1993	-7392
可能成为	-7393
尤其如此	-7394
2,000	-7395
▁布鲁塞尔	-7396
哈萨克斯坦	-7397
巴基斯坦的	-7398
杀伤性武器	-7399
中国人民银行	-7400
9.	-7401
ib	-7402
今日	-7403
传达	-7404
各项	-7405
大相	-7406
存量	-7407
对冲	-7408
崇拜	-7409
开创	-7410
径庭	-7411
悖论	-7412
愈烈	-7413
找出	-7414
拙劣	-7415
无比	-7416
治国	-7417
渗透	-7418
特色	-7419
结局	-7420
花在	-7421
让我	-7422
▁Tr	-7423
▁al	-7424
之后的	-7425
任何人	-7426
但这一	-7427
在他们	-7428
所有者	-7429
推动力	-7430
状况的	-7431
的直接	-7432
维也纳	-7433
落后于	-7434
该协议	-7435
orld	-7436
债务重组	-7437
共同利益	-7438
其自身的	-7439
刺激计划	-7440
在经济上	-7441
才能实现	-7442
通货紧缩	-7443
▁如果美国	-7444
AI	-7445
OM	-7446
▁第	-7447
人选	-7448
内需	-7449
受困	-7450
夸张	-7451
并论	-7452
得上	-7453
愈演	-7454
技巧	-7455
无知	-7456
春天	-7457
沙龙	-7458
略有	-7459
英里	-7460
裨益	-7461
门槛	-7462
马车	-7463
▁贸易	-7464
不符合	-7465
如果不	-7466
就像是	-7467
帝国的	-7468
文化和	-7469
最严重	-7470
本国的	-7471
欧盟和	-7472
由美国	-7473
的保护	-7474
经济中	-7475
▁全球化	-7476
个国家的	-7477
债券市场	-7478
可能造成	-7479
愈演愈烈	-7480
最有可能	-7481
站不住脚	-7482
▁Comm	-7483
外国投资者	-7484
常任理事国	-7485
资本主义的	-7486
▁在这种情况下	-7487
▁1	-7488
世卫	-7489
亚于	-7490
亚美	-7491
偏向	-7492
傲慢	-7493
利钦	-7494
向前	-7495
头条	-7496
娱乐	-7497
就算	-7498
微观	-7499
急于	-7500
抵达	-7501
接纳	-7502
有用	-7503
期的	-7504
游击	-7505
相提	-7506
艰苦	-7507
艾哈	-7508
说过	-7509
调节	-7510
货物	-7511
道歉	-7512
避难	-7513
重蹈	-7514
间谍	-7515
ang	-7516
▁un	-7517
▁支持	-7518
为代价	-7519
了一次	-7520
使他们	-7521
凸显出	-7522
危机后	-7523
发展和	-7524
叶利钦	-7525
太多的	-7526
就在于	-7527
弗兰克	-7528
或许会	-7529
挑战是	-7530
政府间	-7531
是时候	-7532
留下的	-7533
的贷款	-7534
社会党	-7535
1930	-7536
也不可能	-7537
令人惊讶	-7538
公共服务	-7539
关键作用	-7540
可以成为	-7541
吸引力的	-7542
和伊拉克	-7543
截然不同	-7544
执政联盟	-7545
政府官员	-7546
相提并论	-7547
货币市场	-7548
非常重要	-7549
特别提款权	-7550
社会和经济	-7551
37	-7552
一百	-7553
与此	-7554
佛罗	-7555
制作	-7556
半数	-7557
和水	-7558
哈特	-7559
坚信	-7560
大军	-7561
封锁	-7562
将把	-7563
带有	-7564
并以	-7565
截止	-7566
护理	-7567
摇摆	-7568
格局	-7569
梅德	-7570
欺诈	-7571
法则	-7572
的主	-7573
确信	-7574
职能	-7575
覆辙	-7576
传染性	-7577
标准的	-7578
核协议	-7579
的根源	-7580
的稳定	-7581
的联盟	-7582
被忽视	-7583
避免了	-7584
1960	-7585
▁在许多	-7586
亚美尼亚	-7587
大相径庭	-7588
绝非易事	-7589
这一数字	-7590
发生的事情	-7591
和基础设施	-7592
新兴市场的	-7593
ss	-7594
不下	-7595
不善	-7596
中立	-7597
之久	-7598
创伤	-7599
去了	-7600
女儿	-7601
意在	-7602
教学	-7603
方济	-7604
极少	-7605
查德	-7606
标题	-7607
演化	-7608
监测	-7609
直升	-7610
过高	-7611
重演	-7612
首位	-7613
▁Sh	-7614
▁Un	-7615
▁北京	-7616
▁这在	-7617
亚马逊	-7618
侯赛因	-7619
几乎是	-7620
因如此	-7621
在德国	-7622
大国的	-7623
尼泊尔	-7624
强烈的	-7625
是不是	-7626
漫长的	-7627
的人权	-7628
的状态	-7629
管理的	-7630
约翰逊	-7631
维持在	-7632
评论家	-7633
都不能	-7634
▁在英国	-7635
▁如果说	-7636
一个世纪	-7637
全世界最	-7638
在俄罗斯	-7639
大幅增加	-7640
少数群体	-7641
布什总统	-7642
当今世界	-7643
普遍认为	-7644
自由流动	-7645
▁也就是说	-7646
欧洲一体化	-7647
33	-7648
合物	-7649
外债	-7650
戈登	-7651
战士	-7652
拓展	-7653
数额	-7654
正面	-7655
比特	-7656
眼前	-7657
肆虐	-7658
西兰	-7659
轨迹	-7660
难免	-7661
ust	-7662
▁这对	-7663
不足为	-7664
为他们	-7665
公共品	-7666
利用其	-7667
可能对	-7668
大得多	-7669
如何在	-7670
当时的	-7671
执政党	-7672
政客们	-7673
环境的	-7674
的优势	-7675
获得者	-7676
▁在未来	-7677
▁我认为	-7678
▁这两个	-7679
可能需要	-7680
强烈反对	-7681
抗议活动	-7682
无法实现	-7683
无法解决	-7684
理所当然	-7685
的支持率	-7686
股票市场	-7687
还有其他	-7688
银行联盟	-7689
▁2001	-7690
可以追溯到	-7691
大宗商品价格	-7692
▁仅	-7693
与会	-7694
与否	-7695
为主	-7696
也比	-7697
使之	-7698
出一	-7699
利的	-7700
加勒	-7701
宣告	-7702
对峙	-7703
当下	-7704
月在	-7705
照片	-7706
缔造	-7707
薄弱	-7708
被捕	-7709
赶超	-7710
这对	-7711
进来	-7712
违背	-7713
阻挡	-7714
雅典	-7715
▁他还	-7716
▁波兰	-7717
▁这里	-7718
以避免	-7719
在所有	-7720
工资和	-7721
已经有	-7722
服务于	-7723
的女性	-7724
通常是	-7725
1967	-7726
国民阵线	-7727
坚持认为	-7728
明确表示	-7729
正在进行	-7730
非洲大陆	-7731
领导作用	-7732
—2009	-7733
▁更不用说	-7734
房地产泡沫	-7735
德国总理默克尔	-7736
北极	-7737
名列	-7738
外的	-7739
多极	-7740
就被	-7741
指定	-7742
救济	-7743
教条	-7744
水和	-7745
涌现	-7746
群岛	-7747
聚焦	-7748
莱斯	-7749
董事	-7750
记得	-7751
调和	-7752
重创	-7753
陷于	-7754
Jam	-7755
ner	-7756
ric	-7757
▁既然	-7758
另一场	-7759
将决定	-7760
年美国	-7761
强硬派	-7762
打交道	-7763
数量的	-7764
方济各	-7765
时间内	-7766
朝鲜的	-7767
检察官	-7768
生产者	-7769
的信贷	-7770
研究的	-7771
而受到	-7772
路线图	-7773
较高的	-7774
▁但即使	-7775
▁决策者	-7776
人的生命	-7777
保险公司	-7778
安全问题	-7779
少数民族	-7780
比较优势	-7781
▁发自剑桥	-7782
▁在经历了	-7783
伊斯兰国的	-7784
民粹主义的	-7785
而不仅仅是	-7786
外国直接投资	-7787
新兴市场国家	-7788
▁在这样的背景下	-7789
仍未	-7790
器官	-7791
宝座	-7792
引领	-7793
心态	-7794
所欲	-7795
摩擦	-7796
新生	-7797
民用	-7798
法德	-7799
清单	-7800
源头	-7801
用了	-7802
社团	-7803
空袭	-7804
老年	-7805
让其	-7806
了他的	-7807
他们是	-7808
公平的	-7809
可信度	-7810
有许多	-7811
流行病	-7812
激进的	-7813
的公民	-7814
的西方	-7815
的调查	-7816
监管和	-7817
转折点	-7818
达成的	-7819
马杜罗	-7820
仍然存在	-7821
利益集团	-7822
南斯拉夫	-7823
很少有人	-7824
的必要性	-7825
联系起来	-7826
重新谈判	-7827
▁2005	-7828
▁如果没有	-7829
National	-7830
比以往任何时候都	-7831
一届	-7832
上周	-7833
两项	-7834
个性	-7835
为人	-7836
他信	-7837
减小	-7838
危及	-7839
受伤	-7840
启发	-7841
吸烟	-7842
和我	-7843
在近	-7844
将以	-7845
尴尬	-7846
平稳	-7847
幻觉	-7848
开来	-7849
必定	-7850
男女	-7851
的要	-7852
迈进	-7853
迟早	-7854
配合	-7855
丰富的	-7856
发现了	-7857
启动了	-7858
在我们	-7859
所需要	-7860
托马斯	-7861
昂贵的	-7862
梅德韦	-7863
永久性	-7864
生产性	-7865
生活中	-7866
的亚洲	-7867
的日本	-7868
的理解	-7869
积极地	-7870
统治的	-7871
该公司	-7872
说明了	-7873
这使得	-7874
价格上涨	-7875
是否应该	-7876
需要时间	-7877
5,000	-7878
仅为	-7879
他是	-7880
低效	-7881
何处	-7882
公务	-7883
公然	-7884
冲动	-7885
加尔	-7886
化解	-7887
告知	-7888
和更	-7889
局部	-7890
已然	-7891
巴以	-7892
未经	-7893
本币	-7894
民营	-7895
生殖	-7896
约有	-7897
脊髓	-7898
色彩	-7899
蓝图	-7900
规避	-7901
资料	-7902
鲜有	-7903
TIP	-7904
ach	-7905
ian	-7906
▁出于	-7907
▁教育	-7908
▁这与	-7909
▁这类	-7910
不喜欢	-7911
人类的	-7912
军事实	-7913
可能比	-7914
最后的	-7915
有责任	-7916
比方说	-7917
热衷于	-7918
的重大	-7919
腐败和	-7920
贫困和	-7921
长期看	-7922
他们可以	-7923
依然存在	-7924
原因在于	-7925
在经历了	-7926
就业创造	-7927
种族主义	-7928
萨尔科奇	-7929
这样一种	-7930
▁但这样的	-7931
提高生产率	-7932
约旦河西岸	-7933
世界其他地区	-7934
联合国秘书长	-7935
一度	-7936
下令	-7937
催化	-7938
先决	-7939
厄瓜	-7940
合约	-7941
州长	-7942
广义	-7943
意的	-7944
挑起	-7945
援引	-7946
无核	-7947
汇款	-7948
看成	-7949
科研	-7950
称的	-7951
纲领	-7952
缩短	-7953
避税	-7954
零和	-7955
靠拢	-7956
黑人	-7957
不能再	-7958
六个月	-7959
受益于	-7960
拥有的	-7961
法律和	-7962
的医疗	-7963
的话说	-7964
看到的	-7965
能源和	-7966
阿拉法	-7967
驾马车	-7968
加沙地带	-7969
在全世界	-7970
正在发生	-7971
生物燃料	-7972
的年轻人	-7973
这一过程	-7974
▁长期以来	-7975
不平等性的	-7976
部分是因为	-7977
世界经济论坛	-7978
31	-7979
PA	-7980
▁7	-7981
三种	-7982
世行	-7983
买单	-7984
五大	-7985
兑换	-7986
十字	-7987
开明	-7988
挫折	-7989
来了	-7990
核弹	-7991
格达	-7992
物流	-7993
界线	-7994
签证	-7995
胜任	-7996
自行	-7997
表态	-7998
里程	-7999
阐述	-8000
集权	-8001
15%	-8002
are	-8003
▁企业	-8004
▁多数	-8005
同一个	-8006
四分之	-8007
实在在	-8008
形成的	-8009
扩张性	-8010
摆脱了	-8011
数字化	-8012
斯坦福	-8013
是一件	-8014
篇文章	-8015
腐败的	-8016
贸易的	-8017
▁它们的	-8018
▁这不是	-8019
▁阿根廷	-8020
制药公司	-8021
单一货币	-8022
实实在在	-8023
的经济学	-8024
经济学奖	-8025
▁归根结底	-8026
▁我们希望	-8027
发展中经济体	-8028
ID	-8029
IV	-8030
▁后	-8031
了近	-8032
医药	-8033
升温	-8034
合成	-8035
困惑	-8036
大为	-8037
大致	-8038
学位	-8039
岛屿	-8040
得更	-8041
微软	-8042
教会	-8043
月底	-8044
有毒	-8045
深受	-8046
激起	-8047
灰质	-8048
看着	-8049
眼光	-8050
知名	-8051
纳米	-8052
经费	-8053
罚款	-8054
节目	-8055
言辞	-8056
骄傲	-8057
ack	-8058
igh	-8059
mer	-8060
▁此次	-8061
下一代	-8062
不一定	-8063
与发展	-8064
他们也	-8065
代理人	-8066
会议的	-8067
债权国	-8068
公众的	-8069
出口商	-8070
消费的	-8071
灰质炎	-8072
等同于	-8073
Mich	-8074
▁但它们	-8075
▁首先是	-8076
他们必须	-8077
先决条件	-8078
资本管制	-8079
需要一个	-8080
▁除此之外	-8081
脊髓灰质炎	-8082
吞并克里米亚	-8083
44	-8084
Ge	-8085
一座	-8086
不乏	-8087
丰厚	-8088
刚果	-8089
加泰	-8090
司机	-8091
大笔	-8092
家的	-8093
将比	-8094
常见	-8095
征服	-8096
微弱	-8097
打败	-8098
星球	-8099
测算	-8100
的受	-8101
蔑视	-8102
越发	-8103
越大	-8104
120	-8105
▁st	-8106
▁但从	-8107
▁总统	-8108
▁报告	-8109
以实现	-8110
加泰罗	-8111
原材料	-8112
向美国	-8113
和德国	-8114
将带来	-8115
并不像	-8116
开始了	-8117
得益于	-8118
来说是	-8119
理解的	-8120
生产和	-8121
的法国	-8122
的统治	-8123
看不到	-8124
税收和	-8125
能够为	-8126
迈克尔	-8127
道而驰	-8128
预测的	-8129
▁西班牙	-8130
一带一路	-8131
一直以来	-8132
之间存在	-8133
众所周知	-8134
对俄罗斯	-8135
将进一步	-8136
权力机构	-8137
自身利益	-8138
这些目标	-8139
世界领导人	-8140
加泰罗尼亚	-8141
截然不同的	-8142
36	-8143
▁受	-8144
一贯	-8145
两名	-8146
个别	-8147
也与	-8148
了吗	-8149
包装	-8150
同胞	-8151
将近	-8152
尊敬	-8153
捕捞	-8154
摩根	-8155
教派	-8156
时所	-8157
是很	-8158
杀人	-8159
次于	-8160
类的	-8161
终止	-8162
罗德	-8163
而出	-8164
营商	-8165
铺平	-8166
omp	-8167
不允许	-8168
利率的	-8169
印度人	-8170
和增长	-8171
在法国	-8172
多年前	-8173
巴塞尔	-8174
年轻的	-8175
改善了	-8176
有些人	-8177
的可能	-8178
的工人	-8179
的选票	-8180
站出来	-8181
等问题	-8182
给美国	-8183
让中国	-8184
不足为奇	-8185
债务水平	-8186
去杠杆化	-8187
哈佛大学	-8188
背道而驰	-8189
财政状况	-8190
长期停滞	-8191
原教旨主义	-8192
数十亿美元	-8193
JP	-8194
一来	-8195
东北	-8196
乐于	-8197
于此	-8198
但我	-8199
共存	-8200
决裂	-8201
徘徊	-8202
攻势	-8203
某一	-8204
治下	-8205
波特	-8206
电厂	-8207
界定	-8208
落入	-8209
ism	-8210
our	-8211
▁举例	-8212
▁令人	-8213
▁公司	-8214
▁针对	-8215
也非常	-8216
例子中	-8217
分析师	-8218
原子能	-8219
因为其	-8220
对国家	-8221
将这一	-8222
应有的	-8223
措施的	-8224
来支持	-8225
甚至连	-8226
穷人的	-8227
而后者	-8228
那以后	-8229
avid	-8230
▁但对于	-8231
债权人的	-8232
公共政策	-8233
和平协议	-8234
有意义的	-8235
的投资者	-8236
的支持下	-8237
美联储的	-8238
▁发自伦敦	-8239
通货膨胀率	-8240
▁欧盟委员会	-8241
宏观经济政策	-8242
俄罗斯总统普京	-8243
大规模杀伤性武器	-8244
▁4	-8245
▁5	-8246
▁t	-8247
不定	-8248
减记	-8249
匮乏	-8250
反驳	-8251
品质	-8252
市民	-8253
开战	-8254
弥合	-8255
彰显	-8256
恐吓	-8257
我所	-8258
投行	-8259
效力	-8260
无处	-8261
朴槿	-8262
民党	-8263
真是	-8264
罪名	-8265
老牌	-8266
耻辱	-8267
贿赂	-8268
跟踪	-8269
arl	-8270
eal	-8271
▁东京	-8272
▁两国	-8273
不会有	-8274
中扮演	-8275
催生了	-8276
和收入	-8277
大衰退	-8278
它可以	-8279
居住在	-8280
市场和	-8281
并以此	-8282
描述为	-8283
朴槿惠	-8284
源自于	-8285
直升机	-8286
社会和	-8287
而这一	-8288
艾哈迈	-8289
范围的	-8290
零利率	-8291
▁最近的	-8292
使用武力	-8293
其中一些	-8294
弹道导弹	-8295
政治领袖	-8296
更广泛的	-8297
的政治家	-8298
目前正在	-8299
美国人的	-8300
讽刺的是	-8301
贫困人口	-8302
▁但特朗普	-8303
核不扩散条约	-8304
34	-8305
▁来	-8306
万个	-8307
上学	-8308
亚历	-8309
优质	-8310
右派	-8311
和中	-8312
坐视	-8313
大卫	-8314
大门	-8315
将由	-8316
很久	-8317
忧心	-8318
文在	-8319
根于	-8320
每次	-8321
的三	-8322
看护	-8323
米兰	-8324
裁定	-8325
西非	-8326
赞扬	-8327
车臣	-8328
重的	-8329
集会	-8330
驾驶	-8331
齐聚	-8332
ork	-8333
ven	-8334
决定的	-8335
即便是	-8336
发布的	-8337
官员们	-8338
对未来	-8339
希拉克	-8340
影响着	-8341
的解释	-8342
第二轮	-8343
而在于	-8344
远高于	-8345
选择的	-8346
避免的	-8347
▁如果不	-8348
付出代价	-8349
价格稳定	-8350
几十年中	-8351
增长速度	-8352
将有助于	-8353
就是如此	-8354
的世界中	-8355
讽刺意味	-8356
贫穷国家	-8357
贸易谈判	-8358
ission	-8359
▁发展中国家	-8360
所面临的挑战	-8361
诺贝尔经济学奖	-8362
39	-8363
▁下	-8364
▁人	-8365
▁非	-8366
余地	-8367
偏远	-8368
几次	-8369
卢拉	-8370
听证	-8371
备受	-8372
安南	-8373
掀起	-8374
放大	-8375
瑟夫	-8376
看出	-8377
解散	-8378
购物	-8379
随机	-8380
霍乱	-8381
一致的	-8382
为我们	-8383
了中国	-8384
仍然在	-8385
伊斯坦	-8386
具体的	-8387
富有的	-8388
对我们	-8389
将自己	-8390
尔多瓦	-8391
急切地	-8392
是完全	-8393
的结论	-8394
还是在	-8395
Fran	-8396
之处在于	-8397
五分之一	-8398
厄瓜多尔	-8399
另外一个	-8400
政府已经	-8401
欧元危机	-8402
没有一个	-8403
长期增长	-8404
itter	-8405
▁恰恰相反	-8406
▁果真如此	-8407
企业家精神	-8408
做到这一点	-8409
Af	-8410
Je	-8411
sh	-8412
中被	-8413
储户	-8414
克罗	-8415
分钟	-8416
剩下	-8417
十亿	-8418
原理	-8419
反犹	-8420
噩梦	-8421
奋斗	-8422
女童	-8423
子的	-8424
客观	-8425
尔顿	-8426
峰值	-8427
徒劳	-8428
截至	-8429
振奋	-8430
攫取	-8431
无一	-8432
无效	-8433
本已	-8434
疑虑	-8435
百姓	-8436
罪犯	-8437
耶伦	-8438
表演	-8439
通用	-8440
通道	-8441
res	-8442
▁le	-8443
▁自由	-8444
不同于	-8445
主导的	-8446
参与到	-8447
因此而	-8448
国家在	-8449
大革命	-8450
实质性	-8451
庸置疑	-8452
情形中	-8453
情报局	-8454
数据的	-8455
比特币	-8456
爆发的	-8457
特定的	-8458
的合理	-8459
给他们	-8460
▁没有人	-8461
全球增长	-8462
因为这些	-8463
我们现在	-8464
摩尔多瓦	-8465
整个世界	-8466
更深层次	-8467
贸易协议	-8468
资产泡沫	-8469
重要性的	-8470
▁2017	-8471
令人瞩目的	-8472
提出了一个	-8473
TO	-8474
oy	-8475
ty	-8476
为零	-8477
乔夫	-8478
协力	-8479
占总	-8480
可图	-8481
可疑	-8482
大麻	-8483
有机	-8484
深思	-8485
确切	-8486
科威	-8487
终身	-8488
询问	-8489
说辞	-8490
ald	-8491
ann	-8492
ood	-8493
▁央行	-8494
▁该国	-8495
了欧洲	-8496
体系中	-8497
压倒性	-8498
奥斯曼	-8499
小部分	-8500
最终将	-8501
物理学	-8502
的援助	-8503
知识和	-8504
立法者	-8505
自己在	-8506
被用来	-8507
负利率	-8508
资金的	-8509
这个词	-8510
1950	-8511
1973	-8512
1996	-8513
▁哈马斯	-8514
不断上升	-8515
世界秩序	-8516
个成员国	-8517
令人印象	-8518
国际秩序	-8519
大多数人	-8520
成为可能	-8521
技术官僚	-8522
数字技术	-8523
日益增加	-8524
更重要的	-8525
的目标是	-8526
这个世界	-8527
在一定程度上	-8528
sk	-8529
一件	-8530
主意	-8531
十八	-8532
占比	-8533
可供	-8534
多人	-8535
大部	-8536
孟买	-8537
把持	-8538
挥霍	-8539
斯托	-8540
服装	-8541
构想	-8542
比喻	-8543
淘汰	-8544
甘地	-8545
胡锦	-8546
能使	-8547
邮件	-8548
骚扰	-8549
iew	-8550
ris	-8551
row	-8552
▁传统	-8553
人们所	-8554
以换取	-8555
似乎也	-8556
债券的	-8557
十年后	-8558
取消了	-8559
和军事	-8560
孩子们	-8561
它们所	-8562
戈尔巴	-8563
曾经是	-8564
的主权	-8565
的政党	-8566
的管理	-8567
的认识	-8568
社会中	-8569
胡锦涛	-8570
表达了	-8571
认为是	-8572
这方面	-8573
▁这需要	-8574
决定性的	-8575
可以提供	-8576
和叙利亚	-8577
国民收入	-8578
寻求庇护	-8579
拉美国家	-8580
经济问题	-8581
▁2003	-8582
▁2006	-8583
阿拉伯世界的	-8584
跨太平洋合作伙伴关系	-8585
▁美	-8586
一战	-8587
一群	-8588
东方	-8589
之力	-8590
偶尔	-8591
剥削	-8592
动的	-8593
反常	-8594
向来	-8595
地面	-8596
士顿	-8597
多于	-8598
夫人	-8599
委托	-8600
家人	-8601
富翁	-8602
摄氏	-8603
既有	-8604
日趋	-8605
杀虫	-8606
极具	-8607
洞见	-8608
激怒	-8609
猛烈	-8610
皮克	-8611
福音	-8612
装置	-8613
见证	-8614
视频	-8615
诊所	-8616
赤裸	-8617
较小	-8618
顶级	-8619
ass	-8620
▁12	-8621
▁18	-8622
▁Ag	-8623
不具备	-8624
交易的	-8625
仅限于	-8626
但美国	-8627
关键性	-8628
创造性	-8629
包含了	-8630
和保护	-8631
国内外	-8632
国家中	-8633
在国家	-8634
岁以下	-8635
是多么	-8636
民众对	-8637
波士顿	-8638
爆发了	-8639
的份额	-8640
的理念	-8641
的财富	-8642
页岩气	-8643
▁美国人	-8644
也就是说	-8645
保守主义	-8646
做出选择	-8647
各不相同	-8648
和美国的	-8649
巴黎协定	-8650
政策利率	-8651
联合起来	-8652
贸易壁垒	-8653
资本账户	-8654
▁2000	-8655
戈尔巴乔夫	-8656
的外交政策	-8657
社会和政治	-8658
▁沙特阿拉伯	-8659
stitute	-8660
32	-8661
II	-8662
▁各	-8663
一看	-8664
事先	-8665
冒着	-8666
去世	-8667
同步	-8668
圣诞	-8669
巨量	-8670
得太	-8671
把握	-8672
既是	-8673
来临	-8674
点燃	-8675
热烈	-8676
率的	-8677
良机	-8678
节奏	-8679
蒙特	-8680
西奈	-8681
赚取	-8682
越多	-8683
迁移	-8684
遗留	-8685
驱使	-8686
高乐	-8687
高额	-8688
ect	-8689
东道国	-8690
加勒比	-8691
努力的	-8692
并通过	-8693
待观察	-8694
技术上	-8695
持有人	-8696
损害了	-8697
最后一	-8698
治下的	-8699
的信用	-8700
的帮助	-8701
的时刻	-8702
的独立	-8703
第一位	-8704
而应该	-8705
#160	-8706
▁但欧洲	-8707
▁所谓的	-8708
▁无论是	-8709
对以色列	-8710
环境保护	-8711
相当大的	-8712
能够实现	-8713
还有很多	-8714
UN	-8715
▁拜	-8716
一是	-8717
一番	-8718
上下	-8719
不合	-8720
于事	-8721
会把	-8722
会是	-8723
军力	-8724
利于	-8725
动议	-8726
同行	-8727
多名	-8728
安置	-8729
定律	-8730
家宝	-8731
尼尔	-8732
忙于	-8733
抗药	-8734
报导	-8735
接入	-8736
是为	-8737
智力	-8738
欧美	-8739
法定	-8740
班农	-8741
疏远	-8742
相近	-8743
般的	-8744
药方	-8745
装备	-8746
转让	-8747
金氏	-8748
铭记	-8749
enc	-8750
▁值得	-8751
中东的	-8752
会增加	-8753
加起来	-8754
和自由	-8755
将如何	-8756
将美国	-8757
年期间	-8758
戴高乐	-8759
扩大到	-8760
持久的	-8761
旅游业	-8762
最小化	-8763
有一种	-8764
甚至在	-8765
生命的	-8766
的感觉	-8767
等方面	-8768
经通胀	-8769
那些在	-8770
阿尔巴	-8771
不同的是	-8772
信息技术	-8773
可以帮助	-8774
可以获得	-8775
合法性的	-8776
我们正在	-8777
福利国家	-8778
经济繁荣	-8779
达成共识	-8780
银行体系	-8781
#160;	-8782
伊斯坦布尔	-8783
巴黎气候协定	-8784
38	-8785
EA	-8786
Tw	-8787
▁2	-8788
▁6	-8789
上风	-8790
中介	-8791
亿万	-8792
保卫	-8793
先锋	-8794
利斯	-8795
制的	-8796
前瞻	-8797
只需	-8798
史蒂	-8799
合并	-8800
培育	-8801
外长	-8802
定向	-8803
所言	-8804
拉登	-8805
挑选	-8806
根基	-8807
次级	-8808
残疾	-8809
治愈	-8810
现今	-8811
甚远	-8812
生机	-8813
重回	-8814
降到	-8815
▁10	-8816
▁仅仅	-8817
▁安倍	-8818
▁沙特	-8819
一百万	-8820
交易所	-8821
健康和	-8822
发表了	-8823
将不会	-8824
巴格达	-8825
控制了	-8826
暴力和	-8827
曼德拉	-8828
的一步	-8829
的对手	-8830
的模式	-8831
的理想	-8832
的还有	-8833
约瑟夫	-8834
选民们	-8835
那么它	-8836
1982	-8837
▁而美国	-8838
几乎肯定	-8839
只有一个	-8840
外交关系	-8841
无论如何	-8842
没有理由	-8843
消费支出	-8844
特朗普和	-8845
英国政府	-8846
David	-8847
NAFTA	-8848
▁如果他们	-8849
的主要原因	-8850
这样的国家	-8851
联合国气候变化	-8852
Sh	-8853
la	-8854
▁h	-8855
下行	-8856
不力	-8857
买卖	-8858
于衷	-8859
任由	-8860
克劳	-8861
发育	-8862
四大	-8863
处的	-8864
对华	-8865
尽量	-8866
惊讶	-8867
携手	-8868
本能	-8869
极低	-8870
残忍	-8871
没了	-8872
沿岸	-8873
混淆	-8874
灌溉	-8875
的好	-8876
福特	-8877
离岸	-8878
穿越	-8879
累计	-8880
结婚	-8881
背负	-8882
触及	-8883
返回	-8884
酝酿	-8885
高峰	-8886
ant	-8887
ome	-8888
▁美元	-8889
为目标	-8890
以防止	-8891
债务和	-8892
公民的	-8893
其国内	-8894
创始人	-8895
动于衷	-8896
去监管	-8897
可能让	-8898
和实施	-8899
和家庭	-8900
大公司	-8901
实现其	-8902
很少有	-8903
必须是	-8904
方案的	-8905
更有效	-8906
有利的	-8907
比里亚	-8908
温家宝	-8909
的信念	-8910
的角度	-8911
等其他	-8912
能产生	-8913
舞台上	-8914
规定的	-8915
讲话中	-8916
5000	-8917
▁Res	-8918
▁第三个	-8919
▁这对于	-8920
三驾马车	-8921
不仅限于	-8922
世卫组织	-8923
也是一个	-8924
他们自己	-8925
变得更为	-8926
国会议员	-8927
国际金融	-8928
工资增长	-8929
必须得到	-8930
才有可能	-8931
拒绝承认	-8932
没有得到	-8933
的原因是	-8934
的受害者	-8935
研究发现	-8936
精英阶层	-8937
认真对待	-8938
货币操纵	-8939
这个数字	-8940
退休年龄	-8941
ility	-8942
根深蒂固的	-8943
三角	-8944
付诸	-8945
余额	-8946
偏执	-8947
关塔	-8948
分崩	-8949
回购	-8950
带领	-8951
幕后	-8952
感谢	-8953
末日	-8954
次要	-8955
死去	-8956
浮现	-8957
考量	-8958
送到	-8959
钓鱼	-8960
▁尤其	-8961
▁很难	-8962
▁没人	-8963
▁真正	-8964
上一次	-8965
债务国	-8966
农产品	-8967
分崩离	-8968
又一个	-8969
向中国	-8970
将无法	-8971
已经是	-8972
年后的	-8973
怎么做	-8974
所带来	-8975
显著的	-8976
最需要	-8977
的伊朗	-8978
的冲击	-8979
的某些	-8980
经济上	-8981
肺结核	-8982
这两种	-8983
这导致	-8984
集中于	-8985
▁而这些	-8986
中的一个	-8987
亚太地区	-8988
令人沮丧	-8989
共和国的	-8990
利比里亚	-8991
十分重要	-8992
周年纪念	-8993
必须通过	-8994
提醒我们	-8995
的伊斯兰	-8996
的候选人	-8997
的穆斯林	-8998
种族隔离	-8999
自然灾害	-9000
行动计划	-9001
进一步的	-9002
高级官员	-9003
▁气候变化	-9004
梅德韦杰夫	-9005
特朗普总统	-9006
阿尔巴尼亚	-9007
劳动力市场的	-9008
▁同	-9009
不错	-9010
丝绸	-9011
初始	-9012
加工	-9013
卡拉	-9014
在眉	-9015
收取	-9016
无非	-9017
是从	-9018
暴动	-9019
本次	-9020
流感	-9021
空军	-9022
绝不	-9023
而代	-9024
要好	-9025
词汇	-9026
财阀	-9027
这座	-9028
金属	-9029
随处	-9030
顾虑	-9031
0.5	-9032
Jos	-9033
ash	-9034
▁此前	-9035
▁现代	-9036
▁部分	-9037
上加霜	-9038
两个月	-9039
几年的	-9040
剥夺了	-9041
同时还	-9042
和医疗	-9043
在任何	-9044
在眉睫	-9045
增值税	-9046
战略的	-9047
更重要	-9048
极高的	-9049
的一位	-9050
的声音	-9051
的对话	-9052
的平均	-9053
的障碍	-9054
科威特	-9055
被允许	-9056
贫困线	-9057
资本和	-9058
难民营	-9059
预防性	-9060
▁Pol	-9061
▁但事实	-9062
▁而尽管	-9063
▁而这一	-9064
不复存在	-9065
中的作用	-9066
健康状况	-9067
分崩离析	-9068
可持续的	-9069
可能出现	-9070
将不得不	-9071
我们知道	-9072
技术创新	-9073
武装力量	-9074
溢出效应	-9075
还有一个	-9076
迫在眉睫	-9077
拥有核武器	-9078
的经济衰退	-9079
阿萨德政权	-9080
▁所有这些都	-9081
▁小	-9082
一大	-9083
一部	-9084
中之	-9085
为数	-9086
之旅	-9087
人人	-9088
人听	-9089
健全	-9090
偶然	-9091
克森	-9092
勉强	-9093
却被	-9094
可言	-9095
名叫	-9096
国籍	-9097
垮台	-9098
它对	-9099
巧妙	-9100
拉圭	-9101
普世	-9102
格里	-9103
流通	-9104
男子	-9105
空白	-9106
等级	-9107
翻番	-9108
腺癌	-9109
范例	-9110
这与	-9111
▁危机	-9112
上世纪	-9113
也正在	-9114
从现在	-9115
依然在	-9116
充足的	-9117
可能被	-9118
奥斯陆	-9119
并将其	-9120
引入了	-9121
我们也	-9122
报告中	-9123
改革和	-9124
新一代	-9125
杀虫剂	-9126
极少数	-9127
独特的	-9128
硬着陆	-9129
简单地	-9130
类型的	-9131
让世界	-9132
赤裸裸	-9133
▁伊斯兰	-9134
▁在最近	-9135
▁而中国	-9136
变得日益	-9137
因为美国	-9138
应该成为	-9139
生产率的	-9140
的叙利亚	-9141
的增长率	-9142
评级机构	-9143
这场战争	-9144
重新思考	-9145
阿拉法特	-9146
雪上加霜	-9147
▁如果中国	-9148
委员会主席	-9149
欧盟领导人	-9150
的经济复苏	-9151
新兴市场经济体	-9152
▁Economic	-9153
iz	-9154
ph	-9155
不敢	-9156
为之	-9157
亨利	-9158
仪式	-9159
仲裁	-9160
伎俩	-9161
位居	-9162
倒塌	-9163
充其	-9164
先发	-9165
党内	-9166
反腐	-9167
吃惊	-9168
吉拉	-9169
呼吸	-9170
天安	-9171
太少	-9172
奖金	-9173
审核	-9174
延迟	-9175
异见	-9176
强奸	-9177
感情	-9178
抗击	-9179
掣肘	-9180
教堂	-9181
最不	-9182
最坏	-9183
玉米	-9184
的后	-9185
纺织	-9186
走私	-9187
里达	-9188
闻名	-9189
防范	-9190
降临	-9191
霍尔	-9192
马丁	-9193
enn	-9194
为一个	-9195
之上的	-9196
从美国	-9197
低技能	-9198
促成了	-9199
关键的	-9200
创新性	-9201
包括在	-9202
化合物	-9203
可以以	-9204
和公司	-9205
心协力	-9206
必须与	-9207
所说的	-9208
文在寅	-9209
最多的	-9210
条件的	-9211
民主化	-9212
的机制	-9213
竞争的	-9214
美国与	-9215
苏联的	-9216
还不够	-9217
里程碑	-9218
arry	-9219
orge	-9220
▁有些人	-9221
做出反应	-9222
全球性的	-9223
公共财政	-9224
反恐战争	-9225
受到威胁	-9226
将注意力	-9227
左翼联盟	-9228
市场力量	-9229
我们能够	-9230
政治联盟	-9231
无动于衷	-9232
是否真的	-9233
欧洲银行	-9234
正好相反	-9235
的经济和	-9236
能源价格	-9237
3,000	-9238
James	-9239
▁埃尔多安	-9240
万亿美元的	-9241
印度尼西亚	-9242
国际社会的	-9243
欧洲央行的	-9244
经济增长率	-9245
美国和英国	-9246
预见的未来	-9247
48	-9248
af	-9249
▁n	-9250
▁v	-9251
三次	-9252
光靠	-9253
分类	-9254
初期	-9255
初步	-9256
反击	-9257
可归	-9258
外资	-9259
幸存	-9260
很长	-9261
捕获	-9262
是无	-9263
沙漠	-9264
渺茫	-9265
砍伐	-9266
管齐	-9267
老板	-9268
肺炎	-9269
莱坞	-9270
访者	-9271
鸿沟	-9272
ael	-9273
▁似乎	-9274
▁投资	-9275
▁现实	-9276
专家们	-9277
主要由	-9278
了一半	-9279
人心的	-9280
会继续	-9281
冲突中	-9282
创造力	-9283
发行的	-9284
外围国	-9285
对英国	-9286
将会是	-9287
应该为	-9288
强调了	-9289
必须以	-9290
成本和	-9291
我们就	-9292
最基本	-9293
最终会	-9294
的发生	-9295
的妇女	-9296
的学生	-9297
的盟友	-9298
竞争者	-9299
第三次	-9300
答案是	-9301
能够以	-9302
解放军	-9303
这是个	-9304
金正日	-9305
▁投资者	-9306
▁这表明	-9307
可能带来	-9308
如果不是	-9309
希腊政府	-9310
意义上的	-9311
整个地区	-9312
日本经济	-9313
法治精神	-9314
现代化的	-9315
研究中心	-9316
过度负债	-9317
▁我们已经	-9318
基础设施和	-9319
的人道主义	-9320
里斯本条约	-9321
应对气候变化	-9322
第二次世界大战	-9323
CO	-9324
ek	-9325
▁Z	-9326
三国	-9327
了他	-9328
利差	-9329
加德	-9330
宪政	-9331
尽力	-9332
市政	-9333
广大	-9334
强人	-9335
悲惨	-9336
掩饰	-9337
斯达	-9338
电信	-9339
益处	-9340
福岛	-9341
联网	-9342
辐射	-9343
过往	-9344
ker	-9345
que	-9346
▁冷战	-9347
▁眼下	-9348
与朝鲜	-9349
为核心	-9350
也不再	-9351
了一条	-9352
仅次于	-9353
信息的	-9354
冲突和	-9355
剩下的	-9356
参与率	-9357
可贸易	-9358
和未来	-9359
就是在	-9360
年全球	-9361
并确保	-9362
思想的	-9363
急需的	-9364
恰当的	-9365
投票权	-9366
的人的	-9367
的相关	-9368
的言论	-9369
而且还	-9370
致命的	-9371
进步的	-9372
麦凯恩	-9373
TTIP	-9374
任何国家	-9375
候选人的	-9376
发生变化	-9377
大幅提高	-9378
弱势群体	-9379
无处不在	-9380
某些国家	-9381
民主党人	-9382
流动性的	-9383
统计数据	-9384
这些挑战	-9385
▁具体而言	-9386
付出的代价	-9387
发展中世界	-9388
叙利亚内战	-9389
实现这一点	-9390
某种形式的	-9391
和发展中国家	-9392
ue	-9393
两难	-9394
之不	-9395
会说	-9396
冷漠	-9397
划定	-9398
助推	-9399
变异	-9400
德克	-9401
拥护	-9402
据此	-9403
文学	-9404
旧金	-9405
本周	-9406
杀手	-9407
澄清	-9408
理工	-9409
者在	-9410
观众	-9411
讲述	-9412
说的	-9413
运气	-9414
遍布	-9415
遗忘	-9416
都与	-9417
重返	-9418
验证	-9419
麻痹	-9420
Ste	-9421
▁北约	-9422
一小撮	-9423
了我们	-9424
五年前	-9425
充其量	-9426
和其它	-9427
将增加	-9428
旧金山	-9429
植根于	-9430
理查德	-9431
理由是	-9432
的极端	-9433
的领袖	-9434
能得到	-9435
至少是	-9436
设计的	-9437
风险和	-9438
▁但由于	-9439
▁在这里	-9440
▁类似的	-9441
▁而如今	-9442
丝绸之路	-9443
了他们的	-9444
了自己的	-9445
佛罗里达	-9446
其领导人	-9447
军事实力	-9448
名义利率	-9449
和墨西哥	-9450
外国投资	-9451
所提供的	-9452
政治上的	-9453
更加难以	-9454
极权主义	-9455
的共和党	-9456
的大多数	-9457
相似之处	-9458
能源效率	-9459
财政整合	-9460
集体行动	-9461
ealth	-9462
充满活力的	-9463
欧洲和美国	-9464
创造就业机会	-9465
加利福尼亚州	-9466
47	-9467
se	-9468
▁十	-9469
不动	-9470
主体	-9471
之手	-9472
优点	-9473
佩克	-9474
免遭	-9475
卓越	-9476
可危	-9477
宣誓	-9478
岌岌	-9479
布勒	-9480
年末	-9481
慢慢	-9482
挫败	-9483
收拾	-9484
是与	-9485
普尔	-9486
枯竭	-9487
泛滥	-9488
流亡	-9489
甚微	-9490
的近	-9491
系数	-9492
罗夫	-9493
者是	-9494
请求	-9495
谋求	-9496
践踏	-9497
迎合	-9498
远程	-9499
隐性	-9500
预警	-9501
WTO	-9502
per	-9503
▁An	-9504
▁En	-9505
▁假设	-9506
▁导致	-9507
▁最新	-9508
一个由	-9509
为全球	-9510
他们就	-9511
公务员	-9512
分析家	-9513
发动了	-9514
发生后	-9515
可行性	-9516
埃及的	-9517
很长的	-9518
必须要	-9519
或者是	-9520
教科书	-9521
有时候	-9522
正义党	-9523
的就业	-9524
的气候	-9525
而代之	-9526
菲尔德	-9527
资本的	-9528
预算的	-9529
▁问题是	-9530
仍然没有	-9531
双边贸易	-9532
受到影响	-9533
国际机构	-9534
实现这一	-9535
岌岌可危	-9536
有利可图	-9537
武装冲突	-9538
甚至可以	-9539
这种方式	-9540
金融改革	-9541
阿富汗的	-9542
需要的是	-9543
ative	-9544
▁这一观点	-9545
▁这些问题	-9546
中央银行的	-9547
和世界银行	-9548
大西洋两岸	-9549
必不可少的	-9550
房地产市场	-9551
的新兴市场	-9552
穆斯林世界	-9553
美国和中国	-9554
退出欧元区	-9555
一股	-9556
之多	-9557
伪善	-9558
偿债	-9559
减贫	-9560
加息	-9561
加索	-9562
和他	-9563
四倍	-9564
坦桑	-9565
多项	-9566
她在	-9567
定在	-9568
实证	-9569
引向	-9570
志愿	-9571
手无	-9572
搁置	-9573
服从	-9574
此时	-9575
沿着	-9576
熟练	-9577
私下	-9578
罹患	-9579
行之	-9580
身边	-9581
道义	-9582
MDG	-9583
ond	-9584
▁但要	-9585
▁我在	-9586
▁而是	-9587
不一样	-9588
也十分	-9589
制造了	-9590
历史性	-9591
合法化	-9592
夜之间	-9593
它们是	-9594
对世界	-9595
将达到	-9596
建筑业	-9597
成立的	-9598
打破了	-9599
政府所	-9600
机制的	-9601
的系统	-9602
的转变	-9603
等领域	-9604
结束时	-9605
解决了	-9606
解决的	-9607
达尔文	-9608
这不是	-9609
金融和	-9610
降低到	-9611
集团的	-9612
全球市场	-9613
发展趋势	-9614
发现自己	-9615
坦桑尼亚	-9616
总统竞选	-9617
政府可以	-9618
更多的人	-9619
破坏性的	-9620
继续下去	-9621
联邦基金	-9622
领导地位	-9623
,2015	-9624
▁其结果是	-9625
▁总体而言	-9626
▁近几年来	-9627
▁这是因为	-9628
入侵伊拉克	-9629
巴勒斯坦国	-9630
解决问题的	-9631
European	-9632
4,	-9633
▁3	-9634
▁没	-9635
丈夫	-9636
不啻	-9637
中叶	-9638
主办	-9639
亏损	-9640
六个	-9641
几位	-9642
出任	-9643
华沙	-9644
博客	-9645
压低	-9646
反馈	-9647
可用	-9648
囤积	-9649
国企	-9650
坚守	-9651
堕落	-9652
宏大	-9653
年均	-9654
并把	-9655
开了	-9656
总共	-9657
愉快	-9658
成年	-9659
时常	-9660
月中	-9661
殆尽	-9662
演习	-9663
生长	-9664
神秘	-9665
结成	-9666
绕过	-9667
联酋	-9668
说话	-9669
赞美	-9670
迈出	-9671
连贯	-9672
▁确保	-9673
▁移民	-9674
▁莫迪	-9675
一定会	-9676
中受益	-9677
人听闻	-9678
人来说	-9679
低通胀	-9680
十年期	-9681
后者的	-9682
在西方	-9683
失去的	-9684
局限性	-9685
开始时	-9686
推翻了	-9687
摧毁了	-9688
教训是	-9689
方面都	-9690
法兰克	-9691
现实中	-9692
的商品	-9693
的对象	-9694
精英们	-9695
给出了	-9696
肯定的	-9697
让欧洲	-9698
资源和	-9699
超出了	-9700
韩国和	-9701
驱动的	-9702
omas	-9703
▁换言之	-9704
▁该计划	-9705
取而代之	-9706
哪个国家	-9707
在短期内	-9708
多哈回合	-9709
或许可以	-9710
更有效的	-9711
的全球性	-9712
美元贬值	-9713
议会选举	-9714
,2013	-9715
▁委内瑞拉	-9716
▁总而言之	-9717
解决的问题	-9718
发达经济体的	-9719
Twitter	-9720
▁这就是为什么	-9721
DA	-9722
▁西	-9723
上面	-9724
不时	-9725
为由	-9726
也很	-9727
兼并	-9728
出去	-9729
召集	-9730
名言	-9731
启蒙	-9732
图景	-9733
地在	-9734
夸大	-9735
女权	-9736
巴林	-9737
希尔	-9738
幽灵	-9739
归属	-9740
无穷	-9741
法的	-9742
渔业	-9743
相符	-9744
禁运	-9745
累进	-9746
罗格	-9747
获利	-9748
计的	-9749
说他	-9750
谈话	-9751
重负	-9752
lan	-9753
▁一项	-9754
▁不是	-9755
▁保护	-9756
不作为	-9757
以前的	-9758
和法国	-9759
她们的	-9760
它们对	-9761
宏大的	-9762
小规模	-9763
必要性	-9764
战争和	-9765
手中的	-9766
政客和	-9767
有没有	-9768
演变成	-9769
生产国	-9770
的大选	-9771
的边缘	-9772
皮克提	-9773
经历过	-9774
绝不会	-9775
财富的	-9776
辅之以	-9777
错误地	-9778
▁一开始	-9779
一切代价	-9780
也不应该	-9781
似乎正在	-9782
国民债务	-9783
建设性的	-9784
投资组合	-9785
美国公司	-9786
退出欧盟	-9787
金融监管	-9788
,2014	-9789
▁其他国家	-9790
他们自己的	-9791
多大程度上	-9792
扮演的角色	-9793
民主国家的	-9794
的问题在于	-9795
基础设施项目	-9796
非常规货币政策	-9797
▁给	-9798
上而	-9799
中断	-9800
事后	-9801
五星	-9802
侵害	-9803
僵化	-9804
克格	-9805
其后	-9806
叫做	-9807
增量	-9808
多万	-9809
安慰	-9810
斯塔	-9811
无不	-9812
是被	-9813
普罗	-9814
智库	-9815
深感	-9816
游客	-9817
演变	-9818
潘基	-9819
略微	-9820
省份	-9821
秋天	-9822
维夫	-9823
美金	-9824
能给	-9825
苦苦	-9826
莫拉	-9827
被杀	-9828
诽谤	-9829
跻身	-9830
轴心	-9831
过热	-9832
逃脱	-9833
飞行	-9834
黎加	-9835
黑客	-9836
Ben	-9837
NCD	-9838
▁具有	-9839
也并不	-9840
也随之	-9841
似乎在	-9842
供给侧	-9843
克格勃	-9844
取代了	-9845
合法的	-9846
地球上	-9847
坚定的	-9848
基础的	-9849
家可归	-9850
执行的	-9851
拥有了	-9852
斯特罗	-9853
有用的	-9854
的人才	-9855
的公众	-9856
的运动	-9857
第三大	-9858
讨论的	-9859
还要多	-9860
进程的	-9861
通常会	-9862
遭遇了	-9863
锋相对	-9864
able	-9865
他们应该	-9866
利益相关	-9867
反过来又	-9868
各种各样	-9869
在最近的	-9870
将取决于	-9871
年代中期	-9872
总统任期	-9873
成为全球	-9874
接下来的	-9875
整个欧洲	-9876
有所增加	-9877
波罗的海	-9878
经济制裁	-9879
贸易政策	-9880
这一方针	-9881
这是因为	-9882
已经取得了	-9883
所说的那样	-9884
法国和德国	-9885
美国和其他	-9886
自己的国家	-9887
George	-9888
▁这并不是说	-9889
一张	-9890
下属	-9891
之年	-9892
便已	-9893
倾斜	-9894
关门	-9895
典范	-9896
参选	-9897
发病	-9898
可比	-9899
同僚	-9900
在为	-9901
坚实	-9902
塞拉	-9903
失调	-9904
库存	-9905
废墟	-9906
敢于	-9907
枢纽	-9908
残暴	-9909
泰勒	-9910
滑向	-9911
激情	-9912
特尔	-9913
现场	-9914
理智	-9915
碎片	-9916
维系	-9917
缩水	-9918
血液	-9919
贝鲁	-9920
赋权	-9921
超额	-9922
迪拜	-9923
金斯	-9924
黯淡	-9925
arg	-9926
erv	-9927
▁放眼	-9928
▁更加	-9929
▁而当	-9930
债务人	-9931
停留在	-9932
先发制	-9933
加利亚	-9934
和资源	-9935
哥斯达	-9936
困扰着	-9937
在日本	-9938
希腊和	-9939
常见的	-9940
平衡的	-9941
年之前	-9942
并导致	-9943
患者的	-9944
承担了	-9945
承担起	-9946
支出的	-9947
来确保	-9948
核国家	-9949
欧佩克	-9950
每一次	-9951
波斯湾	-9952
消费税	-9953
潜力的	-9954
管理局	-9955
而这种	-9956
说服力	-9957
过时的	-9958
那里的	-9959
非洲和	-9960
高技能	-9961
ited	-9962
reat	-9963
▁一些人	-9964
▁新加坡	-9965
▁这不仅	-9966
▁马克龙	-9967
也有助于	-9968
也面临着	-9969
八十年代	-9970
国家主权	-9971
大幅削减	-9972
对他们的	-9973
就意味着	-9974
并不令人	-9975
意大利的	-9976
政治家们	-9977
普通民众	-9978
毫无意义	-9979
特拉维夫	-9980
相关利益	-9981
而不能倒	-9982
资本外逃	-9983
这些因素	-9984
▁即便如此	-9985
▁正因如此	-9986
世界各地的	-9987
哥斯达黎加	-9988
社会民主党	-9989
Global	-9990
国民生产总值	-9991
IF	-9992
一面	-9993
不佳	-9994
不公	-9995
也已	-9996
人体	-9997
他还	-9998
以内	-9999
冰川	-10000
印刷	-10001
却不	-10002
压抑	-10003
含量	-10004
听取	-10005
宽带	-10006
巧合	-10007
或多	-10008
捐款	-10009
擅长	-10010
景气	-10011
波及	-10012
犯下	-10013
的纳	-10014
相去	-10015
碳税	-10016
罪恶	-10017
脂肪	-10018
自私	-10019
调停	-10020
赖以	-10021
连串	-10022
退化	-10023
预先	-10024
领取	-10025
颇有	-10026
额度	-10027
马利	-10028
ail	-10029
air	-10030
rom	-10031
▁剑桥	-10032
▁建立	-10033
一定的	-10034
亚洲和	-10035
全球的	-10036
原则上	-10037
和个人	-10038
在危机	-10039
大使馆	-10040
对其他	-10041
就一直	-10042
差不多	-10043
政党的	-10044
普拉斯	-10045
潘基文	-10046
环境和	-10047
的命运	-10048
的大型	-10049
维持了	-10050
至今日	-10051
萨科奇	-10052
还为时	-10053
主权国家	-10054
全球气候	-10055
可能已经	-10056
和他们的	-10057
商业模式	-10058
土耳其和	-10059
在此期间	-10060
收入水平	-10061
独裁统治	-10062
生活质量	-10063
约束力的	-10064
都有可能	-10065
重大影响	-10066
不断增长的	-10067
中国共产党	-10068
灾难性后果	-10069
的一个重要	-10070
美国和欧盟	-10071
▁果真如此的话	-10072
随着时间的推移	-10073
PD	-10074
亲信	-10075
伊始	-10076
保密	-10077
借鉴	-10078
再到	-10079
南北	-10080
占到	-10081
原料	-10082
咖啡	-10083
它会	-10084
已在	-10085
并与	-10086
并让	-10087
弹劾	-10088
挤兑	-10089
放宽	-10090
斯的	-10091
景象	-10092
步入	-10093
燃煤	-10094
税制	-10095
税务	-10096
而生	-10097
论据	-10098
读者	-10099
贫富	-10100
透露	-10101
那次	-10102
重于	-10103
高盛	-10104
鹰派	-10105
ath	-10106
lin	-10107
▁la	-10108
▁科学	-10109
为世界	-10110
为首的	-10111
亿人口	-10112
你可以	-10113
假新闻	-10114
催化剂	-10115
儿麻痹	-10116
印度洋	-10117
合作和	-10118
在今天	-10119
地区和	-10120
强制性	-10121
效率的	-10122
施罗德	-10123
暴露了	-10124
的具体	-10125
究竟是	-10126
罗纳德	-10127
老年人	-10128
认为这	-10129
还可能	-10130
▁美国在	-10131
也不例外	-10132
人口增长	-10133
什么时候	-10134
伊拉克人	-10135
军备竞赛	-10136
因为我们	-10137
国际刑事	-10138
在这样的	-10139
孤立主义	-10140
实质性的	-10141
已经证明	-10142
所引发的	-10143
执政期间	-10144
援助计划	-10145
摆脱贫困	-10146
更有效地	-10147
欧元债券	-10148
相互依存	-10149
科学家们	-10150
纽约时报	-10151
这种做法	-10152
这种方法	-10153
阿富汗和	-10154
▁几十年来	-10155
经济增长和	-10156
麦肯锡全球	-10157
讽刺意味的是	-10158
International	-10159
BR	-10160
▁好	-10161
不成	-10162
不通	-10163
东海	-10164
买家	-10165
伦齐	-10166
公园	-10167
出身	-10168
善意	-10169
回了	-10170
基点	-10171
处境	-10172
大获	-10173
太空	-10174
失踪	-10175
好转	-10176
学派	-10177
将有	-10178
并使	-10179
挤出	-10180
无异	-10181
本书	-10182
海峡	-10183
添加	-10184
热门	-10185
简化	-10186
营销	-10187
蒙蒂	-10188
螺旋	-10189
议案	-10190
赫特	-10191
走了	-10192
近来	-10193
迷于	-10194
重现	-10195
高兴	-10196
鼓动	-10197
3.5	-10198
75%	-10199
ark	-10200
▁但其	-10201
▁国会	-10202
▁拥有	-10203
▁有关	-10204
不同意	-10205
严厉的	-10206
为导向	-10207
以一种	-10208
保护和	-10209
出一个	-10210
否决权	-10211
呈现出	-10212
寄希望	-10213
就业率	-10214
开启了	-10215
恢复了	-10216
抑郁症	-10217
支持了	-10218
是他们	-10219
游击队	-10220
的改变	-10221
的群体	-10222
管理层	-10223
能力和	-10224
蔓延到	-10225
蛋白质	-10226
通胀的	-10227
▁这正是	-10228
▁阿拉伯	-10229
不良贷款	-10230
与中国的	-10231
做出贡献	-10232
出口导向	-10233
及其盟友	-10234
国际组织	-10235
在乌克兰	-10236
多个国家	-10237
家庭收入	-10238
容易受到	-10239
怀疑态度	-10240
无家可归	-10241
犹太人的	-10242
经验表明	-10243
美国应该	-10244
职业生涯	-10245
金融企业	-10246
领导人在	-10247
▁这个问题	-10248
大部分国家	-10249
已经过去了	-10250
方面取得了	-10251
的经济和政治	-10252
KP	-10253
▁y	-10254
▁̧	-10255
▁先	-10256
▁时	-10257
一批	-10258
之门	-10259
仅占	-10260
低廉	-10261
军人	-10262
凌驾	-10263
前例	-10264
前夕	-10265
剧变	-10266
可怜	-10267
商店	-10268
四处	-10269
大声	-10270
少年	-10271
延缓	-10272
德黑	-10273
战线	-10274
打消	-10275
打着	-10276
改良	-10277
晓夫	-10278
替换	-10279
权势	-10280
格林	-10281
泄露	-10282
罗塞	-10283
而未	-10284
肆意	-10285
船只	-10286
要走	-10287
起初	-10288
钞票	-10289
阈值	-10290
隐瞒	-10291
鸦片	-10292
HIV	-10293
uel	-10294
举行了	-10295
作为其	-10296
兰克林	-10297
加强了	-10298
发表的	-10299
发言权	-10300
宣布了	-10301
崛起的	-10302
年来的	-10303
技能和	-10304
推出了	-10305
新常态	-10306
无前例	-10307
是基于	-10308
更强的	-10309
有任何	-10310
核设施	-10311
的举动	-10312
的关税	-10313
的年轻	-10314
的腐败	-10315
的话题	-10316
相矛盾	-10317
着一个	-10318
签署的	-10319
超越了	-10320
非国家	-10321
预见到	-10322
食品和	-10323
rans	-10324
▁但是在	-10325
▁其中的	-10326
▁说到底	-10327
令人难以	-10328
医疗卫生	-10329
卡斯特罗	-10330
可以作为	-10331
可以利用	-10332
国内消费	-10333
完全没有	-10334
宪法法院	-10335
很长时间	-10336
提供一个	-10337
日本银行	-10338
智能手机	-10339
移民问题	-10340
造成严重	-10341
遗憾的是	-10342
齐心协力	-10343
inanc	-10344
▁这一方针	-10345
主要经济体	-10346
机构投资者	-10347
的民族主义	-10348
的财政政策	-10349
uk	-10350
与他	-10351
主任	-10352
亲眼	-10353
仇外	-10354
公认	-10355
半叶	-10356
卡尼	-10357
参考	-10358
又在	-10359
多米	-10360
夫妇	-10361
好比	-10362
带头	-10363
年会	-10364
归结	-10365
微小	-10366
惨重	-10367
折扣	-10368
新政	-10369
新药	-10370
明天	-10371
更像	-10372
注资	-10373
消退	-10374
潜能	-10375
用作	-10376
男孩	-10377
的书	-10378
穆勒	-10379
筛查	-10380
网上	-10381
胚胎	-10382
良性	-10383
荣誉	-10384
虔诚	-10385
被控	-10386
规律	-10387
论断	-10388
跟进	-10389
连锁	-10390
高官	-10391
And	-10392
age	-10393
one	-10394
▁无法	-10395
▁能够	-10396
与其说	-10397
中国将	-10398
五年中	-10399
使用了	-10400
制度和	-10401
告诉我	-10402
国有化	-10403
国防部	-10404
天安门	-10405
将受到	-10406
应该将	-10407
德黑兰	-10408
必须将	-10409
我们要	-10410
提供者	-10411
摄氏度	-10412
是一次	-10413
有一点	-10414
某些人	-10415
犯下的	-10416
的大学	-10417
的报道	-10418
的攻击	-10419
而感到	-10420
而欧洲	-10421
试图将	-10422
这可能	-10423
ital	-10424
▁看起来	-10425
也越来越	-10426
令人鼓舞	-10427
保加利亚	-10428
关于如何	-10429
史无前例	-10430
多边机构	-10431
每个国家	-10432
独裁政权	-10433
现在正在	-10434
电动汽车	-10435
纳税人的	-10436
蓬勃发展	-10437
贸易顺差	-10438
赫鲁晓夫	-10439
陷入困境	-10440
齐普拉斯	-10441
▁Cent	-10442
▁迄今为止	-10443
主要是因为	-10444
以色列总理	-10445
会发生什么	-10446
的经济危机	-10447
预算办公室	-10448
不惜一切代价	-10449
▁从这个角度讲	-10450
▁Institute	-10451
EM	-10452
▁–	-10453
一笔	-10454
二次	-10455
亚当	-10456
产妇	-10457
侮辱	-10458
关乎	-10459
军费	-10460
几千	-10461
分娩	-10462
到处	-10463
区间	-10464
发酵	-10465
口气	-10466
名声	-10467
回来	-10468
复燃	-10469
就得	-10470
影片	-10471
快于	-10472
总数	-10473
感受	-10474
振兴	-10475
摇摇	-10476
最优	-10477
期货	-10478
极化	-10479
欠缺	-10480
滋生	-10481
特质	-10482
纯属	-10483
耗资	-10484
自称	-10485
节能	-10486
里约	-10487
闹剧	-10488
附带	-10489
预想	-10490
频率	-10491
umm	-10492
▁到了	-10493
▁财政	-10494
▁货币	-10495
下降至	-10496
以失败	-10497
众多的	-10498
低下的	-10499
保护的	-10500
凸显了	-10501
很显然	-10502
思想家	-10503
性问题	-10504
支持下	-10505
数十万	-10506
数据库	-10507
日本在	-10508
明确地	-10509
正面临	-10510
法律的	-10511
的人士	-10512
的疾病	-10513
的真实	-10514
的空间	-10515
的网络	-10516
的美元	-10517
的革命	-10518
的领土	-10519
罗姆人	-10520
观点的	-10521
计划在	-10522
辩论中	-10523
过程的	-10524
▁而那些	-10525
▁近年来	-10526
▁默克尔	-10527
共同货币	-10528
叙利亚和	-10529
如果他们	-10530
如果美国	-10531
寄希望于	-10532
将是一个	-10533
应该采取	-10534
想象一下	-10535
晚些时候	-10536
注意的是	-10537
这一挑战	-10538
这种状况	-10539
降低利率	-10540
领导下的	-10541
,2012	-10542
meric	-10543
▁中国政府	-10544
▁讽刺的是	-10545
充分的理由	-10546
的必要条件	-10547
经济和金融	-10548
这样的结果	-10549
越来越多的人	-10550
意大利和西班牙	-10551
叙利亚总统巴沙尔	-10552
FS	-10553
▁梅	-10554
中全	-10555
乌托	-10556
他也	-10557
倘若	-10558
克什	-10559
力地	-10560
区块	-10561
古典	-10562
含糊	-10563
处决	-10564
大楼	-10565
威廉	-10566
巴巴	-10567
总和	-10568
托克	-10569
抉择	-10570
据称	-10571
斯克	-10572
斯堪	-10573
方位	-10574
旧的	-10575
更糟	-10576
更难	-10577
曾说	-10578
替罪	-10579
朔伊	-10580
枪支	-10581
格利	-10582
欢呼	-10583
欲坠	-10584
礼物	-10585
篮子	-10586
而有	-10587
自满	-10588
行径	-10589
谬误	-10590
赌博	-10591
还未	-10592
逃税	-10593
骗局	-10594
1/3	-10595
ast	-10596
▁ac	-10597
▁不难	-10598
▁更为	-10599
不亚于	-10600
中国海	-10601
也应当	-10602
亚投行	-10603
但现在	-10604
先进的	-10605
公司在	-10606
发布了	-10607
可信的	-10608
和货币	-10609
失败了	-10610
实行的	-10611
将产生	-10612
将他们	-10613
屈服于	-10614
总体上	-10615
新西兰	-10616
核裁军	-10617
此前的	-10618
永远是	-10619
的人物	-10620
的名字	-10621
的政权	-10622
的潜力	-10623
的身份	-10624
的高度	-10625
研究和	-10626
而是在	-10627
让经济	-10628
让自己	-10629
达尔富	-10630
都存在	-10631
采用了	-10632
钦斯基	-10633
领导下	-10634
饮用水	-10635
马歇尔	-10636
1914	-10637
1981	-10638
▁但这个	-10639
以及美国	-10640
克什米尔	-10641
公共资金	-10642
可以实现	-10643
宗教信仰	-10644
对中国的	-10645
工作时间	-10646
我们无法	-10647
提供帮助	-10648
摇摇欲坠	-10649
数据表明	-10650
更加复杂	-10651
更多的钱	-10652
朔伊布勒	-10653
每个人都	-10654
相去甚远	-10655
经济状况	-10656
裔美国人	-10657
进口商品	-10658
退休基金	-10659
▁2004	-10660
▁我们知道	-10661
的增长模式	-10662
Thomas	-10663
Michael	-10664
aj	-10665
yn	-10666
▁布	-10667
▁能	-10668
不为	-10669
不无	-10670
不计	-10671
也正	-10672
保住	-10673
克莱	-10674
公立	-10675
列宁	-10676
加重	-10677
区区	-10678
合格	-10679
和无	-10680
和阿	-10681
回升	-10682
因其	-10683
国土	-10684
基辅	-10685
复仇	-10686
对准	-10687
市值	-10688
当权	-10689
悠久	-10690
日报	-10691
曲线	-10692
盯住	-10693
祸首	-10694
花旗	-10695
贫民	-10696
赶上	-10697
靠近	-10698
默许	-10699
ans	-10700
eas	-10701
ign	-10702
▁利用	-10703
▁大量	-10704
▁本月	-10705
一揽子	-10706
下跌了	-10707
丧失了	-10708
中得到	-10709
乌托邦	-10710
了一套	-10711
他认为	-10712
军队的	-10713
卡尔德	-10714
发展出	-10715
各自的	-10716
因素的	-10717
实际的	-10718
将会在	-10719
明智地	-10720
更快地	-10721
最贫穷	-10722
来帮助	-10723
来维持	-10724
格拉斯	-10725
的成员	-10726
的消息	-10727
的许多	-10728
确定的	-10729
碳定价	-10730
而不会	-10731
西方人	-10732
认为的	-10733
还存在	-10734
遭受了	-10735
附加值	-10736
▁不久前	-10737
▁凯恩斯	-10738
▁纽黑文	-10739
市场份额	-10740
承担责任	-10741
排除在外	-10742
政治动荡	-10743
武装分子	-10744
法兰克福	-10745
特里赫特	-10746
能源安全	-10747
资本要求	-10748
这一点上	-10749
这一进程	-10750
通胀预期	-10751
▁特别是在	-10752
几乎肯定会	-10753
劳动密集型	-10754
形成了鲜明	-10755
指出的那样	-10756
世界卫生组织	-10757
马斯特里赫特	-10758
67	-10759
AM	-10760
au	-10761
▁8	-10762
不快	-10763
不禁	-10764
不见	-10765
也从	-10766
修补	-10767
全职	-10768
共鸣	-10769
则会	-10770
变动	-10771
另类	-10772
听众	-10773
唯有	-10774
土著	-10775
基尼	-10776
夺取	-10777
并被	-10778
抵挡	-10779
明了	-10780
格雷	-10781
沙文	-10782
球员	-10783
禁忌	-10784
脚步	-10785
自卫	-10786
薪水	-10787
观看	-10788
转化	-10789
重获	-10790
随意	-10791
麻省	-10792
cil	-10793
ice	-10794
rin	-10795
▁唯一	-10796
▁在其	-10797
▁超过	-10798
一个新	-10799
一国的	-10800
与合作	-10801
以支持	-10802
凌驾于	-10803
另一位	-10804
埃及和	-10805
基辛格	-10806
增强了	-10807
央行的	-10808
对所有	-10809
小企业	-10810
层面的	-10811
希望在	-10812
心脏病	-10813
所取代	-10814
掩盖了	-10815
替罪羊	-10816
最初的	-10817
法律与	-10818
深远的	-10819
的中心	-10820
的全部	-10821
的孩子	-10822
的日子	-10823
科学的	-10824
第一大	-10825
缺陷的	-10826
聚焦于	-10827
该如何	-10828
该机构	-10829
谈判桌	-10830
财富和	-10831
轻易地	-10832
都是在	-10833
▁黎巴嫩	-10834
事实证明	-10835
公私合作	-10836
关键问题	-10837
几个月中	-10838
北爱尔兰	-10839
多样化的	-10840
存款保险	-10841
富兰克林	-10842
小儿麻痹	-10843
引人注目	-10844
改革计划	-10845
的前提下	-10846
的成员国	-10847
的时候了	-10848
联邦储备	-10849
还有可能	-10850
重新分配	-10851
野生动物	-10852
阿卜杜拉	-10853
高速公路	-10854
▁全球经济	-10855
世界经济的	-10856
世界银行的	-10857
之间的差距	-10858
已经发生了	-10859
许多国家的	-10860
高收入国家	-10861
是显而易见的	-10862
跨太平洋伙伴关系	-10863
,9	-10864
▁又	-10865
一日	-10866
万名	-10867
为负	-10868
也曾	-10869
也都	-10870
他说	-10871
侨民	-10872
冰岛	-10873
出租	-10874
初选	-10875
博士	-10876
又会	-10877
只在	-10878
在我	-10879
奥塞	-10880
审议	-10881
度和	-10882
忌惮	-10883
恶意	-10884
或少	-10885
战役	-10886
次贷	-10887
毁掉	-10888
海域	-10889
登记	-10890
腐蚀	-10891
节节	-10892
营利	-10893
要高	-10894
许诺	-10895
走势	-10896
输入	-10897
都市	-10898
里克	-10899
面目	-10900
高中	-10901
350	-10902
fer	-10903
lex	-10904
ons	-10905
▁反对	-10906
▁成功	-10907
不可及	-10908
也不太	-10909
也并非	-10910
事件中	-10911
但如今	-10912
但是在	-10913
促进了	-10914
公正的	-10915
在他的	-10916
多大的	-10917
大体上	-10918
如今的	-10919
并要求	-10920
很高的	-10921
性行为	-10922
抛弃了	-10923
改革派	-10924
欧盟在	-10925
的一面	-10926
的名义	-10927
的基因	-10928
的复苏	-10929
的大国	-10930
的灾难	-10931
的破坏	-10932
监管的	-10933
目的地	-10934
融资的	-10935
解释是	-10936
道理的	-10937
▁同样地	-10938
▁该地区	-10939
▁这可能	-10940
不稳定的	-10941
五星运动	-10942
加密货币	-10943
十分困难	-10944
可以肯定	-10945
可能不会	-10946
团结起来	-10947
固定汇率	-10948
大部分人	-10949
实际上是	-10950
居高不下	-10951
已经不再	-10952
效率低下	-10953
斯洛伐克	-10954
欧洲各国	-10955
民主联盟	-10956
气候政策	-10957
白俄罗斯	-10958
相互依赖	-10959
税收制度	-10960
结合起来	-10961
罪魁祸首	-10962
美元升值	-10963
进口关税	-10964
远远超过	-10965
重点放在	-10966
长久以来	-10967
,2010	-10968
tions	-10969
▁发达国家	-10970
传染性疾病	-10971
劳动力成本	-10972
总统奥巴马	-10973
清楚地表明	-10974
▁特朗普政府	-10975
世界其他地方	-10976
联邦基金利率	-10977
42	-10978
一周	-10979
一块	-10980
业绩	-10981
会比	-10982
信托	-10983
党员	-10984
划分	-10985
利昂	-10986
卢比	-10987
原有	-10988
变量	-10989
同期	-10990
名词	-10991
吞噬	-10992
和在	-10993
四分	-10994
回收	-10995
地亚	-10996
壮大	-10997
处置	-10998
复国	-10999
大谈	-11000
女人	-11001
审计	-11002
小额	-11003
局长	-11004
怨恨	-11005
挖掘	-11006
捕捉	-11007
撤退	-11008
教义	-11009
新任	-11010
昔日	-11011
显露	-11012
术语	-11013
比起	-11014
火车	-11015
灵魂	-11016
祖先	-11017
突变	-11018
而来	-11019
耶夫	-11020
艾伦	-11021
蚊子	-11022
街道	-11023
表决	-11024
要做	-11025
觉醒	-11026
设在	-11027
起源	-11028
路易	-11029
迟迟	-11030
迷你	-11031
迷失	-11032
避开	-11033
除外	-11034
霸主	-11035
1.3	-11036
FDI	-11037
ley	-11038
▁债务	-11039
▁技术	-11040
▁这位	-11041
不要说	-11042
与日本	-11043
两年的	-11044
中之重	-11045
为欧洲	-11046
伙伴国	-11047
作用的	-11048
保持了	-11049
再融资	-11050
减少对	-11051
出口的	-11052
加拉瓜	-11053
和控制	-11054
和治疗	-11055
和银行	-11056
大城市	-11057
媒体和	-11058
对政府	-11059
对这种	-11060
想起了	-11061
所产生	-11062
新总统	-11063
既没有	-11064
柏林墙	-11065
正在向	-11066
的一点	-11067
的不是	-11068
的宗教	-11069
的工资	-11070
的最初	-11071
罗塞夫	-11072
而导致	-11073
而无法	-11074
而易举	-11075
被要求	-11076
让所有	-11077
问题时	-11078
ound	-11079
▁克林顿	-11080
不必要的	-11081
中国已经	-11082
亿万富翁	-11083
全球治理	-11084
决策者的	-11085
减少贫困	-11086
压力测试	-11087
可能无法	-11088
实际情况	-11089
尼加拉瓜	-11090
我们不能	-11091
报告显示	-11092
现实主义	-11093
的环境中	-11094
研究成果	-11095
竞争优势	-11096
经济上的	-11097
解决之道	-11098
认为自己	-11099
轻而易举	-11100
这一决定	-11101
针锋相对	-11102
▁这些措施	-11103
从一开始就	-11104
美国国务卿	-11105
臭名昭著的	-11106
▁中国领导人	-11107
世界上最大的	-11108
欧洲央行行长	-11109
▁可以肯定的是	-11110
第一次世界大战	-11111
CS	-11112
▁且	-11113
▁会	-11114
▁哈	-11115
▁试	-11116
不被	-11117
乘数	-11118
伊尔	-11119
入狱	-11120
关切	-11121
兴亚	-11122
出路	-11123
列强	-11124
南极	-11125
南美	-11126
嘲笑	-11127
坏事	-11128
天堂	-11129
平方	-11130
年所	-11131
年被	-11132
接替	-11133
无常	-11134
权宜	-11135
森堡	-11136
油气	-11137
男人	-11138
的钱	-11139
筹资	-11140
红线	-11141
萨拉	-11142
被动	-11143
警示	-11144
话语	-11145
课税	-11146
象棋	-11147
赔偿	-11148
连通	-11149
部件	-11150
阳光	-11151
陌生	-11152
ace	-11153
ish	-11154
ong	-11155
▁南非	-11156
不相信	-11157
也只能	-11158
乳腺癌	-11159
但是它	-11160
低工资	-11161
全方位	-11162
发现的	-11163
只是在	-11164
和国内	-11165
和移民	-11166
和西方	-11167
威尔逊	-11168
将需要	-11169
年实现	-11170
开放的	-11171
所创造	-11172
手旁观	-11173
批准了	-11174
持不同	-11175
指挥官	-11176
效率和	-11177
月以来	-11178
有超过	-11179
条约的	-11180
来形容	-11181
标志性	-11182
激起了	-11183
现在就	-11184
的两个	-11185
的逻辑	-11186
的那些	-11187
看作是	-11188
知识的	-11189
硬实力	-11190
罗兴亚	-11191
罗格夫	-11192
而且在	-11193
至少有	-11194
转向了	-11195
马德里	-11196
马拉雅	-11197
itic	-11198
▁GDP	-11199
▁但正如	-11200
也意味着	-11201
他们已经	-11202
军事政变	-11203
只有通过	-11204
和其他人	-11205
商业周期	-11206
德国政府	-11207
必不可少	-11208
情报机构	-11209
更加严重	-11210
紧张关系	-11211
美元汇率	-11212
而是因为	-11213
萎靡不振	-11214
erman	-11215
▁Summ	-11216
中东地区的	-11217
原子能机构	-11218
和其他地区	-11219
成百上千万	-11220
的政治制度	-11221
的政策制定	-11222
的民粹主义	-11223
越来越大的	-11224
政策制定者们	-11225
2°	-11226
85	-11227
IA	-11228
下调	-11229
世人	-11230
临界	-11231
为他	-11232
乎其	-11233
体重	-11234
制于	-11235
加斯	-11236
吸纳	-11237
宁愿	-11238
对该	-11239
屈从	-11240
巴罗	-11241
带给	-11242
年就	-11243
强权	-11244
得不	-11245
恰好	-11246
悲哀	-11247
惯例	-11248
托斯	-11249
无序	-11250
既不	-11251
日俱	-11252
每月	-11253
泄漏	-11254
炮制	-11255
特使	-11256
特性	-11257
登上	-11258
监视	-11259
知情	-11260
突发	-11261
肮脏	-11262
虚弱	-11263
裂痕	-11264
贯彻	-11265
这套	-11266
革新	-11267
180	-11268
ina	-11269
ink	-11270
▁不出	-11271
▁两个	-11272
▁个人	-11273
▁她们	-11274
一代人	-11275
不仅要	-11276
不会在	-11277
两年前	-11278
为中心	-11279
也因为	-11280
也有所	-11281
人们在	-11282
仍处于	-11283
例子是	-11284
共同点	-11285
关注点	-11286
区块链	-11287
却依然	-11288
发生时	-11289
可以是	-11290
在很多	-11291
安全感	-11292
平等的	-11293
年危机	-11294
悬而未	-11295
把这些	-11296
投票率	-11297
措施来	-11298
支持和	-11299
无助于	-11300
无疑是	-11301
有多大	-11302
来推动	-11303
波动性	-11304
的情绪	-11305
的最好	-11306
的结构	-11307
的贡献	-11308
结论是	-11309
规模和	-11310
计划和	-11311
还远未	-11312
进行过	-11313
通过的	-11314
铀浓缩	-11315
高加索	-11316
▁Cor	-11317
▁即便是	-11318
▁在全球	-11319
两极分化	-11320
历史性的	-11321
可以用来	-11322
可能会在	-11323
四分之三	-11324
年轻人的	-11325
意大利人	-11326
所指出的	-11327
最大限度	-11328
永远无法	-11329
经济利益	-11330
能够通过	-11331
解释为何	-11332
这一现象	-11333
麻省理工	-11334
,2011	-11335
—2008	-11336
▁其中包括	-11337
▁在此期间	-11338
中国经济的	-11339
中央情报局	-11340
几乎不可能	-11341
远远超过了	-11342
亚洲金融危机	-11343
所指出的那样	-11344
▁Health	-11345
欧盟委员会主席	-11346
95	-11347
eg	-11348
▁安	-11349
▁科	-11350
中日	-11351
之计	-11352
五裂	-11353
令其	-11354
共担	-11355
养活	-11356
凯蒂	-11357
回国	-11358
存储	-11359
实时	-11360
应急	-11361
当成	-11362
忠实	-11363
手笔	-11364
提倡	-11365
政见	-11366
救命	-11367
更别	-11368
更迭	-11369
服用	-11370
李克	-11371
核子	-11372
演员	-11373
独自	-11374
笔者	-11375
粒子	-11376
红色	-11377
维基	-11378
脱贫	-11379
落到	-11380
要将	-11381
视野	-11382
讨厌	-11383
评判	-11384
转为	-11385
邮报	-11386
默认	-11387
AKP	-11388
amm	-11389
ick	-11390
ste	-11391
▁与其	-11392
▁人口	-11393
▁公共	-11394
▁整个	-11395
▁有了	-11396
▁能源	-11397
▁要求	-11398
不对称	-11399
中左翼	-11400
也知道	-11401
了一位	-11402
享受到	-11403
他们都	-11404
其政治	-11405
占多数	-11406
变革的	-11407
和暴力	-11408
大数据	-11409
失业和	-11410
奠定了	-11411
已经将	-11412
心理学	-11413
战略性	-11414
手段来	-11415
才开始	-11416
扮演着	-11417
抑制了	-11418
提供商	-11419
无法再	-11420
有组织	-11421
来决定	-11422
核扩散	-11423
比以前	-11424
的交易	-11425
的外国	-11426
的成就	-11427
的打击	-11428
的活动	-11429
的袭击	-11430
的预算	-11431
紧迫性	-11432
计划中	-11433
试图在	-11434
非洲人	-11435
ersh	-11436
▁Act	-11437
▁另一种	-11438
▁当前的	-11439
▁慕尼黑	-11440
▁欧洲人	-11441
▁阿富汗	-11442
一个事实	-11443
严重依赖	-11444
临床试验	-11445
也出现了	-11446
人们认为	-11447
克罗地亚	-11448
出口市场	-11449
刚刚开始	-11450
南中国海	-11451
发生改变	-11452
喜马拉雅	-11453
四分五裂	-11454
国内经济	-11455
大不相同	-11456
对于那些	-11457
平均而言	-11458
并不足以	-11459
形成一致	-11460
悬而未决	-11461
我们这个	-11462
或多或少	-11463
收入差距	-11464
改革方案	-11465
最高领袖	-11466
毋庸置疑	-11467
没有那么	-11468
的国家的	-11469
的最重要	-11470
社会民主	-11471
粮食安全	-11472
获得成功	-11473
认识到了	-11474
贫困国家	-11475
重新考虑	-11476
叙利亚难民	-11477
政治和社会	-11478
是不可能的	-11479
某种意义上	-11480
这个国家的	-11481
ouncil	-11482
▁内塔尼亚胡	-11483
▁从某种程度上	-11484
49	-11485
Ar	-11486
Un	-11487
ax	-11488
ya	-11489
不让	-11490
两家	-11491
之战	-11492
人性	-11493
仿效	-11494
位列	-11495
体化	-11496
十足	-11497
博物	-11498
向下	-11499
在家	-11500
尔班	-11501
布托	-11502
年长	-11503
并由	-11504
异议	-11505
弊端	-11506
想让	-11507
所要	-11508
拥挤	-11509
推断	-11510
数年	-11511
更小	-11512
更长	-11513
极高	-11514
校园	-11515
死灰	-11516
比索	-11517
灵丹	-11518
瓦哈	-11519
的多	-11520
缺点	-11521
良多	-11522
茶党	-11523
菲利	-11524
视作	-11525
较大	-11526
这会	-11527
重商	-11528
重心	-11529
陆军	-11530
顾客	-11531
130	-11532
olf	-11533
▁11	-11534
▁它还	-11535
▁想想	-11536
▁数字	-11537
▁曾经	-11538
▁研究	-11539
▁要么	-11540
丝毫不	-11541
中东欧	-11542
乎其微	-11543
也不愿	-11544
了道路	-11545
亚历山	-11546
信用卡	-11547
南苏丹	-11548
发言人	-11549
可能将	-11550
和工作	-11551
国政府	-11552
完没了	-11553
届政府	-11554
工作和	-11555
常常被	-11556
应该对	-11557
总统和	-11558
我们会	-11559
我们有	-11560
或者说	-11561
掌握了	-11562
无条件	-11563
日俱增	-11564
服务和	-11565
束手无	-11566
根本就	-11567
每年的	-11568
济于事	-11569
现在是	-11570
的举措	-11571
的民族	-11572
的结束	-11573
相关性	-11574
结束的	-11575
这两大	-11576
适当的	-11577
采取更	-11578
首先是	-11579
▁真正的	-11580
不断扩大	-11581
他们就会	-11582
八国集团	-11583
几个世纪	-11584
北欧国家	-11585
医疗体系	-11586
实力平衡	-11587
实际利率	-11588
已经有了	-11589
并不总是	-11590
应该通过	-11591
形成一个	-11592
影子银行	-11593
征收关税	-11594
微乎其微	-11595
成百上千	-11596
成立一个	-11597
死灰复燃	-11598
能够提供	-11599
认为美国	-11600
贸易盈余	-11601
这种观点	-11602
金融动荡	-11603
随处可见	-11604
ivers	-11605
之间的冲突	-11606
印度和中国	-11607
工业化国家	-11608
的巴勒斯坦	-11609
购买力平价	-11610
令人印象深刻	-11611
作为一个整体	-11612
解释了为什么	-11613
跨大西洋贸易和投资	-11614
57	-11615
62	-11616
US	-11617
一只	-11618
不懈	-11619
不抵	-11620
乱象	-11621
亚哥	-11622
优化	-11623
佩斯	-11624
假装	-11625
养殖	-11626
冒犯	-11627
向其	-11628
宣战	-11629
就任	-11630
布斯	-11631
平常	-11632
平庸	-11633
年对	-11634
度过	-11635
快乐	-11636
把钱	-11637
拥抱	-11638
拿到	-11639
是它	-11640
最早	-11641
权重	-11642
核查	-11643
牢记	-11644
猩猩	-11645
王储	-11646
看见	-11647
矛头	-11648
突显	-11649
算盘	-11650
类别	-11651
结算	-11652
置信	-11653
脱节	-11654
警报	-11655
赚钱	-11656
赞赏	-11657
走到	-11658
蹂躏	-11659
轻微	-11660
辅助	-11661
输送	-11662
远超	-11663
部族	-11664
领地	-11665
鱼类	-11666
▁后来	-11667
▁就算	-11668
▁瑞典	-11669
▁预计	-11670
三个月	-11671
与政府	-11672
中指出	-11673
乌拉圭	-11674
产出的	-11675
从而为	-11676
代表团	-11677
但仍然	-11678
到美国	-11679
卢森堡	-11680
危机和	-11681
后不久	-11682
在一些	-11683
大企业	-11684
孩子的	-11685
实践中	-11686
应用于	-11687
必须为	-11688
怎么办	-11689
拉加德	-11690
时间和	-11691
暴露出	-11692
有多么	-11693
有更多	-11694
核武库	-11695
欧尔班	-11696
欧洲在	-11697
百万人	-11698
的假设	-11699
的口号	-11700
的媒体	-11701
的积极	-11702
的范围	-11703
科尔宾	-11704
管理和	-11705
美好的	-11706
而那些	-11707
自上而	-11708
要求在	-11709
路要走	-11710
进口品	-11711
钓鱼岛	-11712
额外的	-11713
view	-11714
▁pol	-11715
▁再加上	-11716
▁在一些	-11717
一个更加	-11718
主义者的	-11719
主要来自	-11720
几乎完全	-11721
包括美国	-11722
危机期间	-11723
历史上看	-11724
它们可以	-11725
导弹防御	-11726
希望看到	-11727
提供融资	-11728
无法通过	-11729
的劳动力	-11730
的继任者	-11731
社会契约	-11732
移动电话	-11733
统计数字	-11734
美元计价	-11735
能够带来	-11736
进行合作	-11737
重要角色	-11738
▁举例来讲	-11739
以失败告终	-11740
华盛顿特区	-11741
大部分地区	-11742
的生活水平	-11743
规模最大的	-11744
伊斯兰主义者	-11745
量化宽松政策	-11746
基础设施投资银行	-11747
BM	-11748
▁按	-11749
▁还	-11750
三十	-11751
二世	-11752
们的	-11753
但从	-11754
低位	-11755
作俑	-11756
倾销	-11757
入主	-11758
全胜	-11759
写照	-11760
冠军	-11761
力更	-11762
力求	-11763
另有	-11764
因果	-11765
地向	-11766
坦克	-11767
处方	-11768
大坝	-11769
头寸	-11770
好了	-11771
子里	-11772
安装	-11773
实例	-11774
广受	-11775
总能	-11776
我和	-11777
承包	-11778
投向	-11779
推测	-11780
推销	-11781
日后	-11782
是他	-11783
枪击	-11784
气氛	-11785
流出	-11786
激活	-11787
甚于	-11788
磋商	-11789
种类	-11790
筹码	-11791
而他	-11792
肿瘤	-11793
能将	-11794
薄熙	-11795
要对	-11796
资深	-11797
违法	-11798
1.2	-11799
1.4	-11800
AfD	-11801
ier	-11802
▁石油	-11803
▁这份	-11804
一年的	-11805
他自己	-11806
以保护	-11807
以及与	-11808
但中国	-11809
低增长	-11810
做好了	-11811
儿童的	-11812
农业和	-11813
包括对	-11814
印度教	-11815
反移民	-11816
和韩国	-11817
在当前	-11818
始作俑	-11819
将超过	-11820
很清楚	-11821
所采取	-11822
把他们	-11823
捍卫者	-11824
据估计	-11825
描述了	-11826
政府与	-11827
是确保	-11828
本可以	-11829
本身的	-11830
来衡量	-11831
格利茨	-11832
的最终	-11833
的汇率	-11834
的消费	-11835
的转型	-11836
的进程	-11837
皮凯蒂	-11838
管齐下	-11839
经验的	-11840
结果的	-11841
近一半	-11842
这一幕	-11843
需要对	-11844
edic	-11845
eter	-11846
▁对美国	-11847
▁这些人	-11848
▁这使得	-11849
保持沉默	-11850
圣地亚哥	-11851
塞拉利昂	-11852
外围国家	-11853
大大增加	-11854
天主教徒	-11855
宏观审慎	-11856
希腊债务	-11857
得出结论	-11858
德克萨斯	-11859
提供支持	-11860
数以百万	-11861
新闻自由	-11862
无所作为	-11863
更加糟糕	-11864
本国货币	-11865
短期利率	-11866
科学研究	-11867
艾哈迈迪	-11868
袖手旁观	-11869
认为这是	-11870
过度依赖	-11871
金融资产	-11872
▁但是如果	-11873
▁布什政府	-11874
▁显而易见	-11875
▁这种情况	-11876
伊朗核计划	-11877
和其他地方	-11878
建立了一个	-11879
根本不可能	-11880
的研究表明	-11881
自由贸易区	-11882
ership	-11883
limate	-11884
太大而不能倒	-11885
的经济和社会	-11886
经合组织国家	-11887
经常账户赤字	-11888
解决这一问题	-11889
布雷顿森林体系	-11890
▁但这并不意味着	-11891
▁g	-11892
不入	-11893
东扩	-11894
互惠	-11895
仿佛	-11896
但不	-11897
免税	-11898
公职	-11899
几率	-11900
制品	-11901
加紧	-11902
勘探	-11903
协同	-11904
原先	-11905
取缔	-11906
名誉	-11907
含有	-11908
和谈	-11909
外人	-11910
多了	-11911
大小	-11912
宏伟	-11913
战火	-11914
托尼	-11915
指南	-11916
撒谎	-11917
放心	-11918
斯密	-11919
明朗	-11920
有待	-11921
法外	-11922
海滩	-11923
濒临	-11924
熟虑	-11925
物品	-11926
直至	-11927
纾困	-11928
线索	-11929
联手	-11930
脸书	-11931
补救	-11932
角落	-11933
诉诸	-11934
辩解	-11935
这段	-11936
陈述	-11937
ade	-11938
arm	-11939
eph	-11940
org	-11941
▁双方	-11942
▁增加	-11943
不关心	-11944
不抵债	-11945
中右翼	-11946
主席国	-11947
五年的	-11948
人权和	-11949
任期内	-11950
作出了	-11951
保守的	-11952
利益和	-11953
博物馆	-11954
发出了	-11955
各自为	-11956
向世界	-11957
对他的	-11958
将通过	-11959
就不能	-11960
所在的	-11961
控制在	-11962
权利和	-11963
沃尔玛	-11964
没有在	-11965
的总体	-11966
的规定	-11967
的高级	-11968
福克斯	-11969
观点是	-11970
调查局	-11971
过多的	-11972
选择是	-11973
都非常	-11974
1971	-11975
illi	-11976
▁世界上	-11977
▁民主党	-11978
▁这是个	-11979
一种新的	-11980
不可逆转	-11981
不难理解	-11982
创造就业	-11983
在欧元区	-11984
就是为了	-11985
已经导致	-11986
并非所有	-11987
收支平衡	-11988
新闻媒体	-11989
最后一个	-11990
极端天气	-11991
的纳维亚	-11992
税收改革	-11993
经济停滞	-11994
脱离欧盟	-11995
范围内的	-11996
资不抵债	-11997
达尔富尔	-11998
这些机构	-11999
采取任何	-12000
▁1989	-12001
▁我们不能	-12002
▁新兴市场	-12003
▁而事实上	-12004
一个国家的	-12005
伊斯兰教徒	-12006
收入和财富	-12007
斯蒂格利茨	-12008
日本和韩国	-12009
欧洲理事会	-12010
生活在一个	-12011
的经济表现	-12012
使用化学武器	-12013
俄罗斯和中国	-12014
巴勒斯坦人的	-12015
货币基金组织	-12016
,6	-12017
lo	-12018
çš	-12019
▁乍	-12020
▁二	-12021
一提	-12022
上诉	-12023
仍能	-12024
作风	-12025
侵入	-12026
停顿	-12027
其与	-12028
卡斯	-12029
受灾	-12030
塞族	-12031
多克	-12032
大事	-12033
天才	-12034
夺回	-12035
将要	-12036
度假	-12037
招聘	-12038
有损	-12039
木材	-12040
每周	-12041
流氓	-12042
牧师	-12043
真心	-12044
眼里	-12045
罢工	-12046
脱钩	-12047
被判	-12048
见解	-12049
警钟	-12050
诚信	-12051
贩毒	-12052
路上	-12053
这在	-12054
这家	-12055
这部	-12056
马哈	-12057
1.6	-12058
170	-12059
itz	-12060
red	-12061
▁在他	-12062
▁这让	-12063
上升的	-12064
下降的	-12065
不可靠	-12066
个基点	-12067
主权的	-12068
也成为	-12069
了一番	-12070
以来最	-12071
会认为	-12072
但只有	-12073
农作物	-12074
削减了	-12075
北部的	-12076
却无法	-12077
受制于	-12078
和东欧	-12079
哈里发	-12080
在国会	-12081
地进行	-12082
对朝鲜	-12083
将获得	-12084
并开始	-12085
应该由	-12086
才能够	-12087
投入了	-12088
控制和	-12089
援助的	-12090
是没有	-12091
显示了	-12092
机会的	-12093
查尔斯	-12094
注定要	-12095
的上升	-12096
的产物	-12097
的方针	-12098
的痛苦	-12099
的知识	-12100
确保了	-12101
繁荣和	-12102
美国所	-12103
老布什	-12104
要实现	-12105
责任的	-12106
较大的	-12107
迈出了	-12108
这对于	-12109
需求和	-12110
Mart	-12111
▁爱尔兰	-12112
▁经济学	-12113
一小部分	-12114
俄罗斯在	-12115
安全部队	-12116
必要条件	-12117
投资项目	-12118
政府正在	-12119
数十年的	-12120
更长时间	-12121
束手无策	-12122
核反应堆	-12123
生物技术	-12124
留在欧盟	-12125
的情况是	-12126
的欧元区	-12127
经济合作	-12128
调查显示	-12129
ocial	-12130
人民币汇率	-12131
亿美元用于	-12132
小儿麻痹症	-12133
的一个关键	-12134
的一小部分	-12135
的国家安全	-12136
的民主国家	-12137
私人投资者	-12138
这一问题的	-12139
欧盟成员资格	-12140
解决这个问题	-12141
金融危机爆发	-12142
58	-12143
GO	-12144
Le	-12145
▁―	-12146
两人	-12147
为一	-12148
之初	-12149
也使	-12150
代际	-12151
信徒	-12152
信条	-12153
元首	-12154
公信	-12155
压缩	-12156
增大	-12157
天真	-12158
契合	-12159
媲美	-12160
嫌疑	-12161
孕育	-12162
帐户	-12163
并向	-12164
忠于	-12165
思议	-12166
抗拒	-12167
抽象	-12168
挤压	-12169
支箭	-12170
时就	-12171
时日	-12172
是说	-12173
是谁	-12174
暴涨	-12175
消亡	-12176
爱沙	-12177
牛肉	-12178
牢牢	-12179
申根	-12180
界的	-12181
科斯	-12182
空洞	-12183
简称	-12184
素质	-12185
美日	-12186
考试	-12187
貌似	-12188
财长	-12189
这三	-12190
迪克	-12191
销毁	-12192
锁定	-12193
隔绝	-12194
韧性	-12195
领衔	-12196
驻扎	-12197
190	-12198
ARC	-12199
oal	-12200
▁不要	-12201
▁之后	-12202
▁后者	-12203
▁增长	-12204
▁女性	-12205
▁总之	-12206
▁改变	-12207
为目的	-12208
习惯于	-12209
事务上	-12210
从而在	-12211
会不会	-12212
十年内	-12213
可预测	-12214
地支持	-12215
威胁着	-12216
家庭和	-12217
对自己	-12218
将中国	-12219
将因此	-12220
巴西的	-12221
希腊人	-12222
德意志	-12223
排除了	-12224
新德里	-12225
是否有	-12226
李克强	-12227
然而然	-12228
留下了	-12229
的一篇	-12230
的全面	-12231
的前任	-12232
的正确	-12233
的立法	-12234
的重点	-12235
目前所	-12236
眼中的	-12237
艺术家	-12238
这不仅	-12239
远大于	-12240
零售商	-12241
面对的	-12242
▁据估计	-12243
▁相当于	-12244
中国正在	-12245
产业政策	-12246
优先事项	-12247
似乎认为	-12248
公司税率	-12249
创造一个	-12250
只有不到	-12251
商界领袖	-12252
国际关系	-12253
大幅降低	-12254
市场准入	-12255
并不需要	-12256
应该得到	-12257
我们如何	-12258
我们希望	-12259
我们应当	-12260
政府机构	-12261
欧盟宪法	-12262
消极影响	-12263
游戏规则	-12264
潜在增长	-12265
爱沙尼亚	-12266
继续保持	-12267
英国选民	-12268
财政联盟	-12269
资产购买	-12270
这一局面	-12271
这一政策	-12272
进行谈判	-12273
重新统一	-12274
金融交易	-12275
陷入停滞	-12276
陷入衰退	-12277
views	-12278
不确定性的	-12279
伊斯兰革命	-12280
寻求庇护者	-12281
所做的那样	-12282
的国家来说	-12283
Joseph	-12284
主权债务危机	-12285
遏制气候变化	-12286
中国国家主席习近平	-12287
▁̄	-12288
不该	-12289
两院	-12290
之又	-12291
之行	-12292
产油	-12293
以其	-12294
分解	-12295
则为	-12296
初创	-12297
匿名	-12298
十倍	-12299
各式	-12300
合乎	-12301
吹嘘	-12302
四国	-12303
多达	-12304
它与	-12305
对应	-12306
带动	-12307
常识	-12308
强度	-12309
怀孕	-12310
怪异	-12311
悄悄	-12312
才华	-12313
撒钱	-12314
收买	-12315
政局	-12316
斯诺	-12317
旷日	-12318
明的	-12319
暗中	-12320
有余	-12321
现存	-12322
立足	-12323
竟然	-12324
米洛	-12325
能从	-12326
自给	-12327
茨基	-12328
见到	-12329
认清	-12330
说出	-12331
追加	-12332
通向	-12333
通知	-12334
避孕	-12335
酒店	-12336
ith	-12337
out	-12338
▁Ar	-12339
▁Th	-12340
▁上周	-12341
▁公众	-12342
▁改善	-12343
两年中	-12344
之前就	-12345
会引发	-12346
但他的	-12347
光是在	-12348
典型的	-12349
出现过	-12350
副主席	-12351
友好的	-12352
只关注	-12353
否决了	-12354
和腐败	-12355
在伊朗	-12356
失业者	-12357
奢侈品	-12358
宣布将	-12359
布拉格	-12360
应该从	-12361
成员的	-12362
我们都	-12363
所导致	-12364
持续了	-12365
持续到	-12366
提到了	-12367
政府都	-12368
普遍的	-12369
暂时的	-12370
更紧密	-12371
月中旬	-12372
框架下	-12373
正常的	-12374
沉迷于	-12375
瓦哈比	-12376
甚至比	-12377
的爆发	-12378
自力更	-12379
被推翻	-12380
贫困的	-12381
身上的	-12382
都表明	-12383
降到了	-12384
驱动力	-12385
100%	-12386
▁他们还	-12387
▁很显然	-12388
令人惊奇	-12389
全民公投	-12390
其它国家	-12391
和特朗普	-12392
多元化的	-12393
对冲基金	-12394
应该如何	-12395
日常生活	-12396
更加重要	-12397
欧洲安全	-12398
没完没了	-12399
海湾国家	-12400
深思熟虑	-12401
物理学家	-12402
的结果是	-12403
紧急状态	-12404
经济转型	-12405
网络空间	-12406
自由化的	-12407
货币刺激	-12408
贸易逆差	-12409
这项任务	-12410
银行贷款	-12411
需要采取	-12412
风险溢价	-12413
ition	-12414
不平等现象	-12415
产品和服务	-12416
加入欧盟的	-12417
在巴基斯坦	-12418
正义与发展	-12419
的政治意愿	-12420
这个问题的	-12421
进一步加剧	-12422
以色列和巴勒斯坦	-12423
2008—2009	-12424
▁Commission	-12425
55	-12426
BS	-12427
CF	-12428
Ph	-12429
ok	-12430
一句	-12431
不休	-12432
乌里	-12433
人文	-12434
但又	-12435
八年	-12436
出不	-12437
出乎	-12438
刻意	-12439
勾结	-12440
卸任	-12441
去核	-12442
反美	-12443
大错	-12444
失效	-12445
套利	-12446
它还	-12447
室内	-12448
小于	-12449
巨资	-12450
年份	-12451
建成	-12452
往常	-12453
憎恨	-12454
提起	-12455
放射	-12456
新近	-12457
日期	-12458
样子	-12459
样本	-12460
每桶	-12461
比作	-12462
清真	-12463
班加	-12464
神社	-12465
窃取	-12466
罗毕	-12467
虚伪	-12468
表述	-12469
裁量	-12470
裙带	-12471
说得	-12472
足联	-12473
选手	-12474
逍遥	-12475
驻军	-12476
35%	-12477
ild	-12478
▁二战	-12479
▁外国	-12480
▁希望	-12481
▁据说	-12482
▁本周	-12483
▁牛津	-12484
与印度	-12485
临时性	-12486
也只是	-12487
产量的	-12488
以适应	-12489
会如何	-12490
占世界	-12491
只能让	-12492
可用于	-12493
听上去	-12494
和平奖	-12495
对日本	-12496
工人和	-12497
廉价的	-12498
所提出	-12499
扮演了	-12500
揭示了	-12501
支出和	-12502
无异于	-12503
没有被	-12504
波兰和	-12505
泰米尔	-12506
消费品	-12507
清真寺	-12508
灾难的	-12509
的借口	-12510
的意义	-12511
的愤怒	-12512
的文章	-12513
的来说	-12514
而不必	-12515
自民党	-12516
自由地	-12517
观察到	-12518
贫困率	-12519
运行的	-12520
都可能	-12521
面对着	-12522
1929	-12523
ency	-12524
▁For	-12525
▁利比亚	-12526
▁在其他	-12527
▁这导致	-12528
不断增长	-12529
之一就是	-12530
可以带来	-12531
基尼系数	-12532
增长最快	-12533
如此多的	-12534
完全可以	-12535
尤其重要	-12536
政治意愿	-12537
欧盟内部	-12538
正在迅速	-12539
犹太复国	-12540
能够得到	-12541
自然而然	-12542
自相矛盾	-12543
角度来看	-12544
起的作用	-12545
过去十年	-12546
长远来看	-12547
▁其中一个	-12548
▁在我看来	-12549
▁如果欧洲	-12550
▁这一趋势	-12551
▁这些都是	-12552
人民币升值	-12553
他们的国家	-12554
劳动生产率	-12555
带来的好处	-12556
的军事行动	-12557
可预见的未来	-12558
长期以来一直	-12559
100,000	-12560
▁Global	-12561
二氧化碳排放量	-12562
国内生产总值的	-12563
2/	-12564
ME	-12565
RA	-12566
St	-12567
nb	-12568
▁’	-12569
▁则	-12570
一篇	-12571
上来	-12572
不决	-12573
专栏	-12574
付费	-12575
公顷	-12576
列入	-12577
匹马	-12578
即可	-12579
口头	-12580
塞拜	-12581
外流	-12582
天赋	-12583
它能	-12584
将与	-12585
差额	-12586
庄稼	-12587
强行	-12588
心目	-12589
息息	-12590
扶贫	-12591
抑或	-12592
挽回	-12593
放贷	-12594
新高	-12595
无尽	-12596
民事	-12597
水域	-12598
永恒	-12599
流传	-12600
流的	-12601
留欧	-12602
笼罩	-12603
算是	-12604
细分	-12605
负有	-12606
贵族	-12607
越是	-12608
身后	-12609
遗余	-12610
ari	-12611
old	-12612
▁Af	-12613
不透明	-12614
专业化	-12615
世界观	-12616
也能够	-12617
争论的	-12618
企业在	-12619
但对于	-12620
入学率	-12621
反周期	-12622
只能在	-12623
可支配	-12624
和疟疾	-12625
埃克森	-12626
塞拜疆	-12627
如果他	-12628
它必须	-12629
将它们	-12630
将最终	-12631
已经对	-12632
建制派	-12633
引出了	-12634
把它们	-12635
持有者	-12636
更糟糕	-12637
有大量	-12638
极端的	-12639
框架内	-12640
波兰人	-12641
牵涉到	-12642
状病毒	-12643
由政府	-12644
略高于	-12645
的人都	-12646
的决心	-12647
的另一	-12648
的回报	-12649
的定义	-12650
的干预	-12651
的短期	-12652
竞选中	-12653
第三方	-12654
第四次	-12655
索罗斯	-12656
超国家	-12657
进口国	-12658
道德的	-12659
都是由	-12660
阿拉维	-12661
1968	-12662
▁互联网	-12663
▁我相信	-12664
▁莫斯科	-12665
为什么要	-12666
传统智慧	-12667
偿还债务	-12668
公共利益	-12669
其他任何	-12670
军事冲突	-12671
几个国家	-12672
和联合国	-12673
已经存在	-12674
开放社会	-12675
持续增长	-12676
支出削减	-12677
政治体制	-12678
教育体系	-12679
施加压力	-12680
是巨大的	-12681
最主要的	-12682
构建一个	-12683
毁灭性的	-12684
激进分子	-12685
社会经济	-12686
英国经济	-12687
莫拉莱斯	-12688
蒙受损失	-12689
这些风险	-12690
领导人们	-12691
urity	-12692
▁如果这些	-12693
不平等状况	-12694
增长和就业	-12695
完全不同的	-12696
持怀疑态度	-12697
深远的影响	-12698
美国财政部	-12699
许多人认为	-12700
在全球范围内	-12701
经通胀调整的	-12702
vention	-12703
,7	-12704
za	-12705
▁四	-12706
争相	-12707
亿吨	-12708
例证	-12709
假说	-12710
克逊	-12711
兴建	-12712
内亚	-12713
出访	-12714
创设	-12715
勒森	-12716
取悦	-12717
司令	-12718
同比	-12719
后面	-12720
和前	-12721
塞内	-12722
备忘	-12723
外币	-12724
外科	-12725
小农	-12726
年至	-12727
思路	-12728
惨遭	-12729
愈加	-12730
招致	-12731
拿破	-12732
提取	-12733
整套	-12734
斯顿	-12735
暗杀	-12736
暴政	-12737
树木	-12738
欲望	-12739
此事	-12740
水电	-12741
沃伦	-12742
沙皇	-12743
淹没	-12744
激动	-12745
灌输	-12746
环节	-12747
球队	-12748
盛行	-12749
碰撞	-12750
积压	-12751
空缺	-12752
符号	-12753
维利	-12754
维艰	-12755
美丽	-12756
翼翼	-12757
舒适	-12758
被问	-12759
谁来	-12760
轮值	-12761
那摩	-12762
集合	-12763
顺序	-12764
饭店	-12765
1.7	-12766
4.5	-12767
att	-12768
lic	-12769
tor	-12770
▁提高	-12771
▁约翰	-12772
▁这笔	-12773
▁降低	-12774
东北亚	-12775
从中国	-12776
代人的	-12777
伐利亚	-12778
其主要	-12779
内罗毕	-12780
加入到	-12781
和行为	-12782
和行动	-12783
地区内	-12784
地指出	-12785
外交部	-12786
将不再	-12787
平等性	-12788
年达到	-12789
性力量	-12790
我们还	-12791
抗药性	-12792
拿破仑	-12793
改变其	-12794
放弃其	-12795
时期内	-12796
来保护	-12797
的大门	-12798
的形象	-12799
的所谓	-12800
的排放	-12801
的服务	-12802
的社区	-12803
的费用	-12804
的这一	-12805
能实现	-12806
脱维亚	-12807
蒂勒森	-12808
观察员	-12809
让政府	-12810
道德上	-12811
问题和	-12812
马克里	-12813
鲍威尔	-12814
▁Ass	-12815
▁Sec	-12816
世界主要	-12817
以及如何	-12818
债务融资	-12819
关塔那摩	-12820
单边主义	-12821
增长战略	-12822
官僚机构	-12823
对叙利亚	-12824
寿命预期	-12825
将在今年	-12826
尼古拉斯	-12827
已不再是	-12828
平均每年	-12829
所发生的	-12830
数据显示	-12831
有价值的	-12832
民调显示	-12833
的领导者	-12834
科学家和	-12835
表面上看	-12836
资本外流	-12837
重大挑战	-12838
重新评估	-12839
随之而来	-12840
▁哥伦比亚	-12841
▁在最近的	-12842
▁对于那些	-12843
不可或缺的	-12844
共产主义的	-12845
卫生工作者	-12846
数万亿美元	-12847
极端主义的	-12848
美国经济的	-12849
▁inter	-12850
基础设施建设	-12851
正义与发展党	-12852
43	-12853
BC	-12854
不好	-12855
东非	-12856
亲自	-12857
他国	-12858
会为	-12859
会见	-12860
六年	-12861
其顿	-12862
剔除	-12863
加倍	-12864
可笑	-12865
大跌	-12866
子和	-12867
学历	-12868
对新	-12869
尖端	-12870
年为	-12871
忘了	-12872
所料	-12873
扣除	-12874
推荐	-12875
果实	-12876
款项	-12877
此人	-12878
测验	-12879
牵头	-12880
的下	-12881
矿产	-12882
离婚	-12883
穆特	-12884
窗口	-12885
童工	-12886
粗暴	-12887
纵观	-12888
维埃	-12889
美德	-12890
而当	-12891
肉类	-12892
能以	-12893
航班	-12894
趋向	-12895
迅猛	-12896
迷惑	-12897
驳斥	-12898
for	-12899
▁De	-12900
▁智利	-12901
▁气候	-12902
▁没错	-12903
▁罗马	-12904
上升了	-12905
不会再	-12906
不属于	-12907
不断的	-12908
也很难	-12909
了新的	-12910
事实是	-12911
什么是	-12912
以应对	-12913
体现出	-12914
做的事	-12915
像美国	-12916
军政府	-12917
发电厂	-12918
司法部	-12919
在应对	-12920
在当今	-12921
地使用	-12922
它已经	-12923
宗教和	-12924
对人类	-12925
常常是	-12926
并不比	-12927
感觉到	-12928
抵押品	-12929
本人的	-12930
枪匹马	-12931
目睹了	-12932
矛盾的	-12933
结构和	-12934
给中国	-12935
这正是	-12936
这需要	-12937
通过将	-12938
遇到了	-12939
随时间	-12940
需要为	-12941
饥饿和	-12942
高增长	-12943
1933	-12944
3000	-12945
ISIS	-12946
▁当我们	-12947
▁我们在	-12948
▁有鉴于	-12949
▁而这种	-12950
与日俱增	-12951
关系密切	-12952
印度政府	-12953
国内需求	-12954
基本收入	-12955
多样性的	-12956
始作俑者	-12957
对其进行	-12958
总统普京	-12959
投资不足	-12960
拥有一个	-12961
提供援助	-12962
无济于事	-12963
是全世界	-12964
暴力活动	-12965
欧盟预算	-12966
正在快速	-12967
民间社会	-12968
泡沫破裂	-12969
的一体化	-12970
科夫斯基	-12971
税收优惠	-12972
自力更生	-12973
预期寿命	-12974
取得了成功	-12975
已经达到了	-12976
总理默克尔	-12977
日益增长的	-12978
的原因之一	-12979
的国家之一	-12980
的最佳方式	-12981
相关利益方	-12982
近几十年来	-12983
还远远不够	-12984
▁克里姆林宫	-12985
人道主义援助	-12986
原教旨主义者	-12987
欧洲货币联盟	-12988
法律与正义党	-12989
诺贝尔和平奖	-12990
ability	-12991
和国际货币基金组织	-12992
,8	-12993
BI	-12994
GI	-12995
OA	-12996
cl	-12997
▁五	-12998
一同	-12999
两场	-13000
之源	-13001
也没	-13002
书籍	-13003
五倍	-13004
入境	-13005
共有	-13006
分水	-13007
力图	-13008
助益	-13009
半球	-13010
发的	-13011
受人	-13012
善于	-13013
图书	-13014
坐在	-13015
奴役	-13016
孱弱	-13017
底线	-13018
开辟	-13019
扎伊	-13020
拍卖	-13021
曙光	-13022
权限	-13023
涌向	-13024
热点	-13025
税负	-13026
紧随	-13027
美俄	-13028
而该	-13029
聚变	-13030
肆无	-13031
莱因	-13032
诸塞	-13033
远非	-13034
随心	-13035
顺从	-13036
高位	-13037
魔鬼	-13038
▁Sc	-13039
▁并在	-13040
▁而对	-13041
▁近期	-13042
一个月	-13043
与政治	-13044
也承认	-13045
也未能	-13046
也相当	-13047
了全球	-13048
事务的	-13049
以美国	-13050
会引起	-13051
关系到	-13052
原子弹	-13053
反映在	-13054
合理性	-13055
和埃及	-13056
和机构	-13057
和波兰	-13058
基金的	-13059
备忘录	-13060
它能够	-13061
就能够	-13062
尽一切	-13063
强化的	-13064
很明显	-13065
想要的	-13066
推动的	-13067
提升了	-13068
收到了	-13069
政治中	-13070
无限期	-13071
是不会	-13072
最紧迫	-13073
来解释	-13074
泛欧洲	-13075
激烈的	-13076
牺牲品	-13077
的传播	-13078
的对立	-13079
的推动	-13080
目标和	-13081
结构的	-13082
菲利普	-13083
落后的	-13084
被告知	-13085
这只是	-13086
这笔钱	-13087
青少年	-13088
▁All	-13089
▁在某些	-13090
▁而随着	-13091
与欧盟的	-13092
亚历山大	-13093
他们能够	-13094
令人振奋	-13095
低碳能源	-13096
单枪匹马	-13097
只能通过	-13098
团结一致	-13099
实现目标	-13100
小心翼翼	-13101
尚不清楚	-13102
恐怖活动	-13103
民主选举	-13104
爱国主义	-13105
相对较小	-13106
绿色能源	-13107
肆无忌惮	-13108
营商环境	-13109
过程中的	-13110
都面临着	-13111
随心所欲	-13112
▁Bank	-13113
▁Fund	-13114
▁二十世纪	-13115
▁作为一个	-13116
▁在过去的	-13117
债券持有人	-13118
哈佛大学的	-13119
欧元区危机	-13120
穆斯林国家	-13121
议会选举中	-13122
Martin	-13123
很长的路要走	-13124
..	-13125
▁r	-13126
▁跟	-13127
一手	-13128
一月	-13129
上扬	-13130
之于	-13131
之和	-13132
之所	-13133
也最	-13134
人造	-13135
们在	-13136
会以	-13137
体的	-13138
使他	-13139
僵尸	-13140
则被	-13141
别处	-13142
助手	-13143
卓著	-13144
又能	-13145
同道	-13146
后期	-13147
品种	-13148
在该	-13149
地与	-13150
地质	-13151
大权	-13152
夭折	-13153
它来	-13154
定于	-13155
得势	-13156
怒火	-13157
惊奇	-13158
投诉	-13159
拉拉	-13160
指示	-13161
救世	-13162
无误	-13163
松散	-13164
温床	-13165
漂亮	-13166
爱的	-13167
用处	-13168
由来	-13169
的阿	-13170
盲目	-13171
税基	-13172
累累	-13173
置身	-13174
腰包	-13175
致富	-13176
苏尔	-13177
萨利	-13178
调动	-13179
躲避	-13180
轻重	-13181
较弱	-13182
辉煌	-13183
迟缓	-13184
那就	-13185
须知	-13186
首个	-13187
900	-13188
Jer	-13189
NPT	-13190
▁减少	-13191
▁当局	-13192
▁战争	-13193
▁经过	-13194
不包括	-13195
了一倍	-13196
作斗争	-13197
使人们	-13198
出不穷	-13199
则需要	-13200
合理地	-13201
和希腊	-13202
和繁荣	-13203
国神社	-13204
国际化	-13205
在选举	-13206
大面积	-13207
好莱坞	-13208
密尔顿	-13209
就是要	-13210
市场中	-13211
怀疑派	-13212
把美国	-13213
斗争中	-13214
方式来	-13215
消失了	-13216
特征是	-13217
现在正	-13218
的一场	-13219
的人力	-13220
的利润	-13221
的官员	-13222
的官方	-13223
的指控	-13224
的收益	-13225
的时机	-13226
的通胀	-13227
的难度	-13228
科学和	-13229
系统和	-13230
英国在	-13231
让伊朗	-13232
身份的	-13233
适应性	-13234
道路上	-13235
都同意	-13236
都拥有	-13237
陷入到	-13238
难以为	-13239
马其顿	-13240
1986	-13241
ried	-13242
▁对中国	-13243
▁我们还	-13244
▁最新的	-13245
▁美国和	-13246
▁肯尼亚	-13247
万美元的	-13248
与土耳其	-13249
严重威胁	-13250
作为一种	-13251
侵犯人权	-13252
公众支持	-13253
受欢迎的	-13254
在华盛顿	-13255
大获全胜	-13256
对土耳其	-13257
层出不穷	-13258
所获得的	-13259
接近于零	-13260
收入增长	-13261
改革措施	-13262
暴力冲突	-13263
最终导致	-13264
生产力的	-13265
的世界里	-13266
的环境下	-13267
移民政策	-13268
紧张局面	-13269
经济体系	-13270
美国已经	-13271
西奈半岛	-13272
货币升值	-13273
走上街头	-13274
远远低于	-13275
远远没有	-13276
重中之重	-13277
长期债券	-13278
非法移民	-13279
首脑会议	-13280
高速增长	-13281
▁1999	-13282
▁2002	-13283
▁more	-13284
▁这一过程	-13285
中东和北非	-13286
半岛电视台	-13287
华盛顿共识	-13288
天然气工业	-13289
必须认识到	-13290
的速度增长	-13291
财政政策的	-13292
铺平了道路	-13293
在发展中国家	-13294
nership	-13295
西班牙和意大利	-13296
▁Summers	-13297
Ab	-13298
▁曾	-13299
一线	-13300
不尽	-13301
专属	-13302
两周	-13303
之事	-13304
也好	-13305
书记	-13306
乱局	-13307
仅靠	-13308
以免	-13309
会员	-13310
借入	-13311
倾听	-13312
兴旺	-13313
可知	-13314
合力	-13315
对称	-13316
尔摩	-13317
当其	-13318
忡忡	-13319
患病	-13320
悲伤	-13321
扶持	-13322
拖入	-13323
拼命	-13324
推理	-13325
旗帜	-13326
旱灾	-13327
有何	-13328
格斯	-13329
没收	-13330
油田	-13331
甲烷	-13332
皇家	-13333
相邻	-13334
移植	-13335
米勒	-13336
纠缠	-13337
纵容	-13338
罢了	-13339
老人	-13340
草根	-13341
要低	-13342
订立	-13343
调解	-13344
越过	-13345
这点	-13346
2.4	-13347
oth	-13348
▁Ad	-13349
▁Mc	-13350
▁op	-13351
▁一般	-13352
▁家庭	-13353
▁旨在	-13354
中全会	-13355
了超过	-13356
伊朗人	-13357
会因为	-13358
但最终	-13359
几内亚	-13360
区域性	-13361
原来的	-13362
只剩下	-13363
号决议	-13364
向公众	-13365
因斯坦	-13366
国家间	-13367
在希腊	-13368
在短期	-13369
埃及人	-13370
大范围	-13371
大问题	-13372
妨碍了	-13373
学校和	-13374
它应该	-13375
对国际	-13376
寻常的	-13377
就变得	-13378
尽管有	-13379
屈从于	-13380
巩固了	-13381
已久的	-13382
已经让	-13383
延伸到	-13384
开始的	-13385
开放和	-13386
怎样的	-13387
承诺将	-13388
投入到	-13389
掌握在	-13390
掌权的	-13391
更安全	-13392
此以后	-13393
洛伐克	-13394
百分比	-13395
的一样	-13396
的声明	-13397
的政客	-13398
的精神	-13399
的行业	-13400
给予了	-13401
群体的	-13402
色革命	-13403
苏维埃	-13404
过渡期	-13405
进入到	-13406
领袖的	-13407
马利基	-13408
1962	-13409
1985	-13410
1987	-13411
Jean	-13412
head	-13413
port	-13414
roup	-13415
uman	-13416
▁中国在	-13417
▁在他们	-13418
不可思议	-13419
仅仅因为	-13420
做得更好	-13421
健康保险	-13422
关税壁垒	-13423
南欧国家	-13424
卫生设施	-13425
可能引发	-13426
在以色列	-13427
外交手段	-13428
外汇市场	-13429
多元文化	-13430
工作的人	-13431
按揭贷款	-13432
新的全球	-13433
正在日益	-13434
汉密尔顿	-13435
电子商务	-13436
的反对者	-13437
的第二个	-13438
结束以来	-13439
美国必须	-13440
议会多数	-13441
货币宽松	-13442
资源配置	-13443
资金支持	-13444
这一情况	-13445
这种说法	-13446
重新定义	-13447
金融中心	-13448
▁1990	-13449
▁这些政策	-13450
不断扩大的	-13451
奥巴马医保	-13452
奥斯曼帝国	-13453
最大限度地	-13454
法西斯主义	-13455
的中产阶级	-13456
结构性问题	-13457
联邦调查局	-13458
重要的作用	-13459
金融危机的	-13460
ations	-13461
▁Union	-13462
全球经济增长	-13463
带来了巨大的	-13464
的政治和经济	-13465
伊拉克和阿富汗	-13466
美国总统唐纳德	-13467
inancial	-13468
▁在这样的情况下	-13469
,5	-13470
CB	-13471
FP	-13472
TC	-13473
gl	-13474
▁却	-13475
一去	-13476
上都	-13477
不一	-13478
东正	-13479
中印	-13480
中部	-13481
人身	-13482
伴侣	-13483
倒是	-13484
兜售	-13485
内陆	-13486
危地	-13487
厌倦	-13488
国和	-13489
国度	-13490
堡垒	-13491
太高	-13492
学到	-13493
左倾	-13494
废物	-13495
患有	-13496
惨败	-13497
感和	-13498
手握	-13499
打印	-13500
扫地	-13501
把他	-13502
排外	-13503
收费	-13504
数目	-13505
断然	-13506
族群	-13507
无休	-13508
无遗	-13509
条路	-13510
极易	-13511
法制	-13512
瓶颈	-13513
生死	-13514
第十	-13515
绩效	-13516
血管	-13517
言不	-13518
诺斯	-13519
赞誉	-13520
跟上	-13521
近邻	-13522
错觉	-13523
闲置	-13524
限额	-13525
青睐	-13526
...	-13527
1.8	-13528
ICT	-13529
ODA	-13530
gel	-13531
▁Wh	-13532
▁反之	-13533
▁可是	-13534
▁和平	-13535
▁它的	-13536
▁此时	-13537
一年前	-13538
不但要	-13539
与我们	-13540
之中的	-13541
也确实	-13542
他已经	-13543
以促进	-13544
以满足	-13545
低水平	-13546
决策的	-13547
制度性	-13548
动荡的	-13549
和维持	-13550
在长期	-13551
季度的	-13552
它们将	-13553
对环境	-13554
对西方	-13555
干细胞	-13556
年之后	-13557
并实施	-13558
并试图	-13559
开发和	-13560
当我们	-13561
彻底的	-13562
恢复到	-13563
提供给	-13564
是由于	-13565
更长的	-13566
案例中	-13567
沃尔克	-13568
沃尔夫	-13569
独立于	-13570
的分裂	-13571
的则是	-13572
的困境	-13573
的对策	-13574
盎格鲁	-13575
相应的	-13576
积累了	-13577
而如今	-13578
而德国	-13579
联合会	-13580
能说明	-13581
萨诸塞	-13582
行不通	-13583
议会中	-13584
较小的	-13585
迅速地	-13586
这一次	-13587
造就了	-13588
那么多	-13589
集中的	-13590
风险是	-13591
马里奥	-13592
默多克	-13593
1948	-13594
ates	-13595
emoc	-13596
▁Pen	-13597
▁人民币	-13598
▁他认为	-13599
不大可能	-13600
不断变化	-13601
不无道理	-13602
刺激经济	-13603
只是为了	-13604
和什叶派	-13605
困难重重	-13606
基础上的	-13607
忧心忡忡	-13608
快速发展	-13609
急剧下降	-13610
把注意力	-13611
拉脱维亚	-13612
支持者的	-13613
政治权力	-13614
教育机会	-13615
数十年来	-13616
方向发展	-13617
是否愿意	-13618
沙文主义	-13619
消除贫困	-13620
爱因斯坦	-13621
物价稳定	-13622
的伊拉克	-13623
私人资本	-13624
私营企业	-13625
积极参与	-13626
网络安全	-13627
美国企业	-13628
莱因哈特	-13629
许多其他	-13630
远远高于	-13631
针对性的	-13632
二十国集团	-13633
保护主义的	-13634
发生了什么	-13635
可持续性的	-13636
地区和全球	-13637
完成的任务	-13638
的美国总统	-13639
经济学家们	-13640
麻省理工学院	-13641
马斯特里赫特条约	-13642
68	-13643
BA	-13644
严酷	-13645
乡村	-13646
借用	-13647
免除	-13648
公告	-13649
化肥	-13650
博科	-13651
卢布	-13652
国与	-13653
堆积	-13654
委会	-13655
定罪	-13656
对我	-13657
届时	-13658
弱化	-13659
归还	-13660
想在	-13661
成人	-13662
或在	-13663
摒弃	-13664
收效	-13665
教士	-13666
散播	-13667
更换	-13668
杉矶	-13669
每人	-13670
法令	-13671
洛克	-13672
淡化	-13673
深圳	-13674
用以	-13675
电气	-13676
相形	-13677
真诚	-13678
碳化	-13679
级的	-13680
细致	-13681
缔约	-13682
缺位	-13683
胜选	-13684
自贸	-13685
试点	-13686
那场	-13687
长足	-13688
陈词	-13689
风潮	-13690
食用	-13691
AMR	-13692
ech	-13693
oci	-13694
ock	-13695
ure	-13696
▁en	-13697
▁成为	-13698
▁资本	-13699
下半年	-13700
不会被	-13701
不应当	-13702
也难以	-13703
但这种	-13704
倡导者	-13705
分水岭	-13706
另一方	-13707
只能是	-13708
和一个	-13709
和中东	-13710
和外部	-13711
国内部	-13712
国家庭	-13713
坚定地	-13714
如果它	-13715
对国内	-13716
就越大	-13717
崩溃的	-13718
强加给	-13719
必要时	-13720
所在地	-13721
方面也	-13722
是值得	-13723
最糟糕	-13724
洛杉矶	-13725
的多数	-13726
的现代	-13727
的相对	-13728
的著作	-13729
的诱惑	-13730
的过度	-13731
研究院	-13732
缅甸的	-13733
能提供	-13734
萨尔瓦	-13735
被发现	-13736
认真的	-13737
该条约	-13738
该法案	-13739
谢里夫	-13740
货币化	-13741
资产和	-13742
还不是	-13743
这三个	-13744
这两者	-13745
1988	-13746
4000	-13747
cess	-13748
vest	-13749
▁他们在	-13750
▁失业率	-13751
▁理论上	-13752
▁这两种	-13753
世界上的	-13754
也受到了	-13755
他自己的	-13756
其他许多	-13757
几个月来	-13758
前工业化	-13759
危地马拉	-13760
历史上的	-13761
各自为政	-13762
在联合国	-13763
实现经济	-13764
并不存在	-13765
并不容易	-13766
心理学家	-13767
支持这一	-13768
更倾向于	-13769
更强大的	-13770
有所帮助	-13771
未来几年	-13772
标准普尔	-13773
欧洲政治	-13774
民主政体	-13775
浮动汇率	-13776
物价指数	-13777
环境破坏	-13778
的不信任	-13779
的目的是	-13780
的进一步	-13781
管理不善	-13782
经济部门	-13783
结构调整	-13784
美国优先	-13785
这些公司	-13786
,2016	-13787
4,000	-13788
▁有鉴于此	-13789
▁根据这一	-13790
中国的崛起	-13791
中国的经济	-13792
之间的分歧	-13793
并没有什么	-13794
的国际秩序	-13795
社会安全网	-13796
经济学家的	-13797
美国和日本	-13798
是至关重要的	-13799
特别是考虑到	-13800
美国总统大选	-13801
46	-13802
▁/	-13803
▁因	-13804
▁照	-13805
一心	-13806
一波	-13807
下限	-13808
两可	-13809
交战	-13810
他会	-13811
价比	-13812
会令	-13813
光荣	-13814
写入	-13815
几种	-13816
前线	-13817
劫持	-13818
哈尔	-13819
囚禁	-13820
地域	-13821
声势	-13822
头巾	-13823
对俄	-13824
尔森	-13825
市盈	-13826
序列	-13827
库德	-13828
得的	-13829
惨痛	-13830
想一	-13831
我对	-13832
所属	-13833
手可	-13834
打下	-13835
投了	-13836
护士	-13837
抵触	-13838
拘留	-13839
断言	-13840
晓波	-13841
更早	-13842
格莱	-13843
演进	-13844
牢固	-13845
物资	-13846
猖獗	-13847
症候	-13848
相差	-13849
相悖	-13850
眼看	-13851
破碎	-13852
税法	-13853
算计	-13854
类比	-13855
萨卡	-13856
讨好	-13857
诅咒	-13858
诺夫	-13859
诺贝	-13860
错配	-13861
顾及	-13862
0.3	-13863
12%	-13864
140	-13865
1⁄4	-13866
CCS	-13867
ont	-13868
▁发展	-13869
▁就是	-13870
▁当年	-13871
一直都	-13872
上半年	-13873
上涨了	-13874
不遗余	-13875
世界里	-13876
中只有	-13877
也更加	-13878
了一切	-13879
仅有的	-13880
以外的	-13881
任务是	-13882
会影响	-13883
使它们	-13884
储蓄者	-13885
准确地	-13886
利用了	-13887
原则的	-13888
另一些	-13889
另一次	-13890
可以对	-13891
和组织	-13892
和越南	-13893
和非洲	-13894
在埃及	-13895
富人的	-13896
将再次	-13897
尽管在	-13898
展示了	-13899
常常会	-13900
年收入	-13901
年龄段	-13902
必须有	-13903
所引发	-13904
所表明	-13905
敌人的	-13906
数十亿	-13907
是唯一	-13908
来管理	-13909
毁灭性	-13910
疾病和	-13911
的位置	-13912
的希腊	-13913
的愿望	-13914
的支出	-13915
的繁荣	-13916
相似的	-13917
竞争和	-13918
纯粹的	-13919
组成了	-13920
能够将	-13921
被人们	-13922
证实了	-13923
该政策	-13924
达不到	-13925
释放出	-13926
,500	-13927
arch	-13928
ater	-13929
berg	-13930
ront	-13931
▁但许多	-13932
▁在印度	-13933
▁如果他	-13934
▁当时的	-13935
▁日内瓦	-13936
▁而由于	-13937
一个问题	-13938
不堪重负	-13939
东乌克兰	-13940
两国方案	-13941
价值观和	-13942
保持稳定	-13943
共同努力	-13944
其中之一	-13945
决定是否	-13946
可以避免	-13947
工资水平	-13948
市场价格	-13949
帮助他们	-13950
应该获得	-13951
建立新的	-13952
强劲增长	-13953
很可能是	-13954
很多国家	-13955
投票支持	-13956
担任总统	-13957
政府干预	-13958
整个国家	-13959
无一例外	-13960
是美国的	-13961
是这样的	-13962
更加容易	-13963
民主体制	-13964
没有多少	-13965
特别是对	-13966
理由认为	-13967
的人民币	-13968
的合法性	-13969
直到最近	-13970
私人企业	-13971
网络攻击	-13972
能源供应	-13973
财政扩张	-13974
这是一种	-13975
道德风险	-13976
除此之外	-13977
靖国神社	-13978
onald	-13979
—2011	-13980
—2012	-13981
▁此外还有	-13982
严重的问题	-13983
印度人民党	-13984
和其他许多	-13985
房地产价格	-13986
马克思主义	-13987
▁Found	-13988
所面临的问题	-13989
斯堪的纳维亚	-13990
民粹主义政党	-13991
经常账户盈余	-13992
国际原子能机构	-13993
▁Council	-13994
-7	-13995
Ed	-13996
▁莫	-13997
一千	-13998
不移	-13999
个州	-14000
中去	-14001
乃是	-14002
侨汇	-14003
保存	-14004
充裕	-14005
公式	-14006
别国	-14007
印钞	-14008
参谋	-14009
和最	-14010
图拉	-14011
大惊	-14012
将它	-14013
开设	-14014
弥漫	-14015
强健	-14016
怀有	-14017
憧憬	-14018
抗衡	-14019
整顿	-14020
期权	-14021
构造	-14022
概括	-14023
步履	-14024
殴打	-14025
每位	-14026
活着	-14027
流量	-14028
率先	-14029
玛丽	-14030
现已	-14031
珍视	-14032
甚少	-14033
生理	-14034
的两	-14035
矿业	-14036
耶鲁	-14037
胜于	-14038
节制	-14039
英美	-14040
蚊帐	-14041
诗人	-14042
跌幅	-14043
迁往	-14044
运送	-14045
长官	-14046
降雨	-14047
面孔	-14048
频道	-14049
马琳	-14050
高点	-14051
110	-14052
2/3	-14053
▁Kr	-14054
▁国内	-14055
▁妇女	-14056
▁更糟	-14057
与他们	-14058
两位数	-14059
为中国	-14060
之不去	-14061
也变得	-14062
了解到	-14063
了那些	-14064
他人的	-14065
会受到	-14066
使美国	-14067
其政府	-14068
出生率	-14069
分配给	-14070
刘晓波	-14071
压力下	-14072
可以与	-14073
和执行	-14074
夸大了	-14075
威尼斯	-14076
它需要	-14077
完成的	-14078
官员的	-14079
对政治	-14080
将出现	-14081
将很快	-14082
就足以	-14083
当其冲	-14084
性价比	-14085
慢性病	-14086
或至少	-14087
捷克斯	-14088
推行的	-14089
无非是	-14090
时间的	-14091
是这样	-14092
普通人	-14093
有一半	-14094
有三个	-14095
有价值	-14096
比现在	-14097
治理的	-14098
的代表	-14099
的内部	-14100
的减少	-14101
的区域	-14102
的根本	-14103
的进展	-14104
研究中	-14105
统治下	-14106
而如果	-14107
艰难的	-14108
说到底	-14109
贷款的	-14110
这一步	-14111
阿联酋	-14112
1974	-14113
ture	-14114
▁但他的	-14115
▁其结果	-14116
▁在我们	-14117
▁很多人	-14118
▁而现在	-14119
▁这一切	-14120
▁这也许	-14121
不仅包括	-14122
不会发生	-14123
任何人都	-14124
似乎并不	-14125
债券购买	-14126
关注的是	-14127
利益冲突	-14128
刺激增长	-14129
包容性的	-14130
十分有限	-14131
卡钦斯基	-14132
即所谓的	-14133
参与其中	-14134
发展战略	-14135
受害者的	-14136
固定资产	-14137
在美国的	-14138
就业增长	-14139
平衡预算	-14140
很难想象	-14141
息息相关	-14142
所采取的	-14143
提供更多	-14144
新成员国	-14145
是俄罗斯	-14146
普通公民	-14147
有更多的	-14148
未来十年	-14149
武装部队	-14150
殖民主义	-14151
犹豫不决	-14152
的阿拉伯	-14153
等方面的	-14154
说服力的	-14155
货币当局	-14156
足够多的	-14157
这样才能	-14158
都不可能	-14159
食品价格	-14160
首当其冲	-14161
6,000	-14162
▁我们现在	-14163
▁澳大利亚	-14164
▁许多国家	-14165
公共和私人	-14166
在未来几年	-14167
已经超过了	-14168
有可能导致	-14169
海平面上升	-14170
中低收入国家	-14171
在过去十年中	-14172
捷克斯洛伐克	-14173
▁同样重要的是	-14174
至关重要的作用	-14175
▁美国总统奥巴马	-14176
,3	-14177
CN	-14178
DD	-14179
NI	-14180
▁奥	-14181
三位	-14182
东德	-14183
中华	-14184
也给	-14185
亚的	-14186
什图	-14187
仍旧	-14188
付款	-14189
似的	-14190
做过	-14191
共处	-14192
减支	-14193
凯利	-14194
出国	-14195
列举	-14196
加税	-14197
匆忙	-14198
原来	-14199
发声	-14200
古代	-14201
叫停	-14202
夏季	-14203
寄望	-14204
寥寥	-14205
屈辱	-14206
幼儿	-14207
引爆	-14208
很不	-14209
德哥	-14210
感知	-14211
手下	-14212
扎尔	-14213
拉低	-14214
控股	-14215
效忠	-14216
敏锐	-14217
早先	-14218
昂山	-14219
曼纽	-14220
曾是	-14221
求助	-14222
深渊	-14223
热爱	-14224
用词	-14225
种姓	-14226
精明	-14227
而战	-14228
谈到	-14229
赦免	-14230
递交	-14231
遇刺	-14232
酋长	-14233
钻石	-14234
降级	-14235
马士	-14236
驾驭	-14237
0.1	-14238
BJP	-14239
icy	-14240
yan	-14241
▁21	-14242
▁即将	-14243
▁是否	-14244
▁相对	-14245
▁选举	-14246
一书中	-14247
一半的	-14248
下一任	-14249
不仅在	-14250
不承认	-14251
为实现	-14252
了这个	-14253
他本人	-14254
似乎都	-14255
但由于	-14256
全国性	-14257
决定着	-14258
可以使	-14259
哪怕是	-14260
大会上	-14261
大气中	-14262
完整的	-14263
宪法的	-14264
对它们	-14265
小得多	-14266
幸福感	-14267
当地的	-14268
指的是	-14269
政治化	-14270
最低的	-14271
核威胁	-14272
桑托斯	-14273
正在以	-14274
正在被	-14275
理论家	-14276
由国家	-14277
的回应	-14278
的投票	-14279
的竞选	-14280
的补贴	-14281
的警告	-14282
穷人和	-14283
米歇尔	-14284
继续在	-14285
罗德里	-14286
而遭到	-14287
记者的	-14288
误导性	-14289
这件事	-14290
退出了	-14291
限制的	-14292
高昂的	-14293
2500	-14294
▁TPP	-14295
▁但今天	-14296
▁在整个	-14297
▁有人说	-14298
不断恶化	-14299
与其说是	-14300
与特朗普	-14301
严重问题	-14302
人的生活	-14303
从长期看	-14304
他们需要	-14305
农业部门	-14306
几个月前	-14307
切尔诺贝	-14308
创纪录的	-14309
发动战争	-14310
另外一种	-14311
国家层面	-14312
大有裨益	-14313
密切关注	-14314
工作机会	-14315
已经非常	-14316
并不那么	-14317
成为美国	-14318
技术转让	-14319
挥之不去	-14320
权宜之计	-14321
正在改变	-14322
的背景下	-14323
研究显示	-14324
解决机制	-14325
这些项目	-14326
马萨诸塞	-14327
骇人听闻	-14328
▁year	-14329
之间的差异	-14330
其中大部分	-14331
发生了变化	-14332
可持续增长	-14333
各国领导人	-14334
和委内瑞拉	-14335
并不是一个	-14336
新自由主义	-14337
民族主义和	-14338
特朗普当选	-14339
的意识形态	-14340
解释了为何	-14341
ichard	-14342
▁但不幸的是	-14343
今年早些时候	-14344
国际刑事法庭	-14345
年轻人失业率	-14346
证明了这一点	-14347
▁Americ	-14348
政府间气候变化	-14349
跨大西洋贸易和投资伙伴关系	-14350
EP	-14351
GB	-14352
▁令	-14353
上看	-14354
不切	-14355
不胜	-14356
丧命	-14357
争辩	-14358
互补	-14359
人是	-14360
佛教	-14361
克拉	-14362
兴盛	-14363
分销	-14364
加之	-14365
午餐	-14366
吉斯	-14367
启示	-14368
增幅	-14369
声望	-14370
好战	-14371
季莫	-14372
孤独	-14373
对美	-14374
尚不	-14375
尚早	-14376
尽头	-14377
年才	-14378
引进	-14379
当初	-14380
总会	-14381
拟议	-14382
摆在	-14383
施以	-14384
旗号	-14385
暴乱	-14386
板上	-14387
构筑	-14388
水面	-14389
法兰	-14390
洗钱	-14391
的传	-14392
监察	-14393
租金	-14394
立陶	-14395
端倪	-14396
纠结	-14397
老化	-14398
耶克	-14399
能与	-14400
萨勒	-14401
规格	-14402
说了	-14403
越好	-14404
趋于	-14405
跟随	-14406
路口	-14407
车辆	-14408
追逐	-14409
逼近	-14410
酒精	-14411
错失	-14412
高潮	-14413
ESM	-14414
rik	-14415
▁每个	-14416
▁特别	-14417
▁表明	-14418
▁首尔	-14419
一切都	-14420
一致性	-14421
下一步	-14422
严重性	-14423
中美洲	-14424
之以鼻	-14425
但是却	-14426
作出的	-14427
公信力	-14428
再培训	-14429
减税和	-14430
则认为	-14431
却未能	-14432
句名言	-14433
可能给	-14434
可预防	-14435
在其中	-14436
增加值	-14437
对印度	-14438
将军们	-14439
已故的	-14440
已经为	-14441
市盈率	-14442
年中国	-14443
年时间	-14444
必须从	-14445
恐惧和	-14446
情况的	-14447
我们能	-14448
所发生	-14449
政府也	-14450
最脆弱	-14451
有义务	-14452
有效性	-14453
残酷的	-14454
爆发后	-14455
的对比	-14456
的就是	-14457
的普遍	-14458
的福利	-14459
的联邦	-14460
的首要	-14461
突破性	-14462
第一批	-14463
经济区	-14464
而我们	-14465
自主权	-14466
设计和	-14467
该协定	-14468
赋予了	-14469
这部分	-14470
非如此	-14471
马士革	-14472
1975	-14473
Alex	-14474
CPOA	-14475
▁Gre	-14476
▁par	-14477
▁但目前	-14478
一直没有	-14479
不满情绪	-14480
世界最大	-14481
中美关系	-14482
也适用于	-14483
交易成本	-14484
仍在继续	-14485
仍有可能	-14486
从而降低	-14487
保护责任	-14488
债务上限	-14489
健康问题	-14490
其中许多	-14491
削减开支	-14492
发展日程	-14493
发展计划	-14494
可以解释	-14495
各国央行	-14496
合作关系	-14497
和平谈判	-14498
嗤之以鼻	-14499
增长率为	-14500
平价医疗	-14501
德哥尔摩	-14502
投资者和	-14503
提供服务	-14504
更是如此	-14505
朝鲜政权	-14506
的例子中	-14507
的失业率	-14508
真实利率	-14509
石油出口	-14510
经济崩溃	-14511
赢得选举	-14512
这一战略	-14513
这一方案	-14514
通胀压力	-14515
重新开始	-14516
重新获得	-14517
难以为继	-14518
需要进行	-14519
领导力的	-14520
▁哥本哈根	-14521
▁更糟的是	-14522
▁美国经济	-14523
▁这一问题	-14524
主要原因是	-14525
低收入家庭	-14526
和欧洲央行	-14527
持不同政见	-14528
根本不存在	-14529
独一无二的	-14530
的经济状况	-14531
盖茨基金会	-14532
经济政策的	-14533
这样的情况	-14534
面临的挑战	-14535
▁欧洲领导人	-14536
中等收入国家	-14537
全球经济危机	-14538
国际货币体系	-14539
的新兴经济体	-14540
▁这并不意味着	-14541
▁Partnership	-14542
41	-14543
▁低	-14544
▁波	-14545
▁达	-14546
一书	-14547
三项	-14548
下注	-14549
严苛	-14550
乌兹	-14551
争吵	-14552
五十	-14553
些许	-14554
他与	-14555
优越	-14556
伦斯	-14557
六方	-14558
内尔	-14559
刊登	-14560
勒颇	-14561
卖给	-14562
取向	-14563
古兰	-14564
各有	-14565
合情	-14566
回家	-14567
困局	-14568
士气	-14569
大通	-14570
家和	-14571
少于	-14572
干脆	-14573
战败	-14574
捐献	-14575
提炼	-14576
撤回	-14577
支点	-14578
斯拉	-14579
既定	-14580
更替	-14581
机密	-14582
杜绝	-14583
正逢	-14584
毛里	-14585
民权	-14586
涨幅	-14587
犯了	-14588
用在	-14589
电台	-14590
的女	-14591
离心	-14592
童婚	-14593
第六	-14594
纸币	-14595
组装	-14596
而无	-14597
聆听	-14598
蛋糕	-14599
表象	-14600
裁员	-14601
论述	-14602
远景	-14603
降息	-14604
高薪	-14605
黑色	-14606
2.2	-14607
Moh	-14608
▁30	-14609
▁一份	-14610
▁而后	-14611
一次性	-14612
一直被	-14613
中国与	-14614
为人知	-14615
乌兹别	-14616
产生于	-14617
仍没有	-14618
价格和	-14619
佩雷斯	-14620
信任的	-14621
免不了	-14622
出租车	-14623
北约的	-14624
危机时	-14625
发动机	-14626
合作社	-14627
和媒体	-14628
商品的	-14629
围绕着	-14630
在政府	-14631
在纽约	-14632
地区性	-14633
富裕的	-14634
对自身	-14635
对这个	-14636
将大大	-14637
将被迫	-14638
尼古拉	-14639
年以后	-14640
并增加	-14641
并支持	-14642
德国在	-14643
必须由	-14644
想不到	-14645
战争罪	-14646
打开了	-14647
承包商	-14648
投机者	-14649
抗议者	-14650
推高了	-14651
提名人	-14652
昂山素	-14653
是出于	-14654
更喜欢	-14655
曼纽尔	-14656
权力和	-14657
来处理	-14658
正逐渐	-14659
活动中	-14660
的实施	-14661
的对外	-14662
的将来	-14663
的早期	-14664
立陶宛	-14665
经常会	-14666
能够从	-14667
走上了	-14668
这些新	-14669
遗传学	-14670
集中营	-14671
非理性	-14672
高通胀	-14673
1500	-14674
1947	-14675
1984	-14676
IPCC	-14677
over	-14678
▁主要是	-14679
▁但上述	-14680
▁反过来	-14681
▁至少在	-14682
▁那就是	-14683
一个重要	-14684
一直处于	-14685
一致同意	-14686
不是什么	-14687
中国企业	-14688
也得到了	-14689
也有一些	-14690
二十年中	-14691
公平贸易	-14692
军事基地	-14693
削减支出	-14694
势力范围	-14695
发展模式	-14696
可以选择	-14697
在该地区	-14698
坚定不移	-14699
塞内加尔	-14700
墨西哥和	-14701
墨西哥的	-14702
必须接受	-14703
必须改变	-14704
成本效益	-14705
战略利益	-14706
政治精英	-14707
无法得到	-14708
是另一个	-14709
是否定的	-14710
有所上升	-14711
本身就是	-14712
欧盟机构	-14713
正面临着	-14714
没有必要	-14715
激励机制	-14716
电子邮件	-14717
的以色列	-14718
科技公司	-14719
经济刺激	-14720
继续存在	-14721
苦苦挣扎	-14722
解决方法	-14723
货币交易	-14724
这一状况	-14725
透明度和	-14726
通信技术	-14727
金融时报	-14728
银行监管	-14729
银行账户	-14730
—2013	-14731
▁1979	-14732
▁Bern	-14733
▁book	-14734
▁为了避免	-14735
▁伊斯兰国	-14736
▁但事实上	-14737
▁拉丁美洲	-14738
▁直到最近	-14739
和巴基斯坦	-14740
在发达国家	-14741
引人注目的	-14742
很好的例子	-14743
欧盟和美国	-14744
生活水平的	-14745
的地缘政治	-14746
直升机撒钱	-14747
自由主义的	-14748
自由主义者	-14749
达成的协议	-14750
50,000	-14751
▁state	-14752
和其他国家的	-14753
知识产权保护	-14754
▁Climate	-14755
▁在这样的环境下	-14756
▁Foundation	-14757
HP	-14758
IN	-14759
ai	-14760
sp	-14761
一人	-14762
一时	-14763
一本	-14764
万事	-14765
上所	-14766
主人	-14767
代议	-14768
保有	-14769
储藏	-14770
先前	-14771
几项	-14772
升至	-14773
双赢	-14774
国库	-14775
圣经	-14776
塞罗	-14777
处罚	-14778
多家	-14779
够了	-14780
失利	-14781
安娜	-14782
定为	-14783
密度	-14784
寻租	-14785
工薪	-14786
巨人	-14787
已知	-14788
幕僚	-14789
才有	-14790
扰乱	-14791
担当	-14792
斯卡	-14793
时宜	-14794
暴君	-14795
板球	-14796
档案	-14797
比克	-14798
汇聚	-14799
汇集	-14800
深厚	-14801
潜艇	-14802
热浪	-14803
索尔	-14804
终点	-14805
而将	-14806
胜过	-14807
自利	-14808
自发	-14809
艾森	-14810
贯穿	-14811
资质	-14812
辛基	-14813
辨别	-14814
还多	-14815
遴选	-14816
邦的	-14817
防治	-14818
面包	-14819
驯服	-14820
高价	-14821
2.8	-14822
ush	-14823
▁15	-14824
▁Ab	-14825
▁东盟	-14826
▁媒体	-14827
▁官方	-14828
▁谈判	-14829
▁难民	-14830
不及待	-14831
不可行	-14832
中所占	-14833
为那些	-14834
乌里韦	-14835
也不应	-14836
了不起	-14837
以降低	-14838
做生意	-14839
儿童和	-14840
其结果	-14841
占到了	-14842
参加了	-14843
受教育	-14844
可以把	-14845
和公民	-14846
和法律	-14847
在这种	-14848
大约为	-14849
大约有	-14850
对外国	-14851
将减少	-14852
归结为	-14853
徘徊在	-14854
总额的	-14855
所提供	-14856
扩大其	-14857
扩展到	-14858
承受着	-14859
持续性	-14860
排放的	-14861
收益的	-14862
新鲜事	-14863
是否是	-14864
暂时性	-14865
有问题	-14866
来取代	-14867
水平上	-14868
法院的	-14869
疫苗的	-14870
的扩张	-14871
的演讲	-14872
的经历	-14873
的联合	-14874
的评估	-14875
短暂的	-14876
社区的	-14877
突然间	-14878
绝不能	-14879
薄熙来	-14880
解释说	-14881
让许多	-14882
评论员	-14883
贝鲁特	-14884
赶下台	-14885
路易斯	-14886
部长们	-14887
预料到	-14888
ange	-14889
▁Ind	-14890
▁New	-14891
▁几年前	-14892
▁委员会	-14893
▁接下来	-14894
▁而对于	-14895
不再需要	-14896
不断下降	-14897
不是为了	-14898
中国官员	-14899
从中受益	-14900
从未有过	-14901
以及一个	-14902
保持不变	-14903
决定因素	-14904
冷战期间	-14905
制定一个	-14906
劳动者的	-14907
包括中国	-14908
可能发生	-14909
大幅上升	-14910
对乌克兰	-14911
对特朗普	-14912
已经结束	-14913
德国联邦	-14914
所要求的	-14915
指导原则	-14916
日本政府	-14917
更不要说	-14918
来说都是	-14919
构成威胁	-14920
游说集团	-14921
生产成本	-14922
认真考虑	-14923
贸易平衡	-14924
转移到了	-14925
迫不及待	-14926
采取更加	-14927
阿拉维派	-14928
▁一些国家	-14929
▁结果导致	-14930
仍然是一个	-14931
伊斯兰世界	-14932
出人意料地	-14933
创造了一个	-14934
劳动力大军	-14935
国会共和党	-14936
国民收入的	-14937
快速增长的	-14938
成立了一个	-14939
的巴基斯坦	-14940
系统性风险	-14941
表现出来的	-14942
还有待观察	-14943
10,000	-14944
▁所有这一切	-14945
全球金融体系	-14946
很长一段时间	-14947
诺贝尔奖得主	-14948
itiative	-14949
▁politic	-14950
54	-14951
59	-14952
63	-14953
64	-14954
▁水	-14955
上层	-14956
下定	-14957
专员	-14958
丝毫	-14959
丢掉	-14960
中也	-14961
亿多	-14962
从不	-14963
从其	-14964
典礼	-14965
军国	-14966
切尼	-14967
前后	-14968
卖出	-14969
占有	-14970
反之	-14971
咄咄	-14972
坦白	-14973
基斯	-14974
塔伊	-14975
季节	-14976
寄生	-14977
层级	-14978
已成	-14979
带到	-14980
战时	-14981
扎克	-14982
护照	-14983
接班	-14984
摄入	-14985
杰出	-14986
炫耀	-14987
独有	-14988
相容	-14989
碳氢	-14990
科特	-14991
给他	-14992
维度	-14993
自问	-14994
航天	-14995
蔬菜	-14996
要点	-14997
让你	-14998
贩卖	-14999
过上	-15000
适度	-15001
都比	-15002
雅图	-15003
马蒂	-15004
0.7	-15005
2.7	-15006
ini	-15007
ney	-15008
▁城市	-15009
一无所	-15010
不具有	-15011
两者的	-15012
中发挥	-15013
之一的	-15014
了一篇	-15015
于美国	-15016
人人都	-15017
以保证	-15018
以解决	-15019
会选择	-15020
但至少	-15021
利率和	-15022
加强对	-15023
南部的	-15024
卡特尔	-15025
发出的	-15026
受到的	-15027
和也门	-15028
和亚洲	-15029
和右翼	-15030
和城市	-15031
在一场	-15032
培训和	-15033
奥斯本	-15034
妇女的	-15035
安德鲁	-15036
对民主	-15037
对银行	-15038
将欧洲	-15039
就会被	-15040
并同时	-15041
并承诺	-15042
彰显出	-15043
必须的	-15044
惩罚性	-15045
想一想	-15046
我们又	-15047
报告的	-15048
指出了	-15049
接受过	-15050
描绘成	-15051
描述的	-15052
支付的	-15053
数据和	-15054
斯诺登	-15055
朋友和	-15056
正处在	-15057
沃尔福	-15058
的人员	-15059
的信仰	-15060
的准备	-15061
的崩溃	-15062
的年度	-15063
的辩论	-15064
确实是	-15065
科学界	-15066
稳定与	-15067
第三种	-15068
米尔顿	-15069
给自己	-15070
维持其	-15071
翻一番	-15072
而且是	-15073
联系的	-15074
起源于	-15075
足轻重	-15076
这一新	-15077
▁今年的	-15078
▁在当今	-15079
▁尽管在	-15080
▁尽管有	-15081
▁第一种	-15082
一点都不	-15083
不可预测	-15084
两个国家	-15085
中的地位	-15086
也可以在	-15087
产出增长	-15088
令人瞩目	-15089
但大部分	-15090
全球化和	-15091
全球气温	-15092
公开市场	-15093
其他部分	-15094
创造新的	-15095
即将到来	-15096
发达世界	-15097
可以理解	-15098
可以采取	-15099
可能引起	-15100
可能认为	-15101
奥巴马在	-15102
市场失灵	-15103
怀疑论者	-15104
截然相反	-15105
新闻报道	-15106
最后一次	-15107
某种形式	-15108
正在考虑	-15109
毫不犹豫	-15110
生产率和	-15111
生存威胁	-15112
的一点是	-15113
的乌克兰	-15114
维和部队	-15115
美国国内	-15116
美国政治	-15117
翻了一番	-15118
要求我们	-15119
财政悬崖	-15120
资本重组	-15121
资金用于	-15122
赫尔辛基	-15123
这项工作	-15124
重大变化	-15125
风险资本	-15126
▁事实证明	-15127
▁各国政府	-15128
▁这样一来	-15129
一定程度的	-15130
世界各国的	-15131
出口导向型	-15132
实实在在的	-15133
捷克共和国	-15134
日益严重的	-15135
欧洲委员会	-15136
贸易自由化	-15137
转基因作物	-15138
金融机构的	-15139
Marine	-15140
刺激经济增长	-15141
国家安全顾问	-15142
民意调查显示	-15143
首席经济学家	-15144
国会预算办公室	-15145
vestment	-15146
▁Security	-15147
亚洲基础设施投资银行	-15148
▁International	-15149
eh	-15150
sl	-15151
▁&	-15152
▁丹	-15153
一组	-15154
七个	-15155
上调	-15156
不经	-15157
丽莎	-15158
之苦	-15159
五国	-15160
亲属	-15161
他和	-15162
他就	-15163
伦比	-15164
创办	-15165
利得	-15166
到位	-15167
刺杀	-15168
加里	-15169
助理	-15170
十个	-15171
卓识	-15172
印证	-15173
却对	-15174
原谅	-15175
喇嘛	-15176
喜剧	-15177
地被	-15178
场景	-15179
外衣	-15180
多位	-15181
大豆	-15182
如其	-15183
学费	-15184
它也	-15185
定制	-15186
巴解	-15187
广为	-15188
弗雷	-15189
想必	-15190
所持	-15191
手脚	-15192
打压	-15193
抛售	-15194
拱手	-15195
接壤	-15196
摧残	-15197
文盲	-15198
是指	-15199
曼努	-15200
最强	-15201
有罪	-15202
期刊	-15203
栖息	-15204
水准	-15205
消化	-15206
滞后	-15207
火灾	-15208
狭窄	-15209
皇帝	-15210
盗窃	-15211
相连	-15212
眼睛	-15213
研讨	-15214
签字	-15215
索瓦	-15216
约占	-15217
美韩	-15218
蓝领	-15219
贪污	-15220
走廊	-15221
蹒跚	-15222
过滤	-15223
采伐	-15224
雨林	-15225
额的	-15226
高尚	-15227
鲨鱼	-15228
0.0	-15229
2.0	-15230
agh	-15231
▁Kh	-15232
▁Pe	-15233
▁不断	-15234
▁但与	-15235
▁但该	-15236
▁军事	-15237
▁农业	-15238
▁所谓	-15239
▁政策	-15240
▁此举	-15241
▁而非	-15242
不容易	-15243
与社会	-15244
世纪末	-15245
个人和	-15246
中占据	-15247
中找到	-15248
从一个	-15249
他必须	-15250
会破坏	-15251
似乎对	-15252
全欧洲	-15253
其影响	-15254
几何时	-15255
分裂为	-15256
制约了	-15257
制造的	-15258
前首相	-15259
加沙的	-15260
医疗和	-15261
厢情愿	-15262
后危机	-15263
向我们	-15264
和改善	-15265
回答说	-15266
在伦敦	-15267
奇怪的	-15268
少数人	-15269
就不是	-15270
就显得	-15271
帮助下	-15272
并鼓励	-15273
总统在	-15274
恶化了	-15275
想象力	-15276
承认了	-15277
拖累了	-15278
政府还	-15279
方方面	-15280
比过去	-15281
沉重的	-15282
浓缩铀	-15283
灵活的	-15284
的各种	-15285
研究了	-15286
签署国	-15287
纽约市	-15288
给那些	-15289
缓慢的	-15290
美国也	-15291
而他们	-15292
被剥夺	-15293
被禁止	-15294
资金和	-15295
走到了	-15296
转型的	-15297
银行在	-15298
革命性	-15299
预期的	-15300
高级别	-15301
Mark	-15302
anke	-15303
ions	-15304
▁Cap	-15305
▁但只要	-15306
▁其他人	-15307
▁历史上	-15308
▁斯坦福	-15309
▁进一步	-15310
不断升级	-15311
不是因为	-15312
专业知识	-15313
中国必须	-15314
二战以来	-15315
人类活动	-15316
今年夏天	-15317
仍然需要	-15318
他的政府	-15319
债务问题	-15320
先发制人	-15321
公众舆论	-15322
即使是在	-15323
历史记录	-15324
去年夏天	-15325
受过良好	-15326
国家经济	-15327
国际体系	-15328
土耳其人	-15329
地理位置	-15330
基于规则	-15331
影响深远	-15332
总统宝座	-15333
意识到了	-15334
成为一种	-15335
抓住机会	-15336
摩根大通	-15337
整体经济	-15338
是不可能	-15339
有所改善	-15340
段时间内	-15341
没有哪个	-15342
深度衰退	-15343
深远影响	-15344
漠不关心	-15345
的条件下	-15346
的联合国	-15347
经济顾问	-15348
美国官员	-15349
能源政策	-15350
货币战争	-15351
远见卓识	-15352
逍遥法外	-15353
风险管理	-15354
食品安全	-15355
8,000	-15356
overn	-15357
▁1997	-15358
▁will	-15359
▁如果政府	-15360
习近平主席	-15361
切尔诺贝利	-15362
委员会成员	-15363
由此产生的	-15364
的关键要素	-15365
越来越难以	-15366
中国和俄罗斯	-15367
Richard	-15368
▁Policy	-15369
麦肯锡全球研究所	-15370
56	-15371
ru	-15372
▁帕	-15373
▁贝	-15374
丢失	-15375
个中	-15376
任意	-15377
低点	-15378
俘虏	-15379
决意	-15380
几家	-15381
分量	-15382
加盟	-15383
助力	-15384
单个	-15385
可悲	-15386
和海	-15387
圈子	-15388
地步	-15389
地讲	-15390
域内	-15391
大亨	-15392
大到	-15393
大厦	-15394
大局	-15395
大米	-15396
威权	-15397
寨卡	-15398
将此	-15399
少量	-15400
并存	-15401
幼稚	-15402
急速	-15403
所占	-15404
手册	-15405
拖欠	-15406
拿马	-15407
无几	-15408
无权	-15409
时点	-15410
明博	-15411
月度	-15412
条例	-15413
来者	-15414
极力	-15415
特工	-15416
狼藉	-15417
球迷	-15418
百年	-15419
种群	-15420
端的	-15421
约合	-15422
职场	-15423
菲特	-15424
诺言	-15425
调低	-15426
贴上	-15427
运河	-15428
通吃	-15429
避风	-15430
都已	-15431
重叠	-15432
防空	-15433
震荡	-15434
餐厅	-15435
高地	-15436
麻疹	-15437
/11	-15438
1.1	-15439
10—	-15440
CDU	-15441
ats	-15442
duc	-15443
min	-15444
rad	-15445
ual	-15446
ver	-15447
yri	-15448
▁不同	-15449
▁东亚	-15450
▁使用	-15451
▁其二	-15452
▁只是	-15453
▁实际	-15454
▁短期	-15455
▁第五	-15456
▁自然	-15457
不论是	-15458
不足的	-15459
两年内	-15460
了下来	-15461
享受着	-15462
人员和	-15463
人员的	-15464
从欧洲	-15465
以及为	-15466
会怎样	-15467
僵化的	-15468
出台了	-15469
制定出	-15470
发病率	-15471
古老的	-15472
同样也	-15473
在巴黎	-15474
在面对	-15475
多数人	-15476
大手笔	-15477
对希腊	-15478
将迫使	-15479
峰会的	-15480
已经使	-15481
市场化	-15482
并减少	-15483
并推动	-15484
应当是	-15485
开发商	-15486
必需的	-15487
怎么样	-15488
掌握着	-15489
提到的	-15490
改革者	-15491
明年的	-15492
是怎样	-15493
是欧盟	-15494
是那些	-15495
更高效	-15496
月开始	-15497
李明博	-15498
来支撑	-15499
每一位	-15500
每个月	-15501
比任何	-15502
理论的	-15503
的两倍	-15504
的主张	-15505
的军队	-15506
的农民	-15507
的姿态	-15508
的宪法	-15509
的忧虑	-15510
的情形	-15511
的来源	-15512
的特殊	-15513
的评论	-15514
真实的	-15515
米洛舍	-15516
而欧盟	-15517
股票和	-15518
自卫队	-15519
至今仍	-15520
艾森豪	-15521
萨勒曼	-15522
规定了	-15523
让那些	-15524
过高的	-15525
运动中	-15526
还要求	-15527
1978	-15528
2100	-15529
ques	-15530
tive	-15531
▁Man	-15532
▁Mon	-15533
▁如果要	-15534
▁有可能	-15535
▁第二种	-15536
七十年代	-15537
从中获益	-15538
以及欧洲	-15539
但他们的	-15540
克里斯蒂	-15541
公民自由	-15542
共同目标	-15543
关键领域	-15544
冷战时期	-15545
创业企业	-15546
医疗补助	-15547
十字路口	-15548
去监管化	-15549
可以继续	-15550
和乌克兰	-15551
在选举中	-15552
太阳能和	-15553
希望通过	-15554
我们这些	-15555
支付系统	-15556
政府需要	-15557
政治压力	-15558
更严格的	-15559
最有效的	-15560
有所改变	-15561
核心问题	-15562
欧洲需要	-15563
正常运转	-15564
沙特王国	-15565
治理结构	-15566
清算银行	-15567
生机勃勃	-15568
私人消费	-15569
经济机会	-15570
美国及其	-15571
能源需求	-15572
航空公司	-15573
萨尔瓦多	-15574
西方世界	-15575
要归功于	-15576
这一概念	-15577
,2009	-15578
Larry	-15579
▁尽管美国	-15580
▁所有人都	-15581
▁民粹主义	-15582
▁绝大多数	-15583
三分之一的	-15584
不足为奇了	-15585
众所周知的	-15586
北约成员国	-15587
基础设施的	-15588
富裕国家的	-15589
应该认识到	-15590
更加可持续	-15591
毫无意义的	-15592
的经济改革	-15593
艰巨的挑战	-15594
▁Group	-15595
不平等性加剧	-15596
宏观经济稳定	-15597
特朗普政府的	-15598
▁发自华盛顿特区	-15599
99	-15600
▁占	-15601
▁只	-15602
▁月	-15603
不停	-15604
专政	-15605
举债	-15606
令我	-15607
以求	-15608
传输	-15609
住所	-15610
偏袒	-15611
先生	-15612
内心	-15613
办事	-15614
半个	-15615
单靠	-15616
卡车	-15617
却又	-15618
又有	-15619
友谊	-15620
发誓	-15621
吸毒	-15622
回想	-15623
在向	-15624
坐等	-15625
墨尔	-15626
大增	-15627
天后	-15628
如下	-15629
察觉	-15630
少女	-15631
年起	-15632
弱小	-15633
得过	-15634
微型	-15635
意欲	-15636
成因	-15637
投降	-15638
挺身	-15639
措辞	-15640
施密	-15641
是件	-15642
是用	-15643
曼谷	-15644
有近	-15645
梅尼	-15646
欣赏	-15647
满了	-15648
父辈	-15649
版图	-15650
畅销	-15651
白白	-15652
研制	-15653
紧紧	-15654
自决	-15655
自尊	-15656
英法	-15657
血统	-15658
赖于	-15659
越长	-15660
违规	-15661
铁幕	-15662
错综	-15663
长大	-15664
难怪	-15665
饲养	-15666
首任	-15667
0.2	-15668
1/4	-15669
ren	-15670
▁保持	-15671
▁加强	-15672
▁更多	-15673
▁最初	-15674
▁紧缩	-15675
与会者	-15676
与伦比	-15677
与德国	-15678
个月中	-15679
中的一	-15680
也日益	-15681
了一致	-15682
以阻止	-15683
俄国人	-15684
全人类	-15685
其长期	-15686
准确的	-15687
出资者	-15688
利库德	-15689
又一场	-15690
同事们	-15691
和人口	-15692
和他们	-15693
和使用	-15694
和南非	-15695
和地方	-15696
和失业	-15697
和消费	-15698
国家对	-15699
基本的	-15700
墨尔本	-15701
复杂化	-15702
外交和	-15703
多数派	-15704
女性在	-15705
如此多	-15706
安全性	-15707
对任何	-15708
对社会	-15709
导致其	-15710
将影响	-15711
年大选	-15712
并实现	-15713
必须对	-15714
愚蠢的	-15715
所隐含	-15716
执政者	-15717
拉动型	-15718
政治局	-15719
敏感性	-15720
数千名	-15721
方设法	-15722
是这一	-15723
最令人	-15724
有信心	-15725
来看待	-15726
来看看	-15727
沙特人	-15728
活力和	-15729
消除了	-15730
深深地	-15731
甚至还	-15732
生存的	-15733
的一代	-15734
的记忆	-15735
的象征	-15736
突出的	-15737
等因素	-15738
纪念碑	-15739
网络的	-15740
罕见的	-15741
而其他	-15742
联盟党	-15743
让英国	-15744
让这些	-15745
证券化	-15746
该区域	-15747
避风港	-15748
需要有	-15749
鼓吹者	-15750
6000	-15751
Uber	-15752
cker	-15753
▁但人们	-15754
▁加拿大	-15755
▁只有当	-15756
▁突尼斯	-15757
▁该报告	-15758
一直保持	-15759
不断加剧	-15760
严重后果	-15761
中国需要	-15762
价值观的	-15763
修正主义	-15764
再次发生	-15765
冠状病毒	-15766
创造条件	-15767
卡尔扎伊	-15768
同样重要	-15769
和决策者	-15770
国内储蓄	-15771
国际发展	-15772
国际收支	-15773
国际经济	-15774
地区安全	-15775
坚持要求	-15776
增长前景	-15777
官僚主义	-15778
尽可能地	-15779
工人阶级	-15780
已经变得	-15781
帮助我们	-15782
意想不到	-15783
成为欧洲	-15784
所有问题	-15785
投资者们	-15786
挑战在于	-15787
政治力量	-15788
新领导人	-15789
方面发挥	-15790
更为重要	-15791
有可能会	-15792
的价值观	-15793
的例子是	-15794
的受访者	-15795
的是一个	-15796
盈利能力	-15797
目前已经	-15798
结果如何	-15799
计划中的	-15800
边际税率	-15801
这个目标	-15802
这些企业	-15803
那么我们	-15804
都出现了	-15805
重商主义	-15806
重新建立	-15807
银行部门	-15808
阿塞拜疆	-15809
阿里巴巴	-15810
Frank	-15811
ution	-15812
▁1998	-15813
▁中国经济	-15814
▁尼日利亚	-15815
▁有人认为	-15816
▁随着中国	-15817
其他地区的	-15818
基地组织的	-15819
提供更多的	-15820
的国家利益	-15821
的经济利益	-15822
的金融机构	-15823
碳氢化合物	-15824
究竟是什么	-15825
米洛舍维奇	-15826
资本市场的	-15827
问题的答案	-15828
马歇尔计划	-15829
▁Progr	-15830
▁但与此同时	-15831
▁如果特朗普	-15832
▁这就是为何	-15833
▁German	-15834
伊拉克和叙利亚	-15835
▁随着时间的推移	-15836
日本首相安倍晋三	-15837
联合国可持续发展目标	-15838
,4	-15839
53	-15840
PE	-15841
co	-15842
一党	-15843
不远	-15844
之火	-15845
事宜	-15846
亚尔	-15847
交接	-15848
人手	-15849
付钱	-15850
伪装	-15851
你会	-15852
供水	-15853
倒向	-15854
农药	-15855
决非	-15856
割裂	-15857
劝说	-15858
厄运	-15859
反感	-15860
可控	-15861
可达	-15862
周刊	-15863
回复	-15864
回落	-15865
固执	-15866
坚称	-15867
头版	-15868
安然	-15869
干净	-15870
幻灭	-15871
引渡	-15872
心怀	-15873
性格	-15874
房地	-15875
抹黑	-15876
攸关	-15877
斡旋	-15878
暗淡	-15879
欢欣	-15880
水源	-15881
汉堡	-15882
浓度	-15883
烂摊	-15884
电报	-15885
病的	-15886
的亲	-15887
的被	-15888
看重	-15889
私募	-15890
窒息	-15891
窘境	-15892
绝佳	-15893
联络	-15894
肥料	-15895
自足	-15896
苛刻	-15897
蛊惑	-15898
融化	-15899
西奥	-15900
要把	-15901
警觉	-15902
请愿	-15903
起步	-15904
逝世	-15905
邻近	-15906
防火	-15907
靠谱	-15908
面貌	-15909
鲁棒	-15910
1.9	-15911
2.3	-15912
2.6	-15913
3.3	-15914
Con	-15915
OMT	-15916
eld	-15917
ies	-15918
off	-15919
▁不能	-15920
▁乔治	-15921
▁人民	-15922
▁他是	-15923
▁外部	-15924
▁实施	-15925
▁应对	-15926
▁扩大	-15927
▁身为	-15928
不完全	-15929
不超过	-15930
但许多	-15931
发动的	-15932
各地的	-15933
图书馆	-15934
圣彼得	-15935
圣诞节	-15936
复苏的	-15937
奥尔默	-15938
将得到	-15939
将持续	-15940
将来自	-15941
年代和	-15942
应该以	-15943
志愿者	-15944
成熟的	-15945
所要求	-15946
所遭受	-15947
把我们	-15948
担心的	-15949
政府会	-15950
救世主	-15951
斗争的	-15952
新生儿	-15953
是人类	-15954
杠杆率	-15955
来承担	-15956
核威慑	-15957
棱两可	-15958
每一项	-15959
清晰地	-15960
的义务	-15961
的复杂	-15962
的平衡	-15963
的敌人	-15964
的朝鲜	-15965
的榜样	-15966
的汽车	-15967
的自然	-15968
的访问	-15969
相形见	-15970
确认了	-15971
立场的	-15972
签订了	-15973
维持着	-15974
而政府	-15975
而来的	-15976
让市场	-15977
责任和	-15978
连通性	-15979
高效的	-15980
高油价	-15981
Bern	-15982
Dani	-15983
FARC	-15984
ount	-15985
▁Rep	-15986
▁mon	-15987
▁事实是	-15988
▁匈牙利	-15989
▁只有在	-15990
▁在德国	-15991
▁在法国	-15992
▁或者说	-15993
▁比如在	-15994
一定程度	-15995
万亿欧元	-15996
与伊朗的	-15997
中期选举	-15998
仍然可以	-15999
债务减免	-16000
公司治理	-16001
公平竞争	-16002
关键因素	-16003
军事打击	-16004
决策者和	-16005
几个星期	-16006
利比亚的	-16007
制裁措施	-16008
危机前的	-16009
可能产生	-16010
司法系统	-16011
各式各样	-16012
因果关系	-16013
基本原则	-16014
如何影响	-16015
它们必须	-16016
导致美国	-16017
将自己的	-16018
就会发现	-16019
希腊退出	-16020
往常一样	-16021
德国经济	-16022
性别差距	-16023
愿意接受	-16024
我们看到	-16025
我们认为	-16026
把自己的	-16027
投资基金	-16028
投资机会	-16029
担任总理	-16030
整个经济	-16031
无可否认	-16032
最近宣布	-16033
现在必须	-16034
的政策和	-16035
的欧洲人	-16036
的特朗普	-16037
社会动荡	-16038
积极影响	-16039
能够确保	-16040
自由裁量	-16041
要大得多	-16042
证据证明	-16043
资产管理	-16044
这种现象	-16045
遭到破坏	-16046
金融公司	-16047
阿卜杜勒	-16048
需要通过	-16049
革命性的	-16050
预算盈余	-16051
Peter	-16052
—2010	-16053
▁1992	-16054
▁为了应对	-16055
▁圣地亚哥	-16056
▁如果这一	-16057
▁尽管存在	-16058
▁法国总统	-16059
▁特拉维夫	-16060
▁经合组织	-16061
世界最大的	-16062
佛罗里达州	-16063
全球供应链	-16064
前所未有地	-16065
发生了改变	-16066
可能会导致	-16067
在这方面的	-16068
存在巨大的	-16069
巴沙尔政权	-16070
所有国家都	-16071
拥有巨大的	-16072
的关键因素	-16073
的社会保障	-16074
的财政刺激	-16075
艾森豪威尔	-16076
▁World	-16077
▁越来越多的	-16078
两次世界大战	-16079
低收入国家的	-16080
前工业化水平	-16081
民族主义情绪	-16082
解决这些问题	-16083
贸易保护主义	-16084
reement	-16085
▁值得注意的是	-16086
形成了鲜明对比	-16087
LO	-16088
一刀	-16089
上一	-16090
上空	-16091
下而	-16092
不屑	-16093
中俄	-16094
为新	-16095
之大	-16096
乘客	-16097
九个	-16098
何况	-16099
光耀	-16100
公寓	-16101
其次	-16102
兼职	-16103
内外	-16104
内斯	-16105
利夫	-16106
前列	-16107
化身	-16108
医改	-16109
又一	-16110
名副	-16111
和梅	-16112
哈利	-16113
坦率	-16114
基什	-16115
多国	-16116
天生	-16117
天鹅	-16118
奋力	-16119
妖魔	-16120
字母	-16121
家中	-16122
富于	-16123
将向	-16124
广袤	-16125
急迫	-16126
执掌	-16127
抬高	-16128
敌视	-16129
文字	-16130
文献	-16131
暴徒	-16132
有形	-16133
本该	-16134
梵蒂	-16135
淡水	-16136
渔民	-16137
瓦纳	-16138
病态	-16139
瘟疫	-16140
相较	-16141
称作	-16142
纳斯	-16143
线上	-16144
线路	-16145
终将	-16146
绿党	-16147
能对	-16148
脱颖	-16149
腹泻	-16150
色情	-16151
菲尔	-16152
议长	-16153
识字	-16154
谅解	-16155
谢尔	-16156
越高	-16157
还给	-16158
退缩	-16159
OMC	-16160
com	-16161
ins	-16162
ory	-16163
ram	-16164
▁什么	-16165
▁但有	-16166
▁允许	-16167
▁提供	-16168
▁纵观	-16169
▁网络	-16170
▁苏联	-16171
▁试想	-16172
▁面临	-16173
不但是	-16174
不动产	-16175
东正教	-16176
也只有	-16177
也表明	-16178
了很多	-16179
他们还	-16180
以致于	-16181
公民权	-16182
关系中	-16183
具备了	-16184
军事化	-16185
准备着	-16186
出一辙	-16187
利润的	-16188
制度下	-16189
副总理	-16190
占领了	-16191
古吉拉	-16192
和生物	-16193
商学院	-16194
在上述	-16195
在解决	-16196
姆斯特	-16197
寄生虫	-16198
工具和	-16199
年年中	-16200
并允许	-16201
戏剧性	-16202
批评家	-16203
投机性	-16204
推出的	-16205
政策上	-16206
是一名	-16207
是政治	-16208
更严重	-16209
李光耀	-16210
梵蒂冈	-16211
正在为	-16212
特里谢	-16213
独立党	-16214
理想的	-16215
病人的	-16216
的中东	-16217
的境地	-16218
的外部	-16219
的对抗	-16220
的巨额	-16221
的快速	-16222
的渴望	-16223
的进口	-16224
竞争中	-16225
第四个	-16226
美国是	-16227
而获得	-16228
行动者	-16229
衰退中	-16230
讨论了	-16231
许可证	-16232
试图用	-16233
都具有	-16234
韩国人	-16235
领袖们	-16236
驱逐出	-16237
▁也有人	-16238
▁但欧盟	-16239
▁在日本	-16240
▁在没有	-16241
▁最大的	-16242
▁鲁哈尼	-16243
三中全会	-16244
但并没有	-16245
做的事情	-16246
入主白宫	-16247
全球卫生	-16248
六方会谈	-16249
共同市场	-16250
其他人的	-16251
出口增长	-16252
制度改革	-16253
博科圣地	-16254
叛乱分子	-16255
古吉拉特	-16256
可能最终	-16257
名副其实	-16258
因为政府	-16259
土地使用	-16260
在历史上	-16261
在墨西哥	-16262
在过去的	-16263
地区稳定	-16264
季莫申科	-16265
实际工资	-16266
对欧洲的	-16267
将其视为	-16268
就职演说	-16269
开放市场	-16270
形成鲜明	-16271
想方设法	-16272
慈善机构	-16273
政府开支	-16274
政治学家	-16275
斯蒂格尔	-16276
方方面面	-16277
无法承受	-16278
无法接受	-16279
最伟大的	-16280
最强大的	-16281
模棱两可	-16282
欧洲工程	-16283
正在逐渐	-16284
治疗方法	-16285
的天然气	-16286
直接影响	-16287
石油收入	-16288
立法机关	-16289
竞选期间	-16290
而产生的	-16291
而导致的	-16292
而是为了	-16293
要求美国	-16294
负担得起	-16295
身份政治	-16296
进行改革	-16297
长期存在	-16298
▁Sand	-16299
▁其中一些	-16300
一次又一次	-16301
中国和其他	-16302
主要集中在	-16303
后共产主义	-16304
市场参与者	-16305
形成了一个	-16306
所有国家的	-16307
欧洲和日本	-16308
欧洲央行和	-16309
正确的方向	-16310
由此带来的	-16311
的一份报告	-16312
的生活方式	-16313
▁Front	-16314
▁新兴经济体	-16315
变得更加困难	-16316
是不可避免的	-16317
经济学家认为	-16318
▁National	-16319
▁Initiative	-16320
66	-16321
Am	-16322
▁假	-16323
上游	-16324
不均	-16325
不放	-16326
之国	-16327
其为	-16328
冰盖	-16329
冲绳	-16330
分开	-16331
制订	-16332
劳力	-16333
古怪	-16334
后才	-16335
塔吉	-16336
大打	-16337
大片	-16338
威茨	-16339
家乡	-16340
尔逊	-16341
库什	-16342
引诱	-16343
当我	-16344
德华	-16345
怀旧	-16346
手法	-16347
抗争	-16348
拜登	-16349
捉摸	-16350
收场	-16351
收容	-16352
改写	-16353
易于	-16354
有钱	-16355
机和	-16356
村民	-16357
查理	-16358
梅尔	-16359
橄榄	-16360
法郎	-16361
注射	-16362
派对	-16363
浓厚	-16364
渐行	-16365
灭亡	-16366
特纳	-16367
玩弄	-16368
珊瑚	-16369
理顺	-16370
疲劳	-16371
病原	-16372
的同	-16373
直观	-16374
着实	-16375
知晓	-16376
竞相	-16377
翻译	-16378
聚会	-16379
舞弊	-16380
被指	-16381
课以	-16382
赤贫	-16383
身陷	-16384
转嫁	-16385
输掉	-16386
过大	-16387
近在	-16388
队的	-16389
雅克	-16390
颓势	-16391
首选	-16392
高压	-16393
鲁兹	-16394
2.1	-16395
SPD	-16396
emy	-16397
·11	-16398
▁ch	-16399
▁一场	-16400
▁不但	-16401
▁仍然	-16402
▁同理	-16403
▁地球	-16404
▁它是	-16405
▁有趣	-16406
▁税收	-16407
▁米兰	-16408
▁获得	-16409
▁议会	-16410
▁造成	-16411
▁难道	-16412
下一场	-16413
下个月	-16414
不完美	-16415
不景气	-16416
不止于	-16417
两国在	-16418
之又少	-16419
也希望	-16420
了一种	-16421
从前的	-16422
代名词	-16423
代表性	-16424
代议制	-16425
以帮助	-16426
以时日	-16427
会持续	-16428
供给端	-16429
克里斯	-16430
其原因	-16431
前主席	-16432
前提是	-16433
占据着	-16434
去核化	-16435
参谋长	-16436
发起的	-16437
可以和	-16438
和人权	-16439
增加对	-16440
大自然	-16441
对一个	-16442
对美元	-16443
将利率	-16444
将更加	-16445
将破坏	-16446
尼日尔	-16447
工业园	-16448
已有的	-16449
席之地	-16450
年年底	-16451
开始在	-16452
当下的	-16453
当美国	-16454
微生物	-16455
总人口	-16456
意思是	-16457
我相信	-16458
才能让	-16459
投入品	-16460
挑战和	-16461
条道路	-16462
来换取	-16463
极低的	-16464
极左翼	-16465
桑比克	-16466
流向了	-16467
渐行渐	-16468
漫长而	-16469
现金流	-16470
现阶段	-16471
的可靠	-16472
的强大	-16473
的迅速	-16474
种族和	-16475
第一轮	-16476
而印度	-16477
而增加	-16478
而得到	-16479
臂之力	-16480
自由党	-16481
行为和	-16482
衡量的	-16483
表现在	-16484
设备和	-16485
证明其	-16486
该项目	-16487
贷款和	-16488
迎来了	-16489
这样说	-16490
进程中	-16491
透明的	-16492
都会被	-16493
都属于	-16494
都支持	-16495
难民的	-16496
非法的	-16497
1972	-16498
▁Car	-16499
▁dom	-16500
▁他们说	-16501
▁但也有	-16502
▁在去年	-16503
▁在经济	-16504
▁它们是	-16505
▁很明显	-16506
▁消费者	-16507
▁这或许	-16508
两国政府	-16509
严重不足	-16510
人们可以	-16511
从而实现	-16512
伊曼纽尔	-16513
保护自己	-16514
储蓄过剩	-16515
六十年代	-16516
养老基金	-16517
北大西洋	-16518
压倒性的	-16519
可能破坏	-16520
向全世界	-16521
国际足联	-16522
在欧洲的	-16523
增长引擎	-16524
如果中国	-16525
安全保障	-16526
完全不同	-16527
少之又少	-16528
年代早期	-16529
年轻一代	-16530
延续下去	-16531
必须采取	-16532
战争期间	-16533
所引起的	-16534
政治人物	-16535
无法确定	-16536
有时甚至	-16537
橙色革命	-16538
油价下跌	-16539
法律框架	-16540
环境问题	-16541
生产效率	-16542
由来已久	-16543
的什叶派	-16544
的国家中	-16545
的时间里	-16546
相互作用	-16547
空气质量	-16548
系统性的	-16549
美国需要	-16550
能够帮助	-16551
自动化的	-16552
被证明是	-16553
超过美国	-16554
进行投资	-16555
迷你电网	-16556
金融产品	-16557
非常清楚	-16558
领导者的	-16559
,2017	-16560
Andre	-16561
JCPOA	-16562
Trans	-16563
ublic	-16564
—2014	-16565
▁that	-16566
▁世界经济	-16567
▁美国政府	-16568
▁这是一项	-16569
伊朗领导人	-16570
俄罗斯经济	-16571
国家之间的	-16572
很有可能会	-16573
最大经济体	-16574
欧洲国家的	-16575
特别是那些	-16576
艰巨的任务	-16577
▁Democ	-16578
伊斯兰共和国	-16579
创造就业岗位	-16580
欧盟成员国的	-16581
▁现在的问题是	-16582
诺贝尔奖获得者	-16583
▁Bernanke	-16584
73	-16585
RG	-16586
gh	-16587
一向	-16588
一生	-16589
不开	-16590
举步	-16591
争斗	-16592
互利	-16593
交谈	-16594
产值	-16595
住在	-16596
公斤	-16597
冬天	-16598
利他	-16599
十六	-16600
单身	-16601
卡路	-16602
卢卡	-16603
参观	-16604
名人	-16605
名称	-16606
后悔	-16607
向往	-16608
和南	-16609
哥拉	-16610
团伙	-16611
基亚	-16612
复原	-16613
大行	-16614
天花	-16615
好奇	-16616
容纳	-16617
导师	-16618
小泉	-16619
尘埃	-16620
并从	-16621
录像	-16622
得票	-16623
所致	-16624
拉贾	-16625
推崇	-16626
时尚	-16627
朝向	-16628
本营	-16629
格格	-16630
死了	-16631
死的	-16632
派出	-16633
浮出	-16634
涉嫌	-16635
漫画	-16636
灵感	-16637
热量	-16638
燃油	-16639
狂欢	-16640
看不	-16641
硬件	-16642
祈祷	-16643
神奇	-16644
章程	-16645
等价	-16646
给定	-16647
美分	-16648
胃口	-16649
能被	-16650
臃肿	-16651
自拔	-16652
菲永	-16653
落在	-16654
虚构	-16655
认证	-16656
贬低	-16657
辍学	-16658
辖区	-16659
这片	-16660
这股	-16661
铲除	-16662
错过	-16663
问鼎	-16664
阵痛	-16665
陆地	-16666
院校	-16667
隐蔽	-16668
雄厚	-16669
高调	-16670
默默	-16671
10.	-16672
11%	-16673
3.2	-16674
7.5	-16675
ECB	-16676
GCC	-16677
aid	-16678
ana	-16679
pos	-16680
tec	-16681
▁宗教	-16682
▁当我	-16683
▁早在	-16684
▁荷兰	-16685
▁重新	-16686
▁阻止	-16687
一个有	-16688
不一致	-16689
不公正	-16690
不结盟	-16691
不至于	-16692
与经济	-16693
中汲取	-16694
为这一	-16695
也正是	-16696
也认为	-16697
他可以	-16698
令他们	-16699
以每年	-16700
以牺牲	-16701
兑现其	-16702
军队和	-16703
减少到	-16704
分裂的	-16705
制度化	-16706
加速了	-16707
却并未	-16708
咄咄逼	-16709
和外交	-16710
和能力	-16711
团体的	-16712
圣保罗	-16713
圣战者	-16714
塔伊普	-16715
境内的	-16716
多世纪	-16717
如是说	-16718
学术界	-16719
官员和	-16720
实行了	-16721
对某些	-16722
就成为	-16723
就更加	-16724
尽管他	-16725
年以前	-16726
年夏天	-16727
并提供	-16728
应该把	-16729
废除了	-16730
当然是	-16731
得出的	-16732
必须让	-16733
所接受	-16734
扼杀了	-16735
技术性	-16736
提振了	-16737
方面所	-16738
无核化	-16739
普通的	-16740
更像是	-16741
月份的	-16742
有时会	-16743
来满足	-16744
死亡的	-16745
烂摊子	-16746
现时代	-16747
的伤害	-16748
的公开	-16749
的农业	-16750
的性质	-16751
的战斗	-16752
的技能	-16753
的比率	-16754
的生存	-16755
的真相	-16756
的私人	-16757
相当长	-16758
看成是	-16759
破坏力	-16760
福利的	-16761
纳福特	-16762
而遭受	-16763
英国将	-16764
袭击了	-16765
论文中	-16766
该报告	-16767
诺斯艾	-16768
调查中	-16769
贫民窟	-16770
赖喇嘛	-16771
这么多	-16772
通胀和	-16773
阶段的	-16774
阿布哈	-16775
陈词滥	-16776
零排放	-16777
霍梅尼	-16778
霸权的	-16779
面前的	-16780
领土上	-16781
鼓励了	-16782
Alan	-16783
▁Bro	-16784
▁传统上	-16785
▁但只有	-16786
▁但无论	-16787
▁但日本	-16788
▁意味着	-16789
上述目标	-16790
不平等的	-16791
与叙利亚	-16792
为自己的	-16793
也是一样	-16794
令人满意	-16795
减税政策	-16796
卡尔德隆	-16797
反犹主义	-16798
可以减少	-16799
商业利益	-16800
国内政策	-16801
圣彼得堡	-16802
圣战分子	-16803
基因工程	-16804
增长潜力	-16805
外国公司	-16806
大幅减少	-16807
奥尔默特	-16808
如出一辙	-16809
家庭消费	-16810
市场上的	-16811
应该考虑	-16812
弗朗索瓦	-16813
悲哀的是	-16814
意义重大	-16815
才能确保	-16816
担心的是	-16817
拯救生命	-16818
改变现状	-16819
政治问题	-16820
无法控制	-16821
无法避免	-16822
旷日持久	-16823
昂山素季	-16824
格格不入	-16825
每一美元	-16826
确切地说	-16827
社会保险	-16828
稳定机制	-16829
粮食生产	-16830
美国国家	-16831
能够保持	-16832
解决这一	-16833
解决这些	-16834
许多人都	-16835
许多地方	-16836
贸易部门	-16837
边境调节	-16838
这一模式	-16839
这些数字	-16840
这些数据	-16841
都能获得	-16842
重新回到	-16843
金融抑制	-16844
长期投资	-16845
需要新的	-16846
Charl	-16847
▁有趣的是	-16848
▁经济增长	-16849
▁这种做法	-16850
▁遗憾的是	-16851
也同样如此	-16852
从现在开始	-16853
华盛顿邮报	-16854
周年纪念日	-16855
在未来十年	-16856
姆斯菲尔德	-16857
宏观经济学	-16858
数以百万计	-16859
新兴国家的	-16860
是一个错误	-16861
极端主义者	-16862
气候变化和	-16863
沃尔福威茨	-16864
环保主义者	-16865
的人均收入	-16866
的工作岗位	-16867
造成巨大的	-16868
雄心勃勃的	-16869
巴勒斯坦民族	-16870
货币市场基金	-16871
▁Center	-16872
AA	-16873
MI	-16874
▁亚	-16875
一丝	-16876
一击	-16877
三世	-16878
下游	-16879
专长	-16880
业已	-16881
严密	-16882
之情	-16883
他又	-16884
仰仗	-16885
低价	-16886
儒家	-16887
先驱	-16888
全盘	-16889
八个	-16890
内涵	-16891
冰山	-16892
冲销	-16893
出面	-16894
分校	-16895
功劳	-16896
助产	-16897
单单	-16898
卡因	-16899
即时	-16900
厘清	-16901
参照	-16902
向上	-16903
回流	-16904
在任	-16905
地铁	-16906
多余	-16907
媒介	-16908
学界	-16909
安东	-16910
巴克	-16911
开会	-16912
引力	-16913
心中	-16914
意地	-16915
我是	-16916
或被	-16917
战事	-16918
打了	-16919
扫清	-16920
排挤	-16921
援手	-16922
支援	-16923
教室	-16924
教导	-16925
散布	-16926
既成	-16927
来做	-16928
杰普	-16929
柴油	-16930
污点	-16931
泛美	-16932
泥潭	-16933
王室	-16934
疼痛	-16935
痕迹	-16936
的长	-16937
礼貌	-16938
离谱	-16939
粮农	-16940
纽带	-16941
美孚	-16942
而知	-16943
育儿	-16944
脚跟	-16945
致的	-16946
舍尔	-16947
茂德	-16948
被占	-16949
计入	-16950
论的	-16951
误判	-16952
谁能	-16953
足迹	-16954
里拉	-16955
钻井	-16956
门户	-16957
阴暗	-16958
霍夫	-16959
非凡	-16960
饭碗	-16961
3.6	-16962
Ken	-16963
PPP	-16964
act	-16965
isc	-16966
ump	-16967
▁不可	-16968
▁每天	-16969
▁都是	-16970
不情愿	-16971
与英国	-16972
中没有	-16973
丽莎白	-16974
之下的	-16975
事务中	-16976
会削弱	-16977
伤害了	-16978
伯利亚	-16979
但同时	-16980
使我们	-16981
党派的	-16982
冲击的	-16983
出生的	-16984
到现在	-16985
制造出	-16986
即便在	-16987
即将在	-16988
吸引着	-16989
和平和	-16990
和瑞典	-16991
在面临	-16992
奥塞梯	-16993
完全不	-16994
实质上	-16995
密特朗	-16996
对德国	-16997
将变得	-16998
尼赫鲁	-16999
平均为	-17000
开发的	-17001
情况是	-17002
愤怒的	-17003
成立于	-17004
或间接	-17005
手段的	-17006
提出要	-17007
放在了	-17008
放大了	-17009
是一家	-17010
是实现	-17011
是所有	-17012
曾经的	-17013
最喜欢	-17014
来完成	-17015
核问题	-17016
法兰西	-17017
消费量	-17018
的一方	-17019
的下跌	-17020
的估计	-17021
的兴趣	-17022
的刺激	-17023
的反腐	-17024
的新书	-17025
的治理	-17026
的种族	-17027
称得上	-17028
等国的	-17029
管辖权	-17030
维生素	-17031
而只是	-17032
而现在	-17033
背负着	-17034
自己是	-17035
被问及	-17036
计划将	-17037
认真地	-17038
议会的	-17039
转换为	-17040
这也许	-17041
通过在	-17042
都希望	-17043
高利率	-17044
高回报	-17045
高失业	-17046
1.25	-17047
rist	-17048
▁乍一看	-17049
▁但因为	-17050
▁但德国	-17051
▁在希腊	-17052
▁对许多	-17053
▁我希望	-17054
▁批评者	-17055
▁更好的	-17056
下降到了	-17057
不合时宜	-17058
业务模式	-17059
乌克兰人	-17060
从本质上	-17061
以及中国	-17062
价格下跌	-17063
伊丽莎白	-17064
但是他们	-17065
候选人都	-17066
兑现承诺	-17067
出手干预	-17068
利用这一	-17069
包括那些	-17070
医学研究	-17071
可以接受	-17072
可以用于	-17073
司法体系	-17074
和共和党	-17075
和葡萄牙	-17076
因此必须	-17077
在土耳其	-17078
基什内尔	-17079
外部需求	-17080
多数国家	-17081
奠定基础	-17082
密切相关	-17083
将会继续	-17084
并不完全	-17085
必须确保	-17086
所持有的	-17087
持续时间	-17088
政治改革	-17089
暴力事件	-17090
最近指出	-17091
某种方式	-17092
欢欣鼓舞	-17093
正在走向	-17094
没人知道	-17095
活跃分子	-17096
流动性和	-17097
流动资金	-17098
渐行渐远	-17099
特别是当	-17100
相当长的	-17101
碳排放量	-17102
社会责任	-17103
纳米比亚	-17104
经济模式	-17105
统治下的	-17106
美国宪法	-17107
美国家庭	-17108
融资成本	-17109
贫富差距	-17110
跨国企业	-17111
这些改革	-17112
进行评估	-17113
陷入瘫痪	-17114
零和博弈	-17115
领土完整	-17116
首要任务	-17117
earch	-17118
ilton	-17119
▁comp	-17120
▁尤其是在	-17121
严峻的挑战	-17122
之所以如此	-17123
也不太可能	-17124
储蓄和投资	-17125
和安全政策	-17126
和气候变化	-17127
喜马拉雅山	-17128
埃克森美孚	-17129
实体经济的	-17130
市场经济的	-17131
德国和法国	-17132
总统选举中	-17133
特别是如果	-17134
的唯一办法	-17135
自上而下的	-17136
诺斯艾利斯	-17137
▁Fried	-17138
▁奥巴马政府	-17139
凯恩斯主义者	-17140
劳动力参与率	-17141
国务卿希拉里	-17142
所带来的好处	-17143
法国和意大利	-17144
认识到这一点	-17145
▁具有讽刺意味的是	-17146
诺贝尔经济学奖获得者	-17147
2—	-17148
61	-17149
69	-17150
Ad	-17151
En	-17152
PR	-17153
SN	-17154
▁老	-17155
不然	-17156
主角	-17157
之嫌	-17158
人说	-17159
从业	-17160
代言	-17161
以期	-17162
传导	-17163
传说	-17164
公报	-17165
其道	-17166
兼容	-17167
农地	-17168
分权	-17169
刑法	-17170
删除	-17171
剧增	-17172
勾勒	-17173
千禧	-17174
博茨	-17175
去做	-17176
又被	-17177
双轨	-17178
向着	-17179
告别	-17180
国旗	-17181
国营	-17182
在必	-17183
坏账	-17184
外表	-17185
好好	-17186
妄想	-17187
子弹	-17188
对它	-17189
就不	-17190
尸体	-17191
并用	-17192
影像	-17193
得知	-17194
情境	-17195
所受	-17196
把这	-17197
担负	-17198
拉宾	-17199
撕毁	-17200
敲响	-17201
施行	-17202
无形	-17203
日在	-17204
未被	-17205
末期	-17206
杰里	-17207
模拟	-17208
次数	-17209
欧安	-17210
歪曲	-17211
流域	-17212
消防	-17213
温暖	-17214
玩笑	-17215
画面	-17216
看清	-17217
眼球	-17218
石头	-17219
硬币	-17220
离任	-17221
称赞	-17222
管治	-17223
绥靖	-17224
自负	-17225
获奖	-17226
西尔	-17227
视同	-17228
评分	-17229
话说	-17230
诱人	-17231
说成	-17232
谷物	-17233
贝巴	-17234
路德	-17235
还得	-17236
还款	-17237
逾越	-17238
遵从	-17239
邻邦	-17240
里尼	-17241
陈旧	-17242
雅尔	-17243
黑手	-17244
0.8	-17245
You	-17246
kel	-17247
ler	-17248
▁加州	-17249
▁及其	-17250
▁哪怕	-17251
▁明年	-17252
▁更有	-17253
▁此类	-17254
▁看看	-17255
一定要	-17256
一边倒	-17257
也逐渐	-17258
产品和	-17259
从而将	-17260
以使其	-17261
以减少	-17262
以后的	-17263
伊朗在	-17264
会变得	-17265
但仍有	-17266
但显然	-17267
克服了	-17268
公布的	-17269
其中最	-17270
其前任	-17271
动力的	-17272
协议中	-17273
历史和	-17274
又开始	-17275
反应是	-17276
另一项	-17277
可见的	-17278
和出口	-17279
和我们	-17280
和财政	-17281
因此在	-17282
国际上	-17283
在那些	-17284
增长到	-17285
左右的	-17286
巴拿马	-17287
布什的	-17288
并利用	-17289
当权者	-17290
很强的	-17291
总数的	-17292
意见的	-17293
或美国	-17294
批判性	-17295
承诺在	-17296
放射性	-17297
是一条	-17298
是十分	-17299
是政府	-17300
有缺陷	-17301
有资格	-17302
本身就	-17303
正是在	-17304
治疗的	-17305
法基斯	-17306
注定会	-17307
爆发前	-17308
犯下了	-17309
犹太教	-17310
男性和	-17311
男性的	-17312
的不良	-17313
的专家	-17314
的双重	-17315
的意见	-17316
的普及	-17317
的现状	-17318
的研发	-17319
的答案	-17320
的约束	-17321
的语言	-17322
的过去	-17323
眼前的	-17324
第二天	-17325
算得上	-17326
结合了	-17327
美关系	-17328
能成功	-17329
萨达特	-17330
补贴和	-17331
认为它	-17332
访问了	-17333
该行业	-17334
趋势的	-17335
进出口	-17336
部门和	-17337
都将是	-17338
雷杰普	-17339
非营利	-17340
8000	-17341
ical	-17342
ject	-17343
▁他指出	-17344
▁但印度	-17345
▁但这是	-17346
▁唯一的	-17347
▁大规模	-17348
下降趋势	-17349
不可侵犯	-17350
中美两国	-17351
举步维艰	-17352
也可能会	-17353
也很重要	-17354
也是为了	-17355
人口数量	-17356
仍然十分	-17357
令人不快	-17358
令人感到	-17359
以巴冲突	-17360
以此作为	-17361
任何地方	-17362
但它们的	-17363
做出改变	-17364
公立学校	-17365
共同繁荣	-17366
利率上升	-17367
加入其中	-17368
协调一致	-17369
博茨瓦纳	-17370
卫生服务	-17371
印度总理	-17372
双管齐下	-17373
叙利亚人	-17374
和伊斯兰	-17375
和加勒比	-17376
和爱尔兰	-17377
在意大利	-17378
在特朗普	-17379
大大降低	-17380
大经济体	-17381
奇怪的是	-17382
如何实现	-17383
姆斯特丹	-17384
密切合作	-17385
对此表示	-17386
尤为重要	-17387
工作年龄	-17388
已经达到	-17389
带来好处	-17390
应该包括	-17391
建立起来	-17392
必须承认	-17393
快速变化	-17394
总人口的	-17395
找到办法	-17396
提振增长	-17397
收效甚微	-17398
政府政策	-17399
日益加剧	-17400
暂时性的	-17401
最佳实践	-17402
正在成为	-17403
正在试图	-17404
民营企业	-17405
民间团体	-17406
的帮助下	-17407
的观点是	-17408
相互关联	-17409
税收减免	-17410
等国家的	-17411
精神疾病	-17412
经济中的	-17413
继续进行	-17414
莫桑比克	-17415
要求政府	-17416
这一方向	-17417
这么一个	-17418
这些趋势	-17419
选战期间	-17420
重新审视	-17421
重要影响	-17422
重要问题	-17423
金氏政权	-17424
阿布哈兹	-17425
陈词滥调	-17426
陷入麻烦	-17427
预算平衡	-17428
ugman	-17429
▁1991	-17430
▁中央银行	-17431
▁为了确保	-17432
▁如果不是	-17433
▁这一政策	-17434
▁重要的是	-17435
之间的合作	-17436
从而进一步	-17437
以色列政府	-17438
发布了一份	-17439
发生的事件	-17440
在过去十年	-17441
对经济增长	-17442
岁以下儿童	-17443
已经出现了	-17444
已经失去了	-17445
教育和培训	-17446
真正的问题	-17447
美国的利益	-17448
运转良好的	-17449
这个问题上	-17450
金融和经济	-17451
20,000	-17452
econom	-17453
▁发自纽黑文	-17454
乌兹别克斯坦	-17455
所造成的影响	-17456
欧洲中央银行	-17457
灾难性的后果	-17458
▁从这个意义上	-17459
宽松的货币政策	-17460
逊尼派和什叶派	-17461
▁Krugman	-17462
二十世纪九十年代	-17463
巴勒斯坦权力机构	-17464
还有很长的路要走	-17465
诺贝尔经济学奖得主	-17466
▁Investment	-17467
52	-17468
CT	-17469
we	-17470
▁$	-17471
▁[	-17472
▁既	-17473
▁罗	-17474
一窥	-17475
不稳	-17476
之列	-17477
之梦	-17478
也令	-17479
交出	-17480
人皆	-17481
今时	-17482
代夫	-17483
伯尼	-17484
但要	-17485
兰德	-17486
兴未	-17487
写作	-17488
军演	-17489
几近	-17490
刑警	-17491
则将	-17492
利特	-17493
反响	-17494
反射	-17495
发掘	-17496
取暖	-17497
受众	-17498
受助	-17499
告诫	-17500
和低	-17501
地是	-17502
塔米	-17503
安纳	-17504
实物	-17505
尾声	-17506
已将	-17507
弗林	-17508
归为	-17509
很强	-17510
德罗	-17511
怀抱	-17512
我国	-17513
截了	-17514
所未	-17515
抛开	-17516
抵扣	-17517
排在	-17518
推论	-17519
敞开	-17520
旦旦	-17521
明日	-17522
最先	-17523
某人	-17524
死胡	-17525
毁坏	-17526
每日	-17527
水泥	-17528
汉森	-17529
没法	-17530
浪漫	-17531
涅托	-17532
漠视	-17533
热病	-17534
然大	-17535
犀牛	-17536
现成	-17537
瓦拉	-17538
电站	-17539
的净	-17540
的本	-17541
私利	-17542
穿着	-17543
站稳	-17544
等量	-17545
精诚	-17546
绝无	-17547
联军	-17548
肤浅	-17549
肥沃	-17550
臭氧	-17551
至上	-17552
萌芽	-17553
蒙蔽	-17554
要多	-17555
誓言	-17556
诋毁	-17557
诱导	-17558
象牙	-17559
财力	-17560
赛尔	-17561
走在	-17562
较之	-17563
这块	-17564
退步	-17565
遥遥	-17566
邻为	-17567
问问	-17568
附属	-17569
集结	-17570
集群	-17571
领海	-17572
香烟	-17573
,10	-17574
13%	-17575
45%	-17576
ave	-17577
ruc	-17578
▁Or	-17579
▁信息	-17580
▁并非	-17581
▁直接	-17582
▁缺乏	-17583
▁过度	-17584
▁那时	-17585
▁风险	-17586
三角洲	-17587
不相容	-17588
与过去	-17589
两方面	-17590
严肃的	-17591
个性化	-17592
个月后	-17593
了一点	-17594
享有的	-17595
什维利	-17596
以市场	-17597
价值和	-17598
会降低	-17599
但人们	-17600
保证了	-17601
债券和	-17602
做准备	-17603
像过去	-17604
兴未艾	-17605
其如此	-17606
加深了	-17607
助产士	-17608
劳动法	-17609
升高的	-17610
原有的	-17611
反对票	-17612
发起了	-17613
只限于	-17614
吉尼亚	-17615
同情心	-17616
后果的	-17617
和破坏	-17618
和许多	-17619
团结的	-17620
国与国	-17621
在一边	-17622
在不同	-17623
在公共	-17624
在财政	-17625
在这场	-17626
塞罗那	-17627
外部性	-17628
大学和	-17629
大错特	-17630
女性和	-17631
婴儿潮	-17632
安哥拉	-17633
完整性	-17634
对金融	-17635
就业的	-17636
尽管它	-17637
工资税	-17638
年左右	-17639
并保持	-17640
并成为	-17641
并接受	-17642
强国的	-17643
彻斯特	-17644
忘记了	-17645
总是会	-17646
愿意为	-17647
战争后	-17648
批准的	-17649
捐助国	-17650
捐助者	-17651
提出过	-17652
文尼亚	-17653
新一届	-17654
普什图	-17655
更健康	-17656
更广义	-17657
更强大	-17658
更稳定	-17659
最亲密	-17660
最近对	-17661
有力地	-17662
有损于	-17663
欢迎的	-17664
欧元和	-17665
汽车和	-17666
泡沫的	-17667
物联网	-17668
百分之	-17669
的动机	-17670
的成果	-17671
的提案	-17672
的梦想	-17673
的生物	-17674
的考验	-17675
的背后	-17676
的自我	-17677
直截了	-17678
相比较	-17679
着重于	-17680
破产法	-17681
签订的	-17682
罪行的	-17683
而变得	-17684
萨利赫	-17685
被美国	-17686
角色的	-17687
讨论中	-17688
话语权	-17689
财富税	-17690
足以让	-17691
过渡到	-17692
退休者	-17693
FOMC	-17694
form	-17695
ower	-17696
▁也许是	-17697
▁印度的	-17698
▁年轻人	-17699
▁我们对	-17700
▁有时候	-17701
▁芝加哥	-17702
上市公司	-17703
不仅没有	-17704
不仅需要	-17705
不再能够	-17706
不断提高	-17707
不断膨胀	-17708
两国关系	-17709
中国崛起	-17710
二十年的	-17711
二战后的	-17712
产生影响	-17713
他们希望	-17714
他们没有	-17715
但同时也	-17716
住房价格	-17717
偿债能力	-17718
全球合作	-17719
公共开支	-17720
几十年前	-17721
发生冲突	-17722
取得胜利	-17723
可以忽略	-17724
可以说是	-17725
可能因为	-17726
和太阳能	-17727
国民议会	-17728
国际储备	-17729
国际援助	-17730
国际能源	-17731
基本权利	-17732
增加支出	-17733
外部赤字	-17734
大幅贬值	-17735
大马士革	-17736
存在一个	-17737
实现和平	-17738
对外援助	-17739
已经过去	-17740
并不十分	-17741
开始实施	-17742
意料之外	-17743
感到失望	-17744
我们可能	-17745
所拥有的	-17746
所进行的	-17747
所领导的	-17748
技术变革	-17749
挺身而出	-17750
政权更迭	-17751
方兴未艾	-17752
方面起到	-17753
无与伦比	-17754
无法想象	-17755
无法提供	-17756
是世界上	-17757
更严重的	-17758
最近一次	-17759
根本问题	-17760
框架公约	-17761
欧盟必须	-17762
正常化的	-17763
民主党的	-17764
没有能力	-17765
的新技术	-17766
的消费者	-17767
确实如此	-17768
穆斯林的	-17769
经济体中	-17770
至少部分	-17771
苏联时代	-17772
衡量标准	-17773
要求他们	-17774
观点认为	-17775
财富效应	-17776
边缘化的	-17777
过剩产能	-17778
还有许多	-17779
这座城市	-17780
重大进展	-17781
金砖四国	-17782
铺平道路	-17783
非常相似	-17784
▁与此相反	-17785
▁从长期看	-17786
▁众所周知	-17787
▁但大部分	-17788
▁这一结果	-17789
▁这是一种	-17790
▁金融危机	-17791
中欧和东欧	-17792
人民币贬值	-17793
伊朗核协议	-17794
债券收益率	-17795
儿童基金会	-17796
单一市场的	-17797
国有企业和	-17798
在一夜之间	-17799
已经成为了	-17800
并不是因为	-17801
才刚刚开始	-17802
有可能成为	-17803
有吸引力的	-17804
的最重要的	-17805
的社会福利	-17806
管理委员会	-17807
结合在一起	-17808
联合国宪章	-17809
还为时过早	-17810
这两个国家	-17811
迫切需要的	-17812
领导的政府	-17813
马萨诸塞州	-17814
illiam	-17815
▁从历史上看	-17816
▁在此过程中	-17817
▁在许多国家	-17818
全球金融市场	-17819
在这个问题上	-17820
宜诺斯艾利斯	-17821
州和地方政府	-17822
本月早些时候	-17823
的发展中国家	-17824
造成了巨大的	-17825
非传染性疾病	-17826
▁实现这一目标	-17827
五大常任理事国	-17828
印度和巴基斯坦	-17829
▁Friedman	-17830
欧洲央行行长德拉吉	-17831
达沃斯世界经济论坛	-17832
比以往任何时候都更加	-17833
DC	-17834
TM	-17835
gy	-17836
iS	-17837
▁̃	-17838
▁海	-17839
▁请	-17840
▁重	-17841
一堂	-17842
一辆	-17843
之意	-17844
之高	-17845
人将	-17846
先行	-17847
出自	-17848
创意	-17849
利弊	-17850
参半	-17851
参拜	-17852
发送	-17853
可是	-17854
各界	-17855
和可	-17856
和铝	-17857
回头	-17858
塔克	-17859
大受	-17860
奉献	-17861
宁可	-17862
将令	-17863
尔尼	-17864
并于	-17865
康复	-17866
开办	-17867
开销	-17868
归于	-17869
得了	-17870
得分	-17871
心里	-17872
怀着	-17873
悄然	-17874
懂得	-17875
或不	-17876
所处	-17877
抛出	-17878
抱负	-17879
捕鱼	-17880
捷径	-17881
收成	-17882
数月	-17883
文本	-17884
斗士	-17885
斯亚	-17886
智商	-17887
更不	-17888
来对	-17889
样板	-17890
横行	-17891
正轨	-17892
残局	-17893
母乳	-17894
水果	-17895
犬儒	-17896
率和	-17897
珍珠	-17898
瓦鲁	-17899
用品	-17900
甩卖	-17901
皇室	-17902
离职	-17903
米哈	-17904
美欧	-17905
莱恩	-17906
解救	-17907
课堂	-17908
谣言	-17909
走强	-17910
通行	-17911
遣返	-17912
雕像	-17913
颗粒	-17914
飞速	-17915
餐馆	-17916
麦加	-17917
3.8	-17918
6.5	-17919
oll	-17920
tee	-17921
▁Di	-17922
▁两位	-17923
▁但她	-17924
▁印尼	-17925
▁年的	-17926
▁持续	-17927
▁推动	-17928
▁泰国	-17929
▁简单	-17930
万灵丹	-17931
下议院	-17932
与全球	-17933
与国际	-17934
与普京	-17935
两者都	-17936
为这些	-17937
亚图拉	-17938
人口中	-17939
今后的	-17940
从经济	-17941
以增加	-17942
以提高	-17943
以维持	-17944
众议员	-17945
使用者	-17946
公开的	-17947
决定在	-17948
分别为	-17949
加大了	-17950
劳伦斯	-17951
却似乎	-17952
和国外	-17953
和巴西	-17954
和私人	-17955
和种族	-17956
和科学	-17957
和维护	-17958
和道德	-17959
哈耶克	-17960
地球的	-17961
它们也	-17962
它们都	-17963
对市场	-17964
对移民	-17965
岁以上	-17966
并由此	-17967
并获得	-17968
弄清楚	-17969
想知道	-17970
所显示	-17971
扩张的	-17972
投票给	-17973
拯救了	-17974
拿不出	-17975
损失的	-17976
推迟了	-17977
支持其	-17978
斯特恩	-17979
施密特	-17980
无休止	-17981
时间表	-17982
最优秀	-17983
有足够	-17984
来提高	-17985
来获得	-17986
核材料	-17987
每小时	-17988
涵盖了	-17989
满足于	-17990
爱德华	-17991
特殊的	-17992
理解为	-17993
的动作	-17994
的大脑	-17995
的宣传	-17996
的尝试	-17997
的开始	-17998
的改善	-17999
的死亡	-18000
的高速	-18001
相一致	-18002
真相是	-18003
经常被	-18004
给欧洲	-18005
而他的	-18006
而随着	-18007
至少要	-18008
角大楼	-18009
让这一	-18010
诸如此	-18011
负责人	-18012
还要大	-18013
遏制了	-18014
那么他	-18015
都来自	-18016
银行间	-18017
预测到	-18018
首先要	-18019
高估了	-18020
1940	-18021
MENA	-18022
olog	-18023
▁Rev	-18024
▁伊朗的	-18025
▁但其他	-18026
▁但没有	-18027
▁十年前	-18028
▁唐纳德	-18029
▁在欧盟	-18030
▁苏格兰	-18031
▁这显然	-18032
下定决心	-18033
不会因为	-18034
为目标的	-18035
主要原因	-18036
乌克兰和	-18037
人民币的	-18038
人类发展	-18039
他们是否	-18040
令人吃惊	-18041
以色列在	-18042
优先考虑	-18043
信用评级	-18044
关税联盟	-18045
决策过程	-18046
几个月内	-18047
分离主义	-18048
加入北约	-18049
区别对待	-18050
十分之一	-18051
商业投资	-18052
在我们的	-18053
增长公约	-18054
媒体报道	-18055
就是这样	-18056
已经通过	-18057
干预措施	-18058
年以来的	-18059
弗吉尼亚	-18060
思维方式	-18061
惟其如此	-18062
所使用的	-18063
放松管制	-18064
政府通过	-18065
政治稳定	-18066
斯亚贝巴	-18067
日益严重	-18068
是因为它	-18069
曼彻斯特	-18070
月举行的	-18071
正在寻求	-18072
民选政府	-18073
沉重代价	-18074
爆发以来	-18075
独立性的	-18076
的事实是	-18077
的关键是	-18078
相形见绌	-18079
等问题上	-18080
筹集资金	-18081
紧缩措施	-18082
终于开始	-18083
结果显示	-18084
维持现状	-18085
罗德里克	-18086
脱颖而出	-18087
自给自足	-18088
葛兰运动	-18089
解放出来	-18090
负责任的	-18091
财政大臣	-18092
这些东西	-18093
遥不可及	-18094
风险资产	-18095
高失业率	-18096
高级代表	-18097
1,500	-18098
Medic	-18099
▁几乎所有	-18100
▁时至今日	-18101
▁美国国会	-18102
▁英国退欧	-18103
不遗余力地	-18104
亚洲经济体	-18105
决策者应该	-18106
反映了一个	-18107
古吉拉特邦	-18108
同样的问题	-18109
太阳能电池	-18110
巴尔干地区	-18111
是因为他们	-18112
的世界经济	-18113
的最后一个	-18114
的民主制度	-18115
的经验表明	-18116
站不住脚的	-18117
结构性变化	-18118
美国消费者	-18119
联合国难民	-18120
解释为什么	-18121
进行大规模	-18122
问题的根源	-18123
Donald	-18124
ustain	-18125
不仅仅是一个	-18126
固定资产投资	-18127
官方发展援助	-18128
拉姆斯菲尔德	-18129
数十亿美元的	-18130
ovement	-18131
▁political	-18132
1⁄	-18133
77	-18134
oz	-18135
▁e	-18136
▁埃	-18137
▁金	-18138
一团	-18139
万多	-18140
三名	-18141
之声	-18142
习俗	-18143
五月	-18144
交往	-18145
人意	-18146
人格	-18147
仇视	-18148
他被	-18149
代孕	-18150
佛山	-18151
供电	-18152
傀儡	-18153
内向	-18154
军阀	-18155
决赛	-18156
划算	-18157
到访	-18158
反叛	-18159
合伙	-18160
后尘	-18161
命名	-18162
喂养	-18163
喘息	-18164
国情	-18165
图尔	-18166
坐拥	-18167
声名	-18168
壳牌	-18169
头彻	-18170
奈尔	-18171
好坏	-18172
孤儿	-18173
安保	-18174
定时	-18175
尼拉	-18176
岛国	-18177
常谈	-18178
干事	-18179
开脱	-18180
式微	-18181
引出	-18182
弗莱	-18183
得很	-18184
恰逢	-18185
扎比	-18186
托宾	-18187
拉迪	-18188
损伤	-18189
排队	-18190
放到	-18191
有个	-18192
某位	-18193
标榜	-18194
横跨	-18195
水的	-18196
深信	-18197
深层	-18198
牲畜	-18199
特兰	-18200
犯有	-18201
献金	-18202
用电	-18203
疲于	-18204
秉承	-18205
穆兄	-18206
等的	-18207
粉丝	-18208
纷争	-18209
给人	-18210
羞耻	-18211
肩负	-18212
英文	-18213
荒唐	-18214
行星	-18215
谋生	-18216
费尔	-18217
跌至	-18218
踌躇	-18219
身亡	-18220
递减	-18221
逼迫	-18222
那一	-18223
重量	-18224
量子	-18225
镜头	-18226
阿什	-18227
降幅	-18228
鸽派	-18229
,12	-18230
,18	-18231
17%	-18232
5.5	-18233
inh	-18234
por	-18235
uch	-18236
▁一切	-18237
▁决定	-18238
▁创新	-18239
▁在与	-18240
▁管理	-18241
▁结束	-18242
▁考虑	-18243
▁腐败	-18244
▁这条	-18245
不会让	-18246
不合理	-18247
不如说	-18248
与世界	-18249
专家和	-18250
中世纪	-18251
为未来	-18252
为特征	-18253
也一样	-18254
也没能	-18255
交易员	-18256
产油国	-18257
任命为	-18258
似乎与	-18259
依赖的	-18260
保护区	-18261
保留了	-18262
公布了	-18263
出版的	-18264
包含着	-18265
古兰经	-18266
可能有	-18267
合作者	-18268
向他们	-18269
向欧洲	-18270
和分析	-18271
和生产	-18272
和税收	-18273
在朝鲜	-18274
地表明	-18275
头彻尾	-18276
学者和	-18277
安格拉	-18278
对许多	-18279
将会被	-18280
将所有	-18281
就很难	-18282
局势的	-18283
并非是	-18284
幸存者	-18285
得更快	-18286
我们从	-18287
投票中	-18288
报告说	-18289
挑战了	-18290
无政府	-18291
无法让	-18292
是德国	-18293
有大约	-18294
来实施	-18295
来证明	-18296
杰出的	-18297
核聚变	-18298
正准备	-18299
正在从	-18300
死胡同	-18301
比例的	-18302
比如说	-18303
混乱的	-18304
激发了	-18305
爆发时	-18306
生常谈	-18307
痛苦和	-18308
的体系	-18309
的债券	-18310
的反抗	-18311
的呼声	-18312
的大头	-18313
的担心	-18314
的明确	-18315
的框架	-18316
的概率	-18317
的特征	-18318
的融资	-18319
的衰退	-18320
相匹配	-18321
系统中	-18322
继承人	-18323
美国前	-18324
而改变	-18325
艺术品	-18326
被纳入	-18327
誓旦旦	-18328
认定为	-18329
设定的	-18330
跨党派	-18331
轻松地	-18332
还有待	-18333
这条路	-18334
远没有	-18335
邻为壑	-18336
预计到	-18337
高水平	-18338
鲍里斯	-18339
0.5%	-18340
1.5°	-18341
eral	-18342
ific	-18343
neth	-18344
▁Mer	-18345
▁但其实	-18346
▁但是这	-18347
▁但最近	-18348
▁在世界	-18349
▁在今年	-18350
▁在理想	-18351
▁对欧洲	-18352
▁日本的	-18353
▁更广泛	-18354
▁甚至是	-18355
▁相对于	-18356
▁阿巴斯	-18357
一臂之力	-18358
不可能在	-18359
严重影响	-18360
中的角色	-18361
为了避免	-18362
主权债券	-18363
人力资源	-18364
人权宣言	-18365
他们来说	-18366
伊朗总统	-18367
伊朗政府	-18368
保护措施	-18369
停火协议	-18370
储备银行	-18371
其成员国	-18372
决策者们	-18373
出了问题	-18374
出于政治	-18375
初创企业	-18376
制造业和	-18377
可以增加	-18378
合作组织	-18379
同样也是	-18380
和意大利	-18381
和菲律宾	-18382
因为中国	-18383
因为没有	-18384
国民大会	-18385
坚决反对	-18386
多元主义	-18387
大学教授	-18388
大行其道	-18389
如何处理	-18390
如何解决	-18391
对伊拉克	-18392
弗朗西斯	-18393
彻头彻尾	-18394
必须成为	-18395
必须解决	-18396
所支持的	-18397
才能获得	-18398
援助资金	-18399
政策目标	-18400
教育水平	-18401
无法满足	-18402
明确指出	-18403
是一回事	-18404
是可能的	-18405
是否可以	-18406
是明确的	-18407
有核国家	-18408
果断行动	-18409
欧洲必须	-18410
欧盟成员	-18411
每个人的	-18412
民主政治	-18413
注意力从	-18414
现任总统	-18415
现在应该	-18416
监管者的	-18417
相对较低	-18418
社交网络	-18419
紧密合作	-18420
经济前景	-18421
经济结构	-18422
统治地位	-18423
维持下去	-18424
绿色革命	-18425
美国人民	-18426
联合声明	-18427
该委员会	-18428
财政契约	-18429
货币供应	-18430
贸易关系	-18431
软实力的	-18432
这一转变	-18433
进入市场	-18434
远远大于	-18435
重蹈覆辙	-18436
金融工具	-18437
难以想象	-18438
集中精力	-18439
革命卫队	-18440
预防措施	-18441
领导人都	-18442
马尔代夫	-18443
,2005	-18444
—2007	-18445
▁在特朗普	-18446
▁私人部门	-18447
与巴基斯坦	-18448
令人震惊的	-18449
任何形式的	-18450
其中也包括	-18451
加入欧元区	-18452
叙利亚冲突	-18453
在此过程中	-18454
埃博拉病毒	-18455
天安门广场	-18456
左翼和右翼	-18457
恐怖分子的	-18458
我们不应该	-18459
来说是一个	-18460
欧元区外围	-18461
纳税人的钱	-18462
经济一体化	-18463
经济的增长	-18464
自己的利益	-18465
自由民主的	-18466
萨卡什维利	-18467
西方国家的	-18468
边境调节税	-18469
这样的政策	-18470
进一步降低	-18471
部分原因是	-18472
首相卡梅伦	-18473
▁原因很简单	-18474
▁巴勒斯坦人	-18475
▁英格兰银行	-18476
亚的斯亚贝巴	-18477
是不可持续的	-18478
适应气候变化	-18479
阿拉伯国家的	-18480
▁中国人民银行	-18481
世界其他地区的	-18482
货币和财政政策	-18483
▁从某种程度上说	-18484
3—	-18485
5—	-18486
89	-18487
AC	-18488
DG	-18489
ón	-18490
▁德	-18491
一把	-18492
一顾	-18493
三方	-18494
下达	-18495
不丹	-18496
不曾	-18497
与众	-18498
世代	-18499
之父	-18500
乐意	-18501
代谢	-18502
伤及	-18503
偏爱	-18504
像我	-18505
公元	-18506
其核	-18507
冷酷	-18508
列岛	-18509
利尔	-18510
前来	-18511
加权	-18512
勒索	-18513
医护	-18514
印巴	-18515
发作	-18516
发端	-18517
各级	-18518
合规	-18519
后退	-18520
和被	-18521
国境	-18522
图谋	-18523
地狱	-18524
太久	-18525
家里	-18526
容量	-18527
宿命	-18528
小麦	-18529
岛上	-18530
已达	-18531
布兰	-18532
年期	-18533
并能	-18534
并进	-18535
开拓	-18536
弃权	-18537
得住	-18538
急转	-18539
成败	-18540
拉大	-18541
拍摄	-18542
接踵	-18543
效用	-18544
斯库	-18545
新月	-18546
时才	-18547
明晰	-18548
春季	-18549
最差	-18550
朝圣	-18551
构架	-18552
林匹	-18553
某项	-18554
死后	-18555
洁净	-18556
洲际	-18557
流言	-18558
满怀	-18559
满满	-18560
火上	-18561
热潮	-18562
热钱	-18563
特例	-18564
疏离	-18565
病菌	-18566
的旧	-18567
盟军	-18568
看好	-18569
看齐	-18570
着力	-18571
矿物	-18572
科恩	-18573
科菲	-18574
筹备	-18575
管用	-18576
粉碎	-18577
经纪	-18578
老师	-18579
老虎	-18580
者都	-18581
而至	-18582
脱碳	-18583
英尺	-18584
萨缪	-18585
蕴含	-18586
西西	-18587
诱使	-18588
诸国	-18589
重拾	-18590
钉钉	-18591
铁腕	-18592
面值	-18593
颁发	-18594
领头	-18595
高端	-18596
16%	-18597
450	-18598
NGO	-18599
itt	-18600
pro	-18601
▁它在	-18602
▁应当	-18603
▁很快	-18604
▁情况	-18605
▁法律	-18606
▁理解	-18607
▁缅甸	-18608
▁而其	-18609
▁雅典	-18610
不充分	-18611
不支持	-18612
不是在	-18613
与那些	-18614
与邻国	-18615
临界点	-18616
为所有	-18617
之不理	-18618
也从未	-18619
也是最	-18620
也有着	-18621
他没有	-18622
会如此	-18623
会随着	-18624
低效的	-18625
低油价	-18626
公司将	-18627
共同化	-18628
共有的	-18629
其他的	-18630
其目标	-18631
击败了	-18632
前瞻性	-18633
包括我	-18634
双方的	-18635
反垄断	-18636
和冲突	-18637
和增加	-18638
和多边	-18639
和福利	-18640
和荷兰	-18641
和需求	-18642
固有的	-18643
土地上	-18644
基础是	-18645
大多是	-18646
奴隶制	-18647
学生的	-18648
安排的	-18649
将十分	-18650
将失去	-18651
将自身	-18652
就包括	-18653
展开了	-18654
工作时	-18655
希望和	-18656
并帮助	-18657
应用的	-18658
建立新	-18659
弊大于	-18660
思想和	-18661
性骚扰	-18662
总收入	-18663
或者在	-18664
战略上	-18665
接触到	-18666
推向了	-18667
数不清	-18668
更深入	-18669
更适合	-18670
最主要	-18671
最富有	-18672
有两种	-18673
来防止	-18674
树立了	-18675
核野心	-18676
武力的	-18677
比不上	-18678
求助于	-18679
现在也	-18680
的武器	-18681
的药物	-18682
真的是	-18683
研究员	-18684
等组织	-18685
繁荣期	-18686
约束力	-18687
缔造者	-18688
美国驻	-18689
联邦制	-18690
设计出	-18691
象征性	-18692
转移给	-18693
追求的	-18694
逆转录	-18695
通过其	-18696
遇到的	-18697
都要多	-18698
金融城	-18699
集中到	-18700
需要与	-18701
需要从	-18702
1944	-18703
1949	-18704
▁他们会	-18705
▁但现实	-18706
▁但那些	-18707
▁你可以	-18708
▁卡梅伦	-18709
▁同样的	-18710
▁政府的	-18711
不稳定性	-18712
专制政权	-18713
中国人民	-18714
中国当局	-18715
中间道路	-18716
为中心的	-18717
主要问题	-18718
举行大选	-18719
举行选举	-18720
二战期间	-18721
人们开始	-18722
代表大会	-18723
以及欧盟	-18724
值得关注	-18725
全面禁止	-18726
公共健康	-18727
关键性的	-18728
其他所有	-18729
努力工作	-18730
参与者的	-18731
可以得到	-18732
吉尔吉斯	-18733
和大规模	-18734
和投资者	-18735
因为后者	-18736
基准利率	-18737
基因驱动	-18738
安全威胁	-18739
实现繁荣	-18740
工作阶级	-18741
巴以冲突	-18742
巴伐利亚	-18743
并不仅仅	-18744
得到改善	-18745
怎样才能	-18746
急剧上升	-18747
感到惊讶	-18748
政府收入	-18749
政治僵局	-18750
无可避免	-18751
是否存在	-18752
更加关注	-18753
本世纪末	-18754
极低利率	-18755
正确方向	-18756
浮出水面	-18757
犯罪行为	-18758
的决定性	-18759
的流动性	-18760
的第一步	-18761
的角度看	-18762
矛头指向	-18763
确实存在	-18764
私募股权	-18765
税收政策	-18766
立法机构	-18767
米哈伊尔	-18768
系统性地	-18769
紧急情况	-18770
经济实力	-18771
结构变化	-18772
置之不理	-18773
良性循环	-18774
计划生育	-18775
证据显示	-18776
货币供给	-18777
贷款利率	-18778
越来越高	-18779
过于乐观	-18780
还不如说	-18781
这一计划	-18782
这个方向	-18783
这样的人	-18784
重新平衡	-18785
需要得到	-18786
非常有限	-18787
领先地位	-18788
领土主张	-18789
马哈茂德	-18790
,2000	-18791
ordon	-18792
▁不难理解	-18793
▁他们必须	-18794
▁我们认为	-18795
▁金融市场	-18796
中国和南非	-18797
伊斯兰教的	-18798
全球范围内	-18799
叙利亚问题	-18800
和金融稳定	-18801
国内和国际	-18802
在许多国家	-18803
多年来一直	-18804
大学毕业生	-18805
撒切尔夫人	-18806
斯洛文尼亚	-18807
最大的国家	-18808
正确地指出	-18809
法国大革命	-18810
甚至有可能	-18811
留在欧元区	-18812
的主要目标	-18813
的国际合作	-18814
的经济模式	-18815
系统重要性	-18816
经济的发展	-18817
造成的影响	-18818
长期存在的	-18819
韩国和日本	-18820
liance	-18821
▁这些国家的	-18822
▁这就意味着	-18823
右翼民粹主义	-18824
和其他地区的	-18825
基础设施支出	-18826
解决气候变化	-18827
olution	-18828
▁今年早些时候	-18829
▁在某种程度上	-18830
艾哈迈迪内贾德	-18831
▁European	-18832
撒哈拉以南非洲地区	-18833
1—	-18834
tt	-18835
▁俄	-18836
▁去	-18837
一根	-18838
上网	-18839
不谈	-18840
两点	-18841
丹尼	-18842
人与	-18843
优雅	-18844
伸出	-18845
但与	-18846
但当	-18847
但有	-18848
倍感	-18849
借债	-18850
先后	-18851
光诚	-18852
全额	-18853
公用	-18854
兼顾	-18855
再无	-18856
冲浪	-18857
则有	-18858
判处	-18859
剂量	-18860
助澜	-18861
受控	-18862
受难	-18863
台风	-18864
合资	-18865
听从	-18866
周末	-18867
哀叹	-18868
增添	-18869
大火	-18870
天下	-18871
夺去	-18872
契机	-18873
威斯	-18874
学金	-18875
定论	-18876
小怪	-18877
小镇	-18878
尖阁	-18879
就曾	-18880
就范	-18881
就跟	-18882
尼加	-18883
居然	-18884
年一	-18885
年占	-18886
年纪	-18887
广阔	-18888
应有	-18889
废弃	-18890
开幕	-18891
得逞	-18892
思索	-18893
憎恶	-18894
手上	-18895
投给	-18896
抚养	-18897
抵免	-18898
捆绑	-18899
接待	-18900
插手	-18901
撕裂	-18902
改观	-18903
文职	-18904
斯登	-18905
新书	-18906
方程	-18907
施展	-18908
时光	-18909
是的	-18910
有素	-18911
未曾	-18912
杜鲁	-18913
棉花	-18914
求职	-18915
沙拉	-18916
洛夫	-18917
洛斯	-18918
津贴	-18919
洪灾	-18920
浇油	-18921
濒危	-18922
特网	-18923
特许	-18924
玷污	-18925
生动	-18926
生根	-18927
示范	-18928
称呼	-18929
窃听	-18930
竞技	-18931
色的	-18932
芯片	-18933
见效	-18934
警官	-18935
让位	-18936
豪华	-18937
账单	-18938
赶出	-18939
超市	-18940
载体	-18941
过快	-18942
还为	-18943
还没	-18944
进度	-18945
迪瓦	-18946
迷恋	-18947
逃往	-18948
通勤	-18949
都以	-18950
都很	-18951
都曾	-18952
配备	-18953
阿赫	-18954
非同	-18955
非盟	-18956
顶端	-18957
魔法	-18958
黑海	-18959
14%	-18960
CDS	-18961
MGI	-18962
ors	-18963
oss	-18964
uth	-18965
▁50	-18966
▁we	-18967
▁丹佛	-18968
▁地区	-18969
▁我想	-18970
▁截止	-18971
▁数据	-18972
▁选择	-18973
▁马来	-18974
一连串	-18975
三年中	-18976
下降和	-18977
不再有	-18978
不能在	-18979
两国都	-18980
之后才	-18981
了整个	-18982
事件后	-18983
亿英镑	-18984
以中国	-18985
以此来	-18986
但并未	-18987
全要素	-18988
决定将	-18989
创造的	-18990
别人的	-18991
到那时	-18992
势在必	-18993
区域内	-18994
医生和	-18995
十亿人	-18996
却从未	-18997
参与国	-18998
可以向	-18999
和强化	-19000
喀拉拉	-19001
在决定	-19002
失败后	-19003
奥尔良	-19004
好得多	-19005
好比是	-19006
妖魔化	-19007
子公司	-19008
宝贵的	-19009
已经把	-19010
希望能	-19011
年增长	-19012
并改善	-19013
很难说	-19014
很高兴	-19015
所抵消	-19016
所经历	-19017
所面对	-19018
担任过	-19019
挑战者	-19020
推动下	-19021
政府为	-19022
无国界	-19023
无法从	-19024
无能为	-19025
昔日的	-19026
是关于	-19027
更包容	-19028
曾经在	-19029
杜鲁门	-19030
来控制	-19031
核安全	-19032
比预期	-19033
法尼亚	-19034
波助澜	-19035
然后再	-19036
特点是	-19037
的一般	-19038
的共识	-19039
的动力	-19040
的学校	-19041
的广泛	-19042
的效率	-19043
的日益	-19044
的裁决	-19045
的赤字	-19046
的阴影	-19047
相媲美	-19048
相当大	-19049
石油的	-19050
移交给	-19051
穷国的	-19052
站在了	-19053
等方式	-19054
脱离了	-19055
自己和	-19056
行动和	-19057
要么是	-19058
让国家	-19059
设计师	-19060
购买了	-19061
还是有	-19062
还要高	-19063
这句话	-19064
道德和	-19065
都未能	-19066
陈光诚	-19067
限度的	-19068
难民和	-19069
非正规	-19070
领土的	-19071
领域中	-19072
马拉维	-19073
2.5%	-19074
etty	-19075
ties	-19076
▁但一个	-19077
▁但也许	-19078
▁到那时	-19079
▁在非洲	-19080
▁查韦斯	-19081
▁甚至连	-19082
世界人口	-19083
为代表的	-19084
主要央行	-19085
事态发展	-19086
以色列对	-19087
保持警惕	-19088
做更多的	-19089
其他因素	-19090
内政部长	-19091
几个月后	-19092
利用这些	-19093
区分开来	-19094
危险之中	-19095
历史上最	-19096
取得进步	-19097
变得更糟	-19098
可能还会	-19099
和平共处	-19100
因为人们	-19101
国内市场	-19102
国防开支	-19103
大惊小怪	-19104
失业保险	-19105
实用主义	-19106
尽管美国	-19107
并不只是	-19108
情报部门	-19109
改革开放	-19110
政府能够	-19111
政治支持	-19112
政界人士	-19113
普遍存在	-19114
更加有效	-19115
最危险的	-19116
有所作为	-19117
核心作用	-19118
欧元贬值	-19119
正在崛起	-19120
民主刚果	-19121
民主转型	-19122
民意测验	-19123
民族身份	-19124
汇率升值	-19125
激进主义	-19126
火上浇油	-19127
疫苗接种	-19128
的大萧条	-19129
的民主党	-19130
监管措施	-19131
科技企业	-19132
科技进步	-19133
空军基地	-19134
经济学的	-19135
继续恶化	-19136
能够产生	-19137
能源资源	-19138
苹果公司	-19139
要归因于	-19140
视为一个	-19141
财政收入	-19142
贸易代表	-19143
资金来源	-19144
赤字削减	-19145
达赖喇嘛	-19146
这一任务	-19147
这一角色	-19148
这些变化	-19149
这些规则	-19150
这有助于	-19151
金融援助	-19152
金融风险	-19153
银行危机	-19154
长期来看	-19155
黎巴嫩的	-19156
,2004	-19157
▁lead	-19158
▁俄罗斯的	-19159
▁研究表明	-19160
不受欢迎的	-19161
与俄罗斯的	-19162
专门委员会	-19163
严重的经济	-19164
也没有什么	-19165
受过教育的	-19166
可支配收入	-19167
大多数国家	-19168
对全球经济	-19169
对气候变化	-19170
布什政府的	-19171
提供足够的	-19172
文化大革命	-19173
本世纪中叶	-19174
核武器计划	-19175
欧盟国家的	-19176
民族国家的	-19177
瓦鲁法基斯	-19178
生产率提高	-19179
私营部门的	-19180
种族和宗教	-19181
进一步扩大	-19182
高昂的代价	-19183
▁而与此同时	-19184
中等收入陷阱	-19185
哥伦比亚革命	-19186
年金融危机后	-19187
许多发展中国家	-19188
▁Capital	-19189
国际货币基金组织的	-19190
76	-19191
HC	-19192
Me	-19193
OP	-19194
RE	-19195
ef	-19196
▁́	-19197
▁使	-19198
▁打	-19199
一己	-19200
七年	-19201
上说	-19202
下面	-19203
不言	-19204
与前	-19205
丑陋	-19206
之最	-19207
之谈	-19208
乘坐	-19209
乙醇	-19210
亲欧	-19211
人际	-19212
伊万	-19213
侵占	-19214
侵袭	-19215
先知	-19216
先科	-19217
其时	-19218
内卢	-19219
几大	-19220
分工	-19221
分成	-19222
分红	-19223
列车	-19224
判定	-19225
动武	-19226
卡罗	-19227
即刻	-19228
哈德	-19229
基层	-19230
大同	-19231
天皇	-19232
天空	-19233
太小	-19234
奥利	-19235
姗姗	-19236
存亡	-19237
学前	-19238
宾夕	-19239
屏障	-19240
带入	-19241
并购	-19242
废止	-19243
延期	-19244
引来	-19245
弹药	-19246
得当	-19247
忏悔	-19248
总比	-19249
恶魔	-19250
情局	-19251
或有	-19252
执照	-19253
把戏	-19254
投身	-19255
拉姆	-19256
接到	-19257
放开	-19258
放慢	-19259
敞口	-19260
旗鼓	-19261
无止	-19262
晚上	-19263
普斯	-19264
更佳	-19265
最深	-19266
最能	-19267
机动	-19268
格言	-19269
欣慰	-19270
比这	-19271
流产	-19272
涅夫	-19273
渡过	-19274
点的	-19275
版权	-19276
牙还	-19277
特雷	-19278
由我	-19279
登陆	-19280
皮肤	-19281
称职	-19282
空想	-19283
等着	-19284
繁琐	-19285
而起	-19286
蒂尔	-19287
蒙羞	-19288
薪资	-19289
表露	-19290
议价	-19291
诚意	-19292
赫勒	-19293
身着	-19294
适龄	-19295
逐出	-19296
遍地	-19297
都没	-19298
都由	-19299
防护	-19300
难堪	-19301
难逃	-19302
零碳	-19303
震慑	-19304
震撼	-19305
颜色	-19306
饮料	-19307
高得	-19308
麦当	-19309
黎明	-19310
黑帮	-19311
齐观	-19312
0.4	-19313
1⁄2	-19314
III	-19315
ads	-19316
ost	-19317
rah	-19318
sky	-19319
▁Ex	-19320
▁id	-19321
▁乐观	-19322
▁今后	-19323
▁他对	-19324
▁他将	-19325
▁但愿	-19326
▁常常	-19327
▁影响	-19328
▁总理	-19329
▁目标	-19330
▁联邦	-19331
▁避免	-19332
▁须知	-19333
不希望	-19334
世纪前	-19335
为何要	-19336
之处是	-19337
了一大	-19338
五年内	-19339
亿美金	-19340
以下的	-19341
传播的	-19342
做一些	-19343
其规模	-19344
军事上	-19345
减少其	-19346
几年里	-19347
几百万	-19348
力量和	-19349
医院和	-19350
协定的	-19351
卡梅隆	-19352
[...]
